! 33962
' 149947
, 621105
. 539516
: 5051
; 4267
? 45884
a 65498
ab 10633
able 6721
ac 6322
ace 8653
ach 8568
ack 4998
act 9239
ad 27009
ade 4612
ag 8098
age 8874
ah 1631
ain 9850
ak 4974
al 60773
all 9486
ally 10620
am 25982
ame 11922
an 43102
ance 5325
and 14266
ans 8352
ant 12301
ap 7128
ar 55892
ard 12485
are 9474
ark 4824
ars 7693
art 4271
ary 5072
as 25243
ase 7132
ass 6727
ast 11124
at 47457
ate 19308
ated 5883
ater 5085
ation 22631
ations 5964
aus 768
ause 1465
av 4640
ay 17413
b 43410
ber 7897
c 70151
ce 17082
cess 6090
ch 28209
ci 9338
ck 10954
co 5043
ct 17702
d 47782
day 5379
e 88835
ect 11278
ed 96833
een 10088
el 11654
em 8949
en 41196
ence 6101
ens 5394
ent 37767
ents 5734
enty 1418
ep 7148
er 74009
ere 8043
ers 21407
es 81264
ess 14689
est 19202
et 39296
f 40632
fe 5206
ff 8368
fore 4520
form 5017
g 58190
ge 12431
gh 1756
h 46340
her 6898
hing 2719
i 65173
ia 5092
ial 5018
ib 9693
ic 46974
ical 5510
ice 9646
ich 1489
ick 7831
id 25382
ide 9094
ie 15017
ies 14191
if 13211
iff 373
ig 11743
igh 4807
ight 12901
ign 5284
il 23761
ild 5317
ile 5321
ill 11725
im 20388
in 47480
ind 9759
ine 12772
ing 112437
ink 2936
int 6548
ion 29286
ions 8967
ip 11475
ir 18239
ire 6220
is 25048
ish 5539
ist 15877
it 44332
ite 8887
ith 2606
ition 4709
itt 2324
▁<SC> 31
ity 15272
iv 10522
ive 15626
ix 2267
iz 8412
j 8251
k 36175
ke 5382
king 10944
l 62968
ld 13136
le 47006
ll 33387
ly 36220
m 75999
ment 14702
mp 4572
n 63115
na 2547
nd 30886
nder 1761
ning 5533
nt 4686
o 59490
od 9886
og 6783
ol 18109
om 20941
ome 6978
on 40278
one 10119
ong 8662
oo 7289
ook 4746
ool 4515
op 12459
or 34046
ord 4939
ore 4195
orm 1795
ors 4592
ort 15750
ory 4832
os 14096
ose 3453
ot 23366
other 4601
ou 11716
ough 6830
ould 4291
ound 5376
ount 5446
our 9421
ous 10009
out 3596
ow 20225
own 1990
p 51344
pe 10740
per 9311
pl 5421
ple 5062
pp 9024
pt 5774
q 1157
qu 9586
r 57591
ra 22440
re 54868
reat 4292
red 8370
ree 4151
res 8376
ress 5663
ro 16841
rou 2422
rough 692
round 5500
ry 6808
s 238301
se 15746
sel 5471
so 1314
st 27804
t 93139
ter 22965
th 20283
ther 1214
ting 5526
ty 12170
u 45593
ually 1859
ub 5437
uct 5372
ud 6185
ue 7503
ul 15247
ult 5890
um 16890
un 17009
und 1518
ur 25255
ure 10548
us 20107
ust 7180
ut 19180
v 39652
ve 31303
vel 5691
ven 6993
ver 21411
very 591
ving 5625
w 36604
way 6921
x 12417
xt 5827
y 90319
ys 4964
z 11162
а 48276
ак 21720
ако 6224
б 40390
ба 9520
бе 12291
би 15190
бо 28445
бу 6104
бы 6625
бя 9124
в 74576
ва 68949
вать 19103
ве 23219
вер 13602
вет 11668
ви 41362
вля 9458
вно 7935
во 40850
вой 5597
ву 6329
вы 20748
вя 6175
г 43654
га 20454
гда 7868
ги 20570
го 58236
год 4898
гра 7269
гу 7005
д 82922
да 48183
де 29086
дела 910
дет 6936
ди 34204
дин 6002
до 34214
ду 22145
ды 11672
дь 7475
е 117778
ей 8504
ем 64884
ему 9861
ен 42780
ени 19055
ение 15470
ения 18252
енно 10710
ень 10676
ер 32348
ере 7202
ет 54065
ете 14206
ется 20939
ж 48009
жа 16309
же 13698
жен 7444
жи 18173
жно 9184
жу 5029
з 56750
за 17061
зи 10598
зна 5872
зо 13890
зу 9018
зы 5188
зыва 5973
и 69382
й 132985
йте 10303
к 86963
ка 50277
каза 9444
ке 10886
ки 38410
ко 29055
ков 6232
кой 6075
ком 4864
кра 4653
ку 27609
л 99934
ла 60667
лась 5159
ле 36187
лее 5690
лен 8260
лет 5819
ли 85353
лись 6272
ло 59774
лове 524
лось 6249
лся 8003
лу 9651
лы 9510
ль 46741
лько 4997
льно 15258
лю 14304
ля 17986
м 106633
ма 29852
ме 20643
мен 19027
мер 8431
мет 4774
ми 46604
мо 23420
мот 9586
му 14882
мы 10876
мя 2044
н 95430
на 46253
ная 10927
не 32719
ни 53984
ние 10026
нии 4843
нима 10340
ния 9684
но 61972
нов 5695
ного 16195
ное 5539
ной 16602
ном 4628
ну 19212
ную 7193
ны 20043
ные 18728
ный 19329
ным 8902
ных 14942
нь 4920
ня 19142
о 38606
об 9622
ой 9240
ор 7168
п 34846
па 20507
пе 12388
пер 5984
пи 18457
по 25489
пра 7197
при 5298
про 8825
пу 8754
р 76407
ра 78625
ран 5922
ре 50447
рет 6315
ри 57265
ро 59531
ров 8989
рова 5025
ром 6293
ру 32037
ры 20491
ря 15636
с 83993
са 16589
се 8026
си 19668
ска 8203
ски 8270
ско 16859
сли 1342
сно 7814
со 22438
сси 5263
ст 36381
ста 23850
ств 15256
ства 5900
стви 5913
ство 10331
сте 5312
сти 27036
сто 15560
стоя 5368
стро 5891
сту 4927
сть 18111
су 7223
сы 8920
сь 13334
ся 17884
т 101593
та 43948
те 45220
тель 8320
тельно 9088
ти 46865
то 39975
тов 7507
том 6458
тому 95
тся 10457
ту 15791
ты 16056
ть 81932
ться 13705
у 41816
ут 10914
ую 8446
ф 19056
фи 5361
х 71495
ха 9486
хо 14937
ходи 11503
ц 17452
ца 9700
це 12632
ци 16946
ции 8060
ция 4826
ч 56284
ча 27823
час 49
че 21809
чески 6502
чи 37154
чно 12954
ш 41073
ша 14941
ше 26893
ши 26081
шо 4869
шь 9963
щ 13874
ща 8045
ще 14225
щи 11233
ъ 4986
ы 31439
ь 35820
э 3583
ю 60044
ют 15109
ются 6086
ющи 5001
я 80967
ят 7677
ять 4845
▁ 75385
▁- 54293
▁a 135585
▁ab 7068
▁about 18051
▁ac 7898
▁act 4303
▁actually 5789
▁ad 10259
▁af 5155
▁ag 3217
▁again 5103
▁al 13008
▁all 21923
▁also 9844
▁am 8520
▁an 24942
▁and 157431
▁any 9647
▁app 6954
▁ar 6444
▁are 33205
▁as 32753
▁at 24391
▁b 63552
▁back 7835
▁be 49458
▁bec 2778
▁because 12329
▁been 7393
▁bet 5391
▁bl 6181
▁br 5936
▁bu 5899
▁but 26647
▁by 13312
▁c 77997
▁call 4845
▁can 30631
▁ch 20453
▁chan 6020
▁cl 11861
▁co 11134
▁com 7547
▁come 4761
▁comm 5744
▁comp 9144
▁con 13934
▁cont 8070
▁could 6068
▁d 47898
▁day 5622
▁de 22788
▁did 7348
▁diff 1090
▁differe 966
▁different 5145
▁dis 6351
▁do 29564
▁does 5283
▁don 13944
▁down 5891
▁e 44816
▁eight 5053
▁en 10715
▁even 5869
▁every 9116
▁ex 21223
▁f 65223
▁fe 6533
▁feel 4594
▁fir 405
▁first 7887
▁five 5462
▁fl 5163
▁fo 5101
▁for 51982
▁four 6203
▁fr 6471
▁from 16443
▁g 35043
▁get 16738
▁go 20260
▁going 14595
▁gon 41
▁gonna 5080
▁good 7341
▁got 7502
▁gr 5096
▁great 4731
▁gu 6111
▁h 45724
▁ha 9047
▁had 7913
▁happ 5018
▁has 10095
▁have 33945
▁he 27415
▁hel 278
▁help 5761
▁her 5786
▁here 14133
▁his 7043
▁how 13406
▁hund 1
▁hundred 5978
▁i 111461
▁if 21342
▁imp 7086
▁in 99363
▁inc 5387
▁int 5840
▁into 8343
▁is 76118
▁it 86138
▁j 10812
▁jo 4986
▁just 21446
▁k 9802
▁ke 5500
▁kind 5938
▁kn 1615
▁know 18067
▁l 42287
▁le 15779
▁let 8526
▁li 11969
▁like 23875
▁little 6495
▁lo 9726
▁look 10734
▁lot 6879
▁m 64494
▁ma 10866
▁make 8010
▁man 9309
▁may 6382
▁me 24437
▁mo 9661
▁more 11927
▁most 4724
▁mu 347
▁much 5624
▁my 19713
▁n 27668
▁ne 11207
▁need 8659
▁new 7016
▁nin 4506
▁no 8914
▁not 24149
▁now 14053
▁o 27021
▁of 109524
▁off 6775
▁ok 5442
▁on 40182
▁one 24659
▁only 4957
▁or 27293
▁other 8206
▁our 14596
▁out 16548
▁over 7974
▁p 64178
▁part 8066
▁pe 1798
▁peop 53
▁people 11510
▁per 8090
▁ph 4892
▁pl 15065
▁po 7010
▁pr 8660
▁pre 6695
▁pro 18136
▁prob 4767
▁put 4818
▁qu 10733
▁r 23807
▁re 50168
▁really 12646
▁res 6749
▁right 11005
▁ro 7330
▁s 73730
▁sa 9120
▁say 8814
▁sc 6096
▁se 23302
▁see 13576
▁ser 4909
▁sh 16536
▁she 6908
▁show 4711
▁six 5728
▁so 55659
▁som 104
▁some 14887
▁somet 1576
▁something 5563
▁sp 8520
▁spe 6765
▁st 37264
▁start 6809
▁stud 4579
▁su 21256
▁t 36435
▁ta 5531
▁take 5983
▁tal 5994
▁te 13566
▁th 13917
▁than 9342
▁that 98654
▁the 232314
▁their 9499
▁them 11306
▁then 13293
▁there 21451
▁these 10097
▁they 26544
▁thing 5118
▁things 6848
▁think 11934
▁this 48935
▁those 6797
▁three 7408
▁through 5916
▁tim 2693
▁time 10748
▁to 170007
▁tr 15526
▁tw 2593
▁twenty 6996
▁two 12901
▁u 6844
▁un 8686
▁under 4850
▁up 16108
▁us 16506
▁use 6218
▁v 18674
▁very 9084
▁vide 5132
▁w 33130
▁want 12699
▁was 26239
▁way 8505
▁we 67558
▁well 8722
▁were 7705
▁wh 10528
▁what 25431
▁when 13550
▁where 7976
▁which 10653
▁who 10969
▁will 15417
▁with 34926
▁wor 10412
▁work 8385
▁would 9749
▁y 6940
▁ye 8079
▁yeah 5189
▁you 107874
▁your 26580
▁а 52227
▁б 18887
▁ба 6621
▁бе 11768
▁бо 14066
▁боль 9452
▁бу 7129
▁будет 10738
▁буду 5205
▁бы 21753
▁было 6550
▁быть 5718
▁в 139845
▁ва 15709
▁вам 8294
▁вас 7015
▁ве 13733
▁ви 10814
▁виде 1830
▁видео 5847
▁во 26445
▁воз 8920
▁вот 19936
▁вре 3105
▁время 5019
▁вс 6586
▁все 32691
▁вы 46192
▁г 21095
▁где 4899
▁гла 4676
▁го 18037
▁гово 6562
▁д 30135
▁да 25746
▁даже 5306
▁де 15911
▁дела 7421
▁ди 5167
▁для 17889
▁до 33395
▁дол 6789
▁дру 11938
▁ду 6784
▁е 9307
▁его 11791
▁ее 6380
▁если 15265
▁есть 15425
▁еще 9421
▁же 15356
▁жи 5874
▁жиз 5163
▁з 23101
▁за 52558
▁зде 30
▁здесь 7569
▁зна 10431
▁и 153366
▁из 23594
▁или 11131
▁ин 6720
▁инте 5664
▁ис 5359
▁испо 4868
▁их 7232
▁к 44877
▁ка 20491
▁каж 5237
▁как 39464
▁ко 27063
▁когда 9348
▁ком 7878
▁кон 9174
▁кото 8298
▁которы 2232
▁которые 6948
▁который 4799
▁кра 5736
▁кто 4915
▁ку 8506
▁ла 4936
▁ле 7235
▁ли 14854
▁лу 4711
▁лю 14408
▁м 16826
▁ма 19371
▁ме 14016
▁мен 1515
▁меня 8982
▁ми 11201
▁мне 7341
▁мо 28152
▁мож 3952
▁может 6809
▁можно 8454
▁му 6385
▁мы 22463
▁н 2852
▁на 124891
▁нам 4838
▁нас 7841
▁не 98683
▁нет 6550
▁ни 20111
▁но 33967
▁ну 11045
▁нужно 6082
▁о 61539
▁об 24030
▁обра 6020
▁од 9356
▁он 16626
▁она 8855
▁они 10729
▁оп 5560
▁оста 6239
▁от 37722
▁оч 327
▁очень 11840
▁п 23831
▁па 12548
▁пер 8157
▁пере 12738
▁пи 6369
▁пла 5453
▁по 106505
▁под 19547
▁пока 6090
▁полу 7797
▁помо 5257
▁пос 5482
▁после 6388
▁потому 6538
▁поч 4576
▁поэ 156
▁поэтому 4762
▁пра 8619
▁пре 9276
▁пред 7103
▁при 40313
▁про 42552
▁прои 4845
▁просто 7999
▁пу 6202
▁ра 11323
▁рабо 8145
▁раз 21684
▁рас 10773
▁ре 22735
▁ро 11697
▁ру 7312
▁с 127271
▁са 13315
▁само 7007
▁сво 11607
▁свои 5437
▁сдела 6092
▁се 17331
▁сей 127
▁сейчас 6336
▁си 13314
▁ско 4690
▁сле 4779
▁сло 5999
▁слу 5661
▁со 40867
▁ст 10689
▁ста 13660
▁сто 10426
▁су 8316
▁т 34889
▁та 4637
▁так 28688
▁также 4924
▁таки 6959
▁там 7190
▁те 22066
▁тем 5675
▁то 57382
▁того 5573
▁только 7598
▁ты 10798
▁у 78986
▁уже 8796
▁ф 14900
▁фи 5269
▁х 7265
▁хо 14107
▁хоро 5738
▁ц 6356
▁ч 12515
▁ча 8397
▁че 4105
▁челове 6053
▁чем 5051
▁что 55223
▁чтобы 11218
▁чу 5027
▁ш 6962
▁э 18735
▁эти 8200
▁это 45801
▁этого 5581
▁этом 6265
▁этот 5724
▁я 46023
▁– 30350
