{"<unk>": 1, "<pad>": 0, "<s>": 2, "</s>": 3, "_": 4, "]": 5, "[": 6, ":": 7, "-": 8, ".": 9, ",": 10, "\u2581*": 11, "\u2581\u043d\u0430": 12, "\u2581": 13, "\u2581\u0441": 14, "\u0435": 15, "\u042f": 16, "\u2581\u0438": 17, "\u0430": 18, "*": 19, "\u2581\u0441\u043e\u0433\u043b\u0430\u0441\u0435\u043d": 20, "\u044e": 21, "\u0445": 22, "name": 23, "Form": 24, "\u2581\u0434\u0430\u043d\u043d\u044b\u0445": 25, ")": 26, "\u2581\u043f\u0435\u0440\u0441\u043e\u043d\u0430\u043b\u044c\u043d\u044b": 27, "\u2581\u0432": 28, "s": 29, "\u2581(": 30, "1": 31, "\u2581\u043e\u0431": 32, "\u2581User": 33, "\u043a\u0443": 34, "\u044f": 35, "\u2581Company": 36, "\u0440\u0430\u0431\u043e\u0442": 37, "I": 38, "\u043e\u043b\u044c": 39, "2": 40, "\u0421": 41, "CK": 42, "BOX": 43, "\u0438\u0442\u0435": 44, "\u2581CHE": 45, "\u0438": 46, "\u2581\u041f\u0430\u0440": 47, "e": 48, "word": 49, "STER": 50, "\u2581REG": 51, "mail": 52, "\u0442": 53, "\u2581\u0441\u043e\u0433\u043b\u0430\u0441\u0438": 54, "\u043d\u043e\u0441\u0442\u044c": 55, "form": 56, "\u043d\u0438\u043c\u0430": 57, "\u2581field": 58, "\u2581\u043f\u0440\u0438": 59, "\u2581\u0443\u0441\u043b\u043e\u0432\u0438\u044f": 60, "\u0414\u043e": 61, "\u2581\u0418\u043c": 62, "][": 63, "\u2581email": 64, "\u2581\u0434\u0430": 65, "pass": 66, "\u2581\u0424": 67, "\u0438\u0435": 68, "y": 69, "\u041e": 70, "\u2581data": 71, "S": 72, "\u043c\u0438": 73, "email": 74, "\u0421\u043e": 75, "\u0430\u043c\u0438": 76, "\u2581\u0440\u0435\u0433\u0438\u0441\u0442\u0440\u0430\u0446\u0438\u0438": 77, "\u2581E": 78, "\u2581f": 79, "\u043e\u0439": 80, "\u043b\u0438\u044f": 81, "\u041f\u043e": 82, "\u2581user": 83, "\u0433\u043b\u0430\u0441\u0435\u043d": 84, "gor": 85, "cate": 86, "\u2581form": 87, "\u2581\u043f\u0430\u0440\u043e\u043b\u044c": 88, "\u043d\u043e\u0435": 89, "\u041d": 90, "\u2581password": 91, "\u2581cookie": 92, "\u041d\u0430": 93, "\u2581\u042f": 94, "script": 95, "a": 96, "type": 97, "\u0418\u041d": 98, "\u0443": 99, "(": 100, "sub": 101, "\u043b\u0436": 102, "\u2581Profile": 103, "\u2581\u0440\u0430\u0431\u043e\u0442\u044b": 104, "\u2581\u043a\u043e\u0434": 105, "\u0442\u0435": 106, "\u0432\u0435\u0434": 107, "\u2581\u043e": 108, "t": 109, "0": 110, "\u2581\u0443": 111, "\u0442\u044c": 112, "scription": 113, "\u2581\u043e\u0442": 114, "ac": 115, "\u2581\u043d\u043e\u0432\u043e\u0441\u0442\u0438": 116, "?": 117, "\u0438\u044f": 118, "\u0417\u0430": 119, "\u043c": 120, "\u0414\u0430": 121, "\u2581\u043c\u043e\u0438\u0445": 122, "\u0436": 123, "\u2581j": 124, "d": 125, "cept": 126, "scribe": 127, "\u041f\u043e\u0434": 128, "\u043b\u044f": 129, "\u2581\u0412": 130, "up": 131, "\u2581registration": 132, "\u2581a": 133, "in": 134, "\u2581\u041f\u043e\u0434": 135, "\u0438\u0434": 136, "\u043d\u043e\u0441\u0442\u0438": 137, "\u2581Email": 138, "\u0447\u0430\u0442\u044c": 139, "\u0435\u043d\u0446\u0438": 140, "\u0439": 141, "\u043e": 142, "\u0430\u043b\u044c": 143, "de": 144, "\u043d\u0438\u0435": 145, "\u0442\u0432\u0435\u0440": 146, "\u2581\u043a\u043e\u043d\u0444": 147, "\u2581\u043b\u0438\u0446\u043e": 148, "\u043e\u0432": 149, "\u2581reg": 150, "\u0438\u043d": 151, "\u044c": 152, "\u2581\u043d\u0435": 153, "\u041a": 154, "\u044b": 155, "text": 156, "$": 157, "\u2581\u043f\u043e": 158, "\u0430\u0439\u0442": 159, "r": 160, "txt": 161, "\u2581\u0438\u043b\u0438": 162, "\u0424": 163, "\u0412\u0430": 164, "\u2581check": 165, "\u2581\u0438\u0437": 166, "\u2581\u043f\u043e\u0436\u0430\u043b\u0443\u0439\u0441\u0442\u0430": 167, "\u2581\u0422\u0435\u043b\u0435\u0444\u043e\u043d": 168, "gre": 169, "Reg": 170, "c": 171, "\u0437\u0432\u0430\u043d": 172, "\u0412": 173, "\u2581\u0432\u044b": 174, "\u0423": 175, "site": 176, "\u043d\u044b\u0439": 177, "\u0434\u0430": 178, "\u2581Sign": 179, "\u0447\u0435\u0441\u0442\u0432\u043e": 180, "\u2581agree": 181, "\u2581\u043f\u043e\u043b\u0438\u0442\u0438\u043a": 182, "\u043f\u043e\u043c\u043d\u0438": 183, "\u2581\u043e\u0431\u044a\u044f\u0432\u043b\u0435\u043d": 184, "\u043b\u0443": 185, "ration": 186, "ist": 187, "/": 188, "profil": 189, "ru": 190, "\u0438\u0442\u044c": 191, "\u043d\u0430\u044f": 192, "\u2581\u0434\u043b\u044f": 193, "\u2581\u043e\u043f\u0438\u0441\u0430\u043d\u0438\u0435": 194, "\u2581\u0437\u0430": 195, "\u2581\u041e\u0442": 196, "age": 197, "\u2581name": 198, "\u043a\u043e\u0439": 199, "ing": 200, "\u2581\u0430\u0434\u0440\u0435\u0441": 201, "\u043a\u0430": 202, "\u0438\u0439": 203, "news": 204, "E": 205, "phone": 206, "\u2581\u043b\u0438\u0446\u0430": 207, "\u2581\u0441\u0432\u043e\u0435": 208, "\u0441\u043a\u0438\u0439": 209, "\u0420\u0435": 210, "\u2581\u0432\u0430\u0436\u043d\u044b": 211, "\u2581\u043c\u0438\u0440\u0430": 212, "\u2581\u041b\u043e\u0433": 213, "NAME": 214, "\u041e\u0442": 215, "\u0414": 216, "PAS": 217, "\u2581\u0412\u044b": 218, "\u2581\u0441\u043e\u043e\u0442\u0432\u0435\u0442\u0441\u0442\u0432\u0438\u0438": 219, "\u0442\u0435\u043b\u044c": 220, "\u0442\u0430": 221, "inn": 222, "user": 223, "\u2581\u041f\u043e": 224, "\u2581(*)": 225, "box": 226, "\u043c\u0435\u0440": 227, "\u043f\u043e\u043b\u043d\u0438": 228, "ge": 229, "firm": 230, "id": 231, "\u2581\u041f\u0440\u0430\u0432\u0438\u043b\u0430": 232, "\u2581\u043d\u043e\u043c\u0435\u0440": 233, "\u044b\u0435": 234, "ncy": 235, "\u041d\u0435": 236, "\u2581\u043a\u043e\u043c\u043f\u0430\u043d\u0438\u0438": 237, "\u2581\u043c\u0435\u043d\u044f": 238, "\u041f\u0430\u0440": 239, "\u0431\u0435\u0440": 240, ";": 241, "\u0442\u044b": 242, "\u2581\u043f\u043e\u043b\u044c\u0437\u043e\u0432\u0430\u0442\u0435\u043b\u044c": 243, "SW": 244, "ORD": 245, "\u0448": 246, "\u2581\u00ab": 247, "\u043d\u044b\u0435": 248, "\u043b\u0438": 249, "\u2581\u041f\u043e\u0432\u0442\u043e\u0440": 250, "class": 251, "ification": 252, "3": 253, "ection": 254, "MAIL": 255, "\u2581Not": 256, "con": 257, "ified": 258, "\u0437\u0430": 259, "@": 260, "st": 261, "\u2581\u0410\u0434\u0440\u0435\u0441": 262, "\u2581\u0421\u043e": 263, "\u0412\u044b": 264, "\u2581\u0412\u0430\u0448": 265, "le": 266, "UF": 267, "\u2581\u0441\u043e\u0433\u043b\u0430\u0448\u0435\u043d\u0438\u044f": 268, "\u0441\u044f": 269, "\u2581company": 270, "position": 271, "\u043f\u0438\u0448\u0438\u0442\u0435": 272, "verti": 273, "ad": 274, "\u2581\u0432\u0430\u0441": 275, "\u2581RE": 276, "ality": 277, "\u043e\u043c": 278, "\u041f\u0440\u0438": 279, "ance": 280, "FER": 281, "\u2581phone": 282, "check": 283, "z": 284, "\u2581type": 285, "\u2581\u043f\u043e\u0447\u0442\u0430": 286, "\u2581\u0441\u0438\u043c\u0432\u043e\u043b": 287, "\u2581\u043e\u0437\u043d\u0430\u043a\u043e\u043c": 288, "ER": 289, "to": 290, "\u043a\u0441": 291, "\u0441\u043a\u043e\u0433\u043e": 292, "\u041d\u043e": 293, "\u0441": 294, "ting": 295, "n": 296, "\u044e\u0441\u044c": 297, "\u2581\u043f\u0430\u0440\u043e": 298, "\u2581\u041d\u0430\u0437\u0432\u0430": 299, "ation": 300, "\u0418": 301, "Name": 302, "\u043e\u043a": 303, "\u2581\u0417\u0430": 304, "lo": 305, "\u043b\u0435\u043d": 306, "ro": 307, "\u2581\u043e\u0431\u044f\u0437\u0430\u0442\u0435\u043b\u044c\u043d": 308, "p": 309, "com": 310, "\u0413": 311, "yer": 312, "num": 313, "\u0434\u0435\u043d\u0438\u0435": 314, "\u2581\u043e\u0431\u0440\u0430\u0431\u043e\u0442\u043a\u0438": 315, "\u2581\u0418": 316, "\u2581\u0443\u0437\u043d\u0430\u043b": 317, "Emp": 318, "\u2581\u043f\u043e\u043b\u044f": 319, "\u043d\u0435\u0440": 320, "\u2581Login": 321, "\u2581\u0441\u0432\u043e\u0451": 322, "\u2581\u2014": 323, "Pro": 324, "\u2581\u0414\u043e\u043b": 325, "\u2581\u0430": 326, "\u043c\u0435\u043d": 327, "Ru": 328, "les": 329, "term": 330, "\u043d\u043e\u0439": 331, "\u2581\u0440\u0435\u0433\u0438\u0441\u0442\u0440": 332, "Box": 333, "fir": 334, "\u2581\u0442\u0435\u043b\u0435\u0444\u043e\u043d": 335, "se": 336, "\u2581login": 337, "cess": 338, "\u2581No": 339, "\u0434": 340, "\u2581\u044f": 341, "):": 342, "\u2581op": 343, "\u043d\u043d\u0443\u044e": 344, "\u2581/": 345, "\u2581\u0441\u043e\u0433\u043b\u0430\u0448\u0435\u043d\u0438\u0435": 346, "\u043d\u0438\u043a": 347, "\u0446\u0438\u0438": 348, "\u2581\u0440\u043e\u0436\u0434\u0435\u043d\u0438\u044f": 349, "\u041a\u043e\u043d": 350, "\u2581\u0438\u043d\u0442\u0435\u0440\u043d\u0435\u0442": 351, "CON": 352, "\u0438\u0441\u043a": 353, "\u2581text": 354, "last": 355, "\u044e\u0440": 356, "\u0434\u0438\u0442\u0435": 357, "\u0447\u0435": 358, "\u25816": 359, "cha": 360, "\u00bb": 361, "\u2581\u0415\u0441\u043b\u0438": 362, "\u2581\u043f\u043e\u0447": 363, "\u2581\u043d\u0430\u043c": 364, "\u043c\u0430": 365, "\u2581\u0434\u0435\u044f\u0442\u0435\u043b\u044c\u043d\u043e\u0441\u0442\u0438": 366, "\u2581\u0441\u0430\u0439\u0442\u0430": 367, "\u0442\u043e": 368, "List": 369, "\u2581\u0414\u043e\u0431\u0430\u0432": 370, "\u2581sub": 371, "\u2581\u0442\u0430\u043a\u0436\u0435": 372, "\u2581\u0412\u0430\u0448\u0435": 373, "\u2581\u0432\u043e\u043f\u0440\u043e\u0441": 374, "x": 375, "\u043d\u044f\u0442\u044c": 376, "100": 377, "b": 378, "\u2581\u0411\u044b": 379, "\u2581\u0440\u0430\u0441\u0441\u044b\u043b\u043a": 380, "\u0440\u043e\u0434": 381, "\u043c\u0430\u0433\u0430\u0437\u0438\u043d": 382, "\u2581\u0430\u0433\u0435\u043d\u0442\u0441\u0442\u0432\u043e": 383, "\u2581\u0430\u043d\u043a\u0435\u0442": 384, "\u0441\u044b\u043b": 385, "\u2581\u0430\u0432\u0438\u0430": 386, "\u2581first": 387, "\u0441\u043a\u0430": 388, "\u0442\u0430\u043a": 389, "\u2581\u0438\u043c\u044f": 390, "\u041c": 391, "\u2581\u0421": 392, "\u25811": 393, "\u0430\u0446\u0438\u0435\u0439": 394, "\u2581rules": 395, "\u2581\u0432\u043e\u0437\u043d\u0438\u043a": 396, "\u2581last": 397, "vik": 398, "\u0442\u043a\u043e": 399, "\u0444\u0435\u0440": 400, "Ad": 401, "\u2581\u043f\u0440\u043e\u0431\u043b\u0435\u043c\u044b": 402, "\u043f\u0438\u0441\u0430\u0442\u044c": 403, "\u0433\u0438": 404, "ement": 405, "\u0440\u0435\u0441": 406, "\u2581\u043d\u0430\u0441": 407, "\u2581register": 408, "k": 409, "\u2581\u0423": 410, "ite": 411, "\u0410\u0434": 412, "\u0433\u043e": 413, "5": 414, "\u2581\u043f\u0440\u043e": 415, "w": 416, "\u041f\u0440\u043e": 417, "\u0432\u043e\u0435": 418, "\u0441\u0442\u0440\u0430": 419, "\u0441\u0442\u0440\u043e": 420, "\u043b": 421, "\u0440\u043e\u0431": 422, "\u0440\u0430\u0431\u043e\u0442\u043e\u0434\u0430\u0442\u0435\u043b": 423, "\u043d\u044b": 424, "\u0437\u043e\u0432\u0430": 425, "\u0441\u043a\u043e\u0435": 426, "short": 427, "\u041f\u041f": 428, "\u2581\u043c\u0435\u043d\u0435\u0435": 429, "\u041a\u043e\u043c": 430, "\u043a": 431, "\u2581pass": 432, "\u2581U": 433, "SER": 434, "er": 435, "Pass": 436, "\u2581\u0441\u0430\u0439\u0442\u0435": 437, "\u2581\u0438\u0441\u043f\u043e\u043b\u044c\u0437\u043e\u0432\u0430\u043d\u0438\u044f": 438, "\u2581search": 439, "ly": 440, "W": 441, "\u2581remember": 442, "\u2581\u0441\u043e\u0433\u043b\u0430\u0448\u0430": 443, "ment": 444, "6": 445, "\u2581e": 446, "\u2581Registr": 447, "code": 448, "q": 449, "\u2581_": 450, "\u0422\u0435": 451, "Un": 452, "dress": 453, "\u2581accept": 454, "\u2581\u0434\u0430\u043d\u043d\u044b\u0435": 455, "\u2581\u043e\u0440\u0433\u0430\u043d\u0438\u0437\u0430\u0446\u0438\u0438": 456, "\u2581person": 457, "\u0446\u0438\u044f": 458, "\u0441\u0430\u0439\u0442": 459, "\u041d\u041d": 460, "4": 461, "contact": 462, "\u2581\u044d\u043b\u0435\u043a\u0442\u0440\u043e\u043d\u043d\u043e\u0439": 463, "Q": 464, "\u2581Selle": 465, "\u041a\u0440\u0430": 466, "ry": 467, "\u2581\"": 468, "tion": 469, "un": 470, "\u2581\u042d\u043b\u0435\u043a\u0442\u0440\u043e\u043d": 471, "\u042e": 472, "city": 473, "8": 474, "ic": 475, "url": 476, "\u2581cap": 477, "\u2581terms": 478, "\u2581\u0413\u043e": 479, "px": 480, "...": 481, "\u0424\u0417": 482, "\u2581\u041e": 483, "\u2581\u041d\u0430": 484, "\u2581\u0438\u0445": 485, "\u0442\u0438": 486, "\u2581-": 487, "f": 488, "\u2581necessary": 489, "put": 490, "\u2581\u041f\u043e\u043b\u044c": 491, "\u2581\u043d\u0430\u0437\u0432\u0430\u043d\u0438\u0435": 492, "sport": 493, "\u2581\u041f\u0440\u0438": 494, "\u0442\u0430\u0440": 495, "ify": 496, "field": 497, "\u2581sms": 498, "\u0441\u0442\u043e": 499, "valu": 500, "\u0430\u043b\u044b": 501, "\u043d": 502, "\u043b\u0435": 503, "\u2581\u043f\u043e\u043b\u0443\u0447\u0430\u0442\u044c": 504, "no": 505, "bc": 506, "\u2581\u0441\u0435\u0440\u0432\u0438\u0441": 507, "children": 508, "\u0434\u0440\u043e": 509, "\u2581\u0421\u0442\u0440\u0430\u043d": 510, "!": 511, "RM": 512, "\"": 513, "\u2581\u043f\u0440\u0438\u0433\u043b\u0430\u0448\u0435\u043d": 514, "\u0441\u0442\u0440": 515, "Email": 516, "FI": 517, "data": 518, "\u043f\u0440\u044f\u043c": 519, "on": 520, "\u2581:": 521, "strict": 522, "\u043d\u044b\u0445": 523, "A": 524, "\u2581\u043a": 525, "152": 526, "\u043d\u043e": 527, "ction": 528, "\u041e\u0431": 529, "D": 530, "INN": 531, "per": 532, "\u043d\u0430": 533, "\u2581\u0414\u0430\u0442\u0430": 534, "Per": 535, "\u2581newsletter": 536, "tar": 537, "\u041c\u0435": 538, "\u2581sign": 539, "m": 540, "v": 541, "\u041a\u043e": 542, "\u2581\u043f\u0440\u0430\u0432\u0438\u043b\u0430\u043c\u0438": 543, "\u043f": 544, "\u041f": 545, "Code": 546, "ber": 547, "\u2581and": 548, "\u0438\u043c\u0435\u043d\u043e\u0432\u0430\u043d": 549, "\u2581inn": 550, "function": 551, "\u041a\u0430": 552, "\u2581sex": 553, "\u2581s": 554, "\u2581\u043f\u043e\u043b\u044c\u0437\u043e\u0432\u0430\u0442\u0435\u043b\u044f": 555, "\u043a\u0438": 556, "\u0438\u0447\u0435\u0441\u043a\u043e\u0435": 557, "ed": 558, "\u2581\u043f\u0430\u0441\u043f\u043e\u0440\u0442": 559, "\u043c\u0435\u0447\u0430": 560, "\u2581\u0441\u043e": 561, "policy": 562, "\u2581your": 563, "\u2581\u0414\u0430": 564, "\u2581\u0447\u0442\u043e": 565, "_1": 566, "\u2581\u0437\u0430\u043a\u043e\u043d\u043e\u043c": 567, "\u0431": 568, "post": 569, "\u2581\u041d\u043e\u043c\u0435\u0440": 570, "___": 571, "__": 572, "\u043e\u0432\u0430\u043d\u0438\u0435": 573, "\u0440\u0433\u0430\u043d": 574, "\u0448\u0435": 575, "me": 576, "\u0447\u0430\u0441\u0442": 577, "07.": 578, "\u0438\u043b\u0438": 579, "\u0441\u043a\u043e\u0439": 580, "\u258127.": 581, "\u2581address": 582, "\u2581\u043f\u043e\u043b\u0443\u0447\u0435\u043d\u0438\u044f": 583, "\u0420": 584, "\u2581\u043b\u0438": 585, "es": 586, "\u0430\u044f": 587, "\u2581Password": 588, "\u2581comment": 589, "ONAL": 590, "PERS": 591, "log": 592, "\u2581\u0440\u0430\u0441": 593, "\u043a\u0430\u0436\u0438\u0442\u0435": 594, "\u0440\u0435\u0433": 595, "\u2581\u0442\u0435\u043b\u0435\u0444\u043e\u043d\u0430": 596, "ce": 597, "\u0444\u043e\u043d": 598, "2006": 599, "\u0436\u0438\u043c": 600, "\u2581submitted": 601, "C": 602, "area": 603, "\u0422": 604, "\u043e\u0432\u044b\u0439": 605, "\u0447": 606, "re": 607, "tric": 608, "\u2581\u0440\u0435\u043a\u043b\u0430\u043c": 609, "\u2581\u043a\u043d\u043e\u043f\u043a\u0443": 610, "\u2581\u0444\u043e\u0440\u043c\u0430": 611, "Fa": 612, "heel": 613, "\u2581invite": 614, "Con": 615, "\u0418\u041e": 616, "\u0438\u043c": 617, "\u043a\u0430\u0437\u044b\u0432\u0430\u0442\u044c": 618, "\u2581contact": 619, "\u2581\u043f\u0440\u043e\u0447\u0438\u0442\u0430": 620, "7": 621, "\u0432": 622, "\u2581\u041f\u043e\u043b\u0443": 623, "\u043d\u0435": 624, "TION": 625, "l": 626, "\u2581\u0432\u0435\u0431": 627, "F": 628, "Mail": 629, "\u25813": 630, "\u2581profile": 631, "\u043f\u043e": 632, "\u2581to": 633, "pe": 634, "radio": 635, "\u2581u": 636, "IN": 637, "\u0431\u0438": 638, "accepte": 639, "\u043e\u0431": 640, "Fun": 641, "Tar": 642, "\u041b": 643, "LOG": 644, "\u25818": 645, "\u043a\u0435": 646, "PE": 647, "\u2581\u0446\u0438\u0444\u0440": 648, "\u2581\u0421\u0430\u0439\u0442": 649, "date": 650, "\u043d\u0438\u044f": 651, "U": 652, "\u2581\u0441\u0435\u0431\u0435": 653, "\u0433\u043b\u0430\u0441\u0438": 654, "\u0444\u0438\u043a": 655, "\u2581\u043f\u0440\u043e\u0447": 656, "\u0433\u043b\u0430": 657, "2]": 658, "\u2581\u041a\u043e\u043d\u0442\u0430\u043a\u0442": 659, "ity": 660, "\u0438\u0442\u0435\u043b\u044c": 661, "\u2581\u0420\u0435\u0433\u0438\u0441\u0442\u0440\u0430\u0446\u0438\u044f": 662, "title": 663, "\u2581\u0435\u0441\u0442\u044c": 664, "\u2581\u0442\u0440\u0435\u0442\u044c": 665, "ker": 666, "\u041a\u043e\u043b": 667, "\u0440": 668, "\u2581\u043c\u043d\u0435": 669, "\u2581\u0441\u043b\u043e\u0432\u043e": 670, "\u2581agreement": 671, "P": 672, "privacy": 673, "\u2581input": 674, "\u0438\u043f": 675, "\u2581\u0438\u043d\u0444\u043e\u0440\u043c\u0430\u0446\u0438\u044e": 676, "ember": 677, "pp": 678, "\u0430\u043b\u044c\u043d\u044b\u0439": 679, "da": 680, "\u043c\u044f": 681, "\u0446\u0438": 682, "|": 683, "\u2581\u044f\u0437\u044b\u043a": 684, "org": 685, "\u2581\u0441\u043e\u043e\u0431\u0449\u0435\u043d\u0438\u044f": 686, "\u043d\u043e\u0433\u043e": 687, "\u0448\u0430": 688, "\u2581Technologie": 689, "EMBER": 690, "REM": 691, "\u043e\u0435": 692, "\u2581?": 693, "\u2581message": 694, "\u0435\u043c": 695, "\u2581site": 696, "\u0420\u043e\u0434": 697, "\u2581Aval": 698, "\u0410": 699, "\u0434\u043e": 700, "\u2581\u041f\u0430\u0440\u0442\u043d\u0435\u0440": 701, "65": 702, "h": 703, "\u0433": 704, "[1]": 705, "rul": 706, "\u0438\u0437\u0430\u0446\u0438\u044f": 707, "\u2581personal": 708, "\u2581q": 709, "Re": 710, "See": 711, "30": 712, "\u043f\u043e\u0447": 713, "\u2581w": 714, "\u0446\u0438\u043e\u043d": 715, "\u2581the": 716, "LAST": 717, "\u0413\u0420": 718, "em": 719, "\u0442\u0443": 720, "\u2581\u0440\u0430\u0437": 721, "\u0412\u0438": 722, "\u0438\u043d\u0444\u043e\u0440\u043c\u0430\u0446\u0438\u043e\u043d\u043d\u044b": 723, "company": 724, "spec": 725, "\u2581allow": 726, "ser": 727, "9": 728, "ch": 729, "about": 730, "i": 731, "\u0438\u0438": 732, "\u2581\u041f\u043e\u043b\u0438": 733, "\u0438\u0440\u043e\u0432\u0430\u0442\u044c\u0441\u044f": 734, "\u043f\u0440\u0430\u0432": 735, "\u2581\u0441\u0430\u0439\u0442": 736, "mber": 737, "\u2581\u043f\u0430\u0440\u0442\u043d\u0435\u0440": 738, "V": 739, "\u0434\u044b": 740, "\u2581\u043f\u0440\u0430\u0432\u0438\u043b\u0430": 741, "chair": 742, "\u043c\u0435\u0442": 743, "\u2581\u0434\u043e": 744, "\u0431\u0440\u0430": 745, "\u2581\u043b\u0435\u0442": 746, "direct": 747, "\u0440\u0430\u0436\u0430": 748, "ty": 749, "\u043b\u044c": 750, "\u2581\u0438\u043d\u0444\u043e\u0440\u043c\u0430\u0446\u0438\u0438": 751, "\u043d\u043d\u0430\u044f": 752, "\u043e\u0431\u0449\u0435\u043d\u0438\u0435": 753, "cho": 754, "ice": 755, "\u2581of": 756, "\u042d\u043b\u0435\u043a\u0442\u0440": 757, "\u2581term": 758, "____": 759, "\u043f\u0430": 760, "\u2581\u0438\u043d\u0444\u043e\u0440\u043c\u0430\u0446\u0438\u044f": 761, "B": 762, "}": 763, "\u00bb,": 764, "\u0435\u0442": 765, "\u2581\u043b\u043e\u0433": 766, "Type": 767, "\u2581privacy": 768, "\u2581\u0432\u043e\u0437": 769, "\u2581\u043f\u0435\u0440\u0435\u0434\u0430\u0447\u0438": 770, "held": 771, "ule": 772, "sing": 773, "\u2581in": 774, "PHONE": 775, "ms": 776, "Contact": 777, "\u0412\u0435": 778, "\u043a\u043b\u0430": 779, "\u0440\u0443": 780, "hau": 781, "\u2581users": 782, "\u041c\u043e\u0431\u0438\u043b": 783, "\u2581opt": 784, "\u0439\u0442\u0435": 785, "\u2581+": 786, "\u0421\u0435\u0440": 787, "\u0432\u043e\u0437": 788, "\u043e\u043b\u043e\u0433\u0438\u044f": 789, "\u2581TY": 790, "pas": 791, "\u041d\u0418": 792, "Mo": 793, "\u0420\u0435\u0433\u0438\u043e\u043d": 794, "\u0438\u044e": 795, "count": 796, "\u25814": 797, "\u2581lang": 798, "\u2581\u043a\u0443\u0440\u0441": 799, "\u2581\u043f\u0435\u0440\u0435\u0434\u0430\u0447\u0443": 800, "SE": 801, "\u0433\u043e\u043b\u043e\u0432": 802, "\u0441\u043f\u0435": 803, "\u2581radio": 804, "\u043b\u0430": 805, "\u2581\u0414\u043b\u044f": 806, "\u2581i": 807, "\u2581r": 808, "18": 809, "No": 810, "website": 811, "\u2581news": 812, "\u0436\u0430\u0442\u044c": 813, "\u043f\u0440\u0438": 814, "ory": 815, "\u043b\u044e": 816, "\u2581\u0414\u043e": 817, "Note": 818, "RY": 819, "\u2581\u043f\u043e\u043b\u0438\u0442\u0438\u043a\u0438": 820, "UNT": 821, "\u2581ch": 822, "IC": 823, "und": 824, "\u0435\u0439": 825, "\u043b\u0438\u0441\u0442": 826, "\u0442\u0435\u043b\u044c\u043d\u043e": 827, "\u2581d": 828, "CO": 829, "\u0432\u043e": 830, "\u2581\u0432\u044b\u0434\u0430": 831, "tos": 832, "\u2581date": 833, "\u2581\u043f\u043e\u0434\u0442\u0432\u0435\u0440\u0436\u0434\u0430\u044e": 834, "00": 835, "o": 836, "g": 837, "\u0447\u0438": 838, "\u2581\u0430\u0433\u0435\u043d\u0442\u0441\u0442\u0432\u0430": 839, "\u2581c": 840, "\u041a\u0430\u043a": 841, "\u0434\u0443\u043c\u0430": 842, "\u0440\u0435\u043d\u0434": 843, "\u0433\u0438\u043d": 844, "\u0437\u044b": 845, "\u2581Name": 846, "\u2581program": 847, "\u0444\u0438": 848, "\u2581#": 849, "\u2581\u0442\u0435\u043a\u0441\u0442": 850, "64": 851, "\u0435\u0442\u0441\u044f": 852, "\u044c\u043d\u044b\u0439": 853, "\u2581\u0437\u0430\u043f\u0438\u0441\u0438": 854, "\u043c\u043e": 855, "\u2581\u0430\u043a\u043a\u0430\u0443\u043d\u0442": 856, "\u2581\u0445\u043e\u0447\u0443": 857, "ent": 858, "social": 859, "\u2581\u044d\u0442\u043e\u043c": 860, "\u0442\u044c\u0441\u044f": 861, "\u0438\u043b\u0441\u044f": 862, "\u0446\u0438\u043e\u043d\u043d\u044b\u0439": 863, "\u2581\u0432\u0430\u0448": 864, "sent": 865, "\u0413\u0440\u0430": 866, "\u2581\u041a\u043e\u0434": 867, "book": 868, "\u0432\u044f": 869, "\u2581\u0423\u0441\u043b\u043e\u0432\u0438\u044f": 870, "or": 871, "\u2581\u043a\u043d\u0438\u0433\u0430": 872, "info": 873, "\u2581\u043a\u0430\u043a": 874, "\u0433\u043e\u0440": 875, "ger": 876, "\u0441\u0442\u0432\u043e": 877, "Log": 878, "place": 879, "\u043a\u043e": 880, "\u0441\u043f\u043e\u0440\u0442": 881, "\u2581city": 882, "\u2581\u0433\u043e\u0440\u043e\u0434\u0430": 883, "\u2581\u0434\u043e\u0433\u043e\u0432\u043e\u0440\u0430": 884, "\u0421\u043f\u0435\u0446\u0438\u0430\u043b": 885, "Nu": 886, "\u0442\u0435\u043b\u044c\u043d\u0430\u044f": 887, "\u2581Phone": 888, "\u2581is": 889, "region": 890, "\u2581\u043f\u0440\u0435\u0434\u043f\u0440\u0438\u044f\u0442\u0438\u044f": 891, "\u0436\u0434\u0430": 892, "\u041f\u0430": 893, "\u2581ct": 894, "T": 895, "RK": 896, "\u044b\u0439": 897, "\u2581\u041f\u043e\u043b": 898, "Info": 899, "\u2581\u0432\u0440\u0435\u043c\u044f": 900, "Check": 901, "th": 902, "Me": 903, "second": 904, "\u0421\u0435": 905, "\u041e\u041a": 906, "\u2581\u041c\u0435\u0441": 907, "\u2581\u0431\u044b\u0442\u044c": 908, "ck": 909, "\u2581\u0441\u043e\u043e\u0431\u0449\u0435\u043d\u0438\u0435": 910, "\u043d\u0435\u0442": 911, "\u25810": 912, "\u25812": 913, "\u2581pas": 914, "\u2581\u0443\u0447\u0430\u0441\u0442\u0438\u044f": 915, "at": 916, "\u2581\u0433\u043e\u0434\u0430": 917, "\u2581\u043a\u043e\u043c\u043f\u044c\u044e\u0442\u0435\u0440": 918, "\u0432\u0435\u0434\u043e\u043c": 919, "\u043a\u043e\u0434": 920, "\u0441\u0435": 921, "\u0443\u044e": 922, "\u2581\u0441\u0447\u0435\u0442": 923, "M": 924, "favor": 925, "\u0434\u0430\u043d": 926, "cy": 927, "group": 928, "\u0435\u0442\u0435\u0441\u044c": 929, "messen": 930, "organiz": 931, "\u2581contract": 932, "\u2581\u0438\u0437\u043c\u0435\u043d\u0435": 933, "-1": 934, "\u2581secret": 935, "\u2581\u0410": 936, "11": 937, "\u2581\u041a": 938, "WO": 939, "al": 940, "\u2581position": 941, "ID": 942, "public": 943, "part": 944, "\u0432\u0435\u0440": 945, "\u2581\u043c\u0435\u0440\u043e\u043f\u0440\u0438\u044f\u0442\u0438\u044f": 946, "22": 947, "\u0441\u0442\u0432\u0443": 948, "\u2581\u043c\u0435\u043d\u0435\u0434\u0436\u0435\u0440": 949, "1]": 950, "\u0428": 951, "\u0438\u0437": 952, "\u2581tag": 953, "\u2581\u0434\u043e\u043a\u0443\u043c\u0435\u043d\u0442": 954, "\u2581\u0435\u0441\u043b\u0438": 955, "\u043d\u0443\u044e": 956, "\u0440\u0430\u0437": 957, "\u2581offer": 958, "95": 959, "\u0418\u043d": 960, "\u0432\u0438\u0434": 961, "\u0438\u043d\u0433": 962, "color": 963, "\u2581organization": 964, "\u2581\u043e\u0431\u0443\u0447\u0435\u043d\u0438\u044f": 965, "#": 966, "not": 967, "\u2581supplier": 968, "\u2581\u0431\u0430\u043d\u043a\u0430": 969, "10": 970, "\u0434\u0430\u0442\u044c": 971, "\u0445\u043e\u0434": 972, "letter": 973, "ney": 974, "K": 975, "TY": 976, "day": 977, "j": 978, "\u2581\u0441\u0432\u043e\u0438\u0445": 979, "legal": 980, "\u0427\u0430\u0441": 981, "\u2581\u0441\u043e\u0433\u043b\u0430\u0441\u043d\u043e": 982, "\u043a\u043b\u044e\u0447": 983, "\u2581confirm": 984, "ho": 985, "\u0449\u0438": 986, "\u2581\u043a\u0430\u0440\u0442\u0438\u043d": 987, "PLE": 988, "Pri": 989, "QUE": 990, "SIM": 991, "ct": 992, "\u0411\u0430": 993, "\u2581\u0431\u0440\u0435\u043d\u0434": 994, "\u2581\u043d\u043e\u0432\u043e": 995, "\u0438\u0442\u0435\u043b\u044c\u043d\u044b\u0439": 996, "\u043d\u0434\u0435": 997, "\u0434\u0438": 998, "\u2581URL": 999, "URL": 1000, "\u2581\u043a\u0430\u043a\u043e\u0439": 1001, "\u0438\u0440\u043e\u0432\u0430\u0442\u044c": 1002, "\u2581skype": 1003, "top": 1004, "\u0440\u0438\u0434": 1005, "\u2581\u0412\u0430\u0448\u0430": 1006, "\u2581order": 1007, "\u2581\u044f\u0437\u044b\u043a\u0435": 1008, "\u0432\u0435\u0442": 1009, "\u0437\u0440\u0430\u0441\u0442": 1010, "\u044e\u0449\u0435\u043c\u0443": 1011, "wd": 1012, "\u0431\u043e\u0440\u0443": 1013, "\u2581\u041e\u041e\u041e": 1014, "\u2581\u0443\u0441\u043b\u0443\u0433": 1015, "ling": 1016, "option": 1017, "us": 1018, "wi": 1019, "\u0413\u043e": 1020, "ver": 1021, "\u0412\u043e": 1022, "\u0438\u0447\u0435\u0441\u043a\u0430\u044f": 1023, "\u043d\u0438\u043a\u0430": 1024, "\u2581code": 1025, "-6": 1026, "face": 1027, "\u0422\u043e\u0440": 1028, "\u2581not": 1029, "\u2581\u043f\u0443\u043d\u043a\u0442": 1030, "\u2581language": 1031, "\u2581title": 1032, "\u2581\u043a\u043e\u043c\u043c\u0435\u043d\u0442\u0430\u0440\u0438\u0439": 1033, "\u0438\u043a\u0438": 1034, "\u2581\u0432\u0430\u0448\u0435\u0433\u043e": 1035, "\u2581\u0437\u0430\u043f\u043e\u043b\u043d\u0435\u043d": 1036, "\u2581\u0442": 1037, "Co": 1038, "of": 1039, "\u2581custom": 1040, "\u2581\u043e\u0440\u0433\u0430\u043d\u0438\u0437\u0430\u0446\u0438\u044f": 1041, "elect": 1042, "\u0441\u0442\u044c": 1043, "\u2581\u0441\u0432\u043e\u0439": 1044, "\u043e\u0442\u0432\u0435\u0442": 1045, "\u2581\u041f\u0440\u043e": 1046, "\u2581\u0432\u044b\u0440\u0430\u0436\u0430": 1047, "is": 1048, "\u2581\u043d\u0430\u0438\u043c\u0435\u043d\u043e\u0432\u0430\u043d\u0438\u0435": 1049, "PER": 1050, "\u043c\u0443": 1051, "Y": 1052, "ter": 1053, "\u0425\u043e": 1054, "\u2581domain": 1055, "-5": 1056, "po": 1057, "\u0424\u043e\u0440": 1058, "\u043d\u0438\u0439": 1059, "\u2581\u0438\u043d\u0434\u0435\u043a\u0441": 1060, "\u0420\u0430": 1061, "\u043f\u0438\u0441": 1062, "\u2581currency": 1063, "zone": 1064, "\u2581\u041b\u0438": 1065, "\u041b\u044e": 1066, "ll": 1067, "\u041a\u043e\u0440": 1068, "\u2581\u0432\u0430\u0440\u0438\u0430\u043d\u0442": 1069, "\u2581\u0437\u0434\u0435\u0441\u044c": 1070, "\u0411\u0418": 1071, "\u0430\u0442": 1072, "\u2581birth": 1073, "\u2581\u043e\u043a\u043e\u043d\u0447\u0430\u043d\u0438\u044f": 1074, "\u2581\u043f\u043e\u043b\u0438\u0442\u0438\u043a\u0435": 1075, "\u2581\u043f\u043e\u043b\u044c\u0437\u043e\u0432\u0430\u043d\u0438\u044f": 1076, "\u2581\u0440\u0443\u0441\u0441\u043a\u043e\u043c": 1077, "\u2581\u0442\u043e\u0432\u0430\u0440\u0430": 1078, "ship": 1079, "\u041b\u0421": 1080, "\u2581\u0414\u0435\u043d\u044c": 1081, "\u2581\u043f\u0440\u043e\u0433\u0440\u0430\u043c\u043c\u0443": 1082, "\u2581\u0441\u0442\u0435\u043f\u0435\u043d\u044c": 1083, "ization": 1084, "\u25815": 1085, "\u0422\u0435\u043a\u0441\u0442": 1086, "\u2581\u043e\u0431\u044a\u0435\u043a\u0442": 1087, "\u2581read": 1088, "24": 1089, "\u0427": 1090, ":0": 1091, "\u0430\u0446\u0438\u044f": 1092, "\u2581+7": 1093, "\u2581\u0441\u0430\u0439\u0442\u0443": 1094, "33": 1095, "\u2581\u041c\u043e": 1096, "\u2581\u0424\u0430": 1097, "\u2581\u0437\u0430\u0449\u0438\u0442\u044b": 1098, "\u2581country": 1099, "\u2581\u041a\u0440\u0430": 1100, "poli": 1101, "\u041f\u041e": 1102, "\u041f\u0440\u0435\u0434": 1103, "\u043b\u0438\u0446\u0430": 1104, "\u2581\u0432\u0430\u043c": 1105, "shoot": 1106, "\u0447\u0430\u0441\u0442\u0438": 1107, "\u2581I": 1108, "Post": 1109, "\u043b\u0438\u0437": 1110, "\u2581\u043f\u043e\u0434": 1111, "\u2581\u043f\u0440\u043e\u0434\u0443\u043a\u0446\u0438\u0438": 1112, "POS": 1113, "\u0441\u043e\u043d": 1114, "\u2581guest": 1115, "\u2581sur": 1116, "Text": 1117, "ef": 1118, "{": 1119, "\u0430\u043c": 1120, "\u2581k": 1121, "\u043c\u043e\u0436\u0435": 1122, "\u0447\u043d\u044b\u0439": 1123, "\u2581\u041d\u0435\u0442": 1124, "\u2581\u0435\u0433\u043e": 1125, "54": 1126, "rem": 1127, "u": 1128, "\u2581\u042e\u0440": 1129, "\u2581\u0437\u0430\u043a\u0430\u0437\u0430": 1130, "21": 1131, "\u2581\u044e\u0440\u0438\u0434\u0438\u0447\u0435\u0441\u043a\u043e": 1132, "\u2581\u043f\u043e\u0434\u0445\u043e\u0434\u044f\u0449\u0438": 1133, "Ri": 1134, "Up": 1135, "pri": 1136, "\u2581info": 1137, "\u2581\u043f\u043e\u043b\u0443\u0447\u0435\u043d\u0438\u0435": 1138, "06": 1139, "ers": 1140, "te": 1141, "\u0434\u044e": 1142, "\u043a\u0443\u043f": 1143, "il": 1144, "\u0420\u0430\u0441": 1145, "\u2581\u0447\u0430\u0441\u0442": 1146, "zh": 1147, "\u043c\u043e\u0432": 1148, "\u043f\u0435\u0440\u0435": 1149, "\u0442\u0438\u043a\u0438": 1150, "\u2581work": 1151, "\u0426": 1152, "\u0430\u0445": 1153, "\u0432\u0435\u0434\u0435\u043d\u0438\u044f": 1154, "\u258118": 1155, "\u2581\u0412\u0430\u0441": 1156, "\u2581\u041e\u0440\u0433\u0430\u043d\u0438\u0437\u0430\u0446\u0438\u044f": 1157, "\u2581\u043a\u043b\u0438\u043d": 1158, "\u0411": 1159, "\u2581ID": 1160, "\u2581mail": 1161, "na": 1162, "pu": 1163, "\u0437\u043d\u0430\u043a\u043e\u043c": 1164, "\u2581about": 1165, "\u2581kurs": 1166, "\u2581\u0432\u0441\u0435": 1167, "\u2581\u0444\u043e\u0440\u043c\u0443": 1168, "variant": 1169, "\u041c\u0430": 1170, "\u2581return": 1171, "\u2581t": 1172, "\u2581\u0438\u043d\u0442\u0435\u0440\u0435\u0441\u0443\u0435\u0442": 1173, "sex": 1174, "registra": 1175, "\u044b\u0445": 1176, "In": 1177, "Sky": 1178, "\u0420\u0430\u0437": 1179, "\u0433\u0435\u043d": 1180, "width": 1181, "\u0441\u0430": 1182, "\u0447\u0443": 1183, "\u2581\u0441\u043e\u0446": 1184, "cies": 1185, "\u0415": 1186, "\u0441\u0442": 1187, "\u2581\u044d\u043b\u0435\u043a\u0442\u0440\u043e": 1188, "dd": 1189, "\u2581Terms": 1190, "City": 1191, "\u2581ar": 1192, "\u2581fi": 1193, "Address": 1194, "Count": 1195, "bir": 1196, "messa": 1197, "\u0438\u0441\u0442": 1198, "sur": 1199, "\u2581post": 1200, "\u2581time": 1201, "\u2581\u043d\u0435\u0442": 1202, "\u0422\u0435\u0445": 1203, "\u043b\u0435\u043d\u0438\u0435": 1204, "\u2581have": 1205, "\u2581\u0443\u043a\u0430\u0437\u0430\u043d": 1206, "\u2581\u0443\u0447\u0435\u0442": 1207, "Sub": 1208, "error": 1209, "ips": 1210, "ques": 1211, "\u2581de": 1212, "-7": 1213, "27": 1214, "\u2581\u0414\u043e\u0433\u043e\u0432\u043e\u0440": 1215, "\u2581\u0431\u0443\u0434\u0435\u0442": 1216, "\u2581\u0434\u0430\u0442\u0430": 1217, "\u2581\u043a\u043e\u043c\u0430\u043d\u0434\u044b": 1218, "://": 1219, "\u0441\u043a\u0438\u043c": 1220, "\u2581you": 1221, "\u2581\u0441\u0432\u044f\u0437\u0438": 1222, "16": 1223, "Siz": 1224, "\u0421\u0442\u0440": 1225, "\u0423\u041d": 1226, "\u2581\u0438\u0441\u043f\u043e\u043b\u044c\u0437\u043e\u0432\u0430\u0442\u044c": 1227, "\u2581\u0420\u0435\u0433\u0438\u0441\u0442\u0440": 1228, "\u2581\u043a\u0430\u0440\u0442\u0438\u043d\u043a\u0438": 1229, "\u2581\u0440\u0443\u043a\u043e\u0432\u043e\u0434\u0438\u0442\u0435\u043b\u044f": 1230, "tent": 1231, "\u2581new": 1232, "\u2581tags": 1233, "\u2581ur": 1234, "\u2581\u043f\u0440\u0435\u0434\u043b\u043e\u0436\u0435\u043d\u0438\u044f": 1235, "12": 1236, "20": 1237, "\u0442\u0430\u0440\u0438": 1238, "\u2581pes": 1239, "\u2581\u0424\u0435\u0434\u0435\u0440\u0430\u043b\u044c\u043d\u044b\u043c": 1240, "\u043b\u044c\u043d\u0438\u043a": 1241, "\u2581\u0444\u0430\u043c\u0438\u043b\u0438\u044f": 1242, "politic": 1243, "\u043c\u043e\u043d\u0442": 1244, "\u2581\u0417\u0410": 1245, "32": 1246, "ft": 1247, "\u0440\u0435\u0434\u0438": 1248, "G": 1249, "Web": 1250, "\u2581\u0441\u0435\u0442\u0438": 1251, "52": 1252, "\u2581\u041f\u0440\u0435\u0434": 1253, "\u2581\u043f\u043e\u043b\u0435": 1254, "doma": 1255, "\u2581Use": 1256, "\u043e\u0433\u043e": 1257, "\u2581\u0437\u0430\u0440\u0435\u0433\u0438\u0441\u0442\u0440\u0438\u0440\u043e\u0432\u0430": 1258, "gram": 1259, "year": 1260, "\u0438\u043a\u0430": 1261, "\u2581\u0436\u0435\u043d\u0441\u043a\u0438": 1262, "tur": 1263, "\u2581\u043a\u043e\u0442\u043e\u0440\u044b\u0439": 1264, "14": 1265, "AL": 1266, "\u043a\u0430\u0437\u0430\u0442\u044c": 1267, "\u2581\u0441\u043f\u0435\u0446\u0438\u0430\u043b\u0438\u0441\u0442": 1268, "Phone": 1269, "wer": 1270, "\u0423\u0417": 1271, "\u0433\u0435": 1272, "\u2581\u041d\u0435": 1273, "\u2581\u043f\u0440\u0438\u0435\u043c": 1274, "ex": 1275, "ok": 1276, "\u2581\u041a\u043e\u043c": 1277, "\u2581\u041a\u043e\u043c\u043f\u0430\u043d\u0438\u044f": 1278, "25": 1279, "\u043b\u0435\u043d\u0438\u044f": 1280, "\u0437\u043e": 1281, "\u043c\u043e\u043b": 1282, "\u0447\u0430\u043d\u0438": 1283, "\u2581\u0435\u0449\u0451": 1284, "\u2581fl": 1285, "SPEC": 1286, "gen": 1287, "\u0436\u0435\u043d": 1288, "\u043d\u043d\u044b\u0435": 1289, "\u2581\u0432\u0430\u0448\u0435\u0439": 1290, "\u2581\u043c\u0443\u0436": 1291, "\u2581\u0443\u0441\u043b\u0443\u0433\u0438": 1292, "en": 1293, "\u0435\u043d\u044c": 1294, "\u2581answer": 1295, "\u2581\u0434\u043e\u0441\u0442\u0443\u043f\u0430": 1296, "\u2581\u0441\u0435\u043c\u0438\u043d\u0430\u0440": 1297, "44": 1298, "\u0432\u0435": 1299, "\u0432\u0435\u0446": 1300, "\u0447\u0438\u043a": 1301, "\u0447\u043d\u0430\u044f": 1302, "\u2581sf": 1303, "\u2581\u041f\u043e\u043b\u0438\u0442\u0438\u043a\u0430": 1304, "\u2581\u0440\u0435\u043a\u043b\u0430\u043c\u044b": 1305, "reg": 1306, "\u0431\u0440\u0430\u0442\u044c": 1307, "\u0431\u044b": 1308, "\u0432\u0430\u043d\u0438\u0435": 1309, "\u2581Partner": 1310, "\u2581product": 1311, "\u2581\u043a\u0430\u0434\u0440\u043e\u0432": 1312, "\u2581\u043a\u043b\u0438\u0435\u043d\u0442": 1313, "\u2581\u043f\u0440\u0435\u0434\u043f\u0440\u0438\u043d\u0438\u043c\u0430\u0442\u0435\u043b\u044c": 1314, "\u2581\u043f\u0440\u044f\u043c\u043e": 1315, "person": 1316, "\u0435\u043b\u044c": 1317, "\u043e\u0432\u043e\u0439": 1318, "\u043e\u0442": 1319, "\u0442\u0435\u043b\u044c\u043d\u043e\u0435": 1320, "\u2581payment": 1321, "\u2581\u043f\u043e\u0447\u0442\u043e\u0432": 1322, "\u2581\u0441\u043f\u0435\u0446\u0438\u0430\u043b\u044c\u043d\u043e": 1323, "15": 1324, "26": 1325, "an": 1326, "\u0447\u0451\u0442": 1327, "\u2581FIR": 1328, "close": 1329, "et": 1330, "\u0432\u0440\u0438": 1331, "\u043a\u0430\u043b\u0430": 1332, "\u043a\u0440\u0435\u0442": 1333, "\u2581Customer": 1334, "\u2581z": 1335, "\u2581\u0438\u0437\u043e\u0431\u0440\u0430\u0436\u0435\u043d\u0438\u044f": 1336, "\u2581\u043f\u043b\u0430\u043d": 1337, "\u2581\u043f\u043b\u0430\u0442\u0435\u0436": 1338, "\u2581\u0445\u0440\u0430\u043d\u0435": 1339, "58": 1340, "\u0432\u0430": 1341, "\u0449\u0430\u044f": 1342, "\u2581\u043e\u043d\u043b\u0430\u0439\u043d": 1343, "\u2581\u0442\u0438\u043f": 1344, "cycle": 1345, "fax": 1346, "\u0444\u0435": 1347, "\u2581comments": 1348, "\u2581motor": 1349, "\u2581\u043a\u043e\u043c\u043f\u0430\u043d\u0438\u0439": 1350, "\u0438\u0444": 1351, "\u2581age": 1352, "\u2581\u0435\u0449\u0435": 1353, "777": 1354, "par": 1355, "ture": 1356, "\u2581Stri": 1357, "\u2581job": 1358, "\u2581\u041c": 1359, "fiz": 1360, "line": 1361, "\u043a\u043e\u043b\u044c": 1362, "\u0442\u0435\u043b\u044f": 1363, "\u2581fax": 1364, "\u2581\u0424\u0438\u043b": 1365, "\u2581\u0434\u043e\u043c": 1366, "\u2581\u043a\u043e\u0442\u043e\u0440\u044b\u0435": 1367, "COM": 1368, "SPORT": 1369, "\u25812021": 1370, "Organ": 1371, "[24]": 1372, "comp": 1373, "\u0418\u041f": 1374, "\u0435\u0441\u043b\u0438": 1375, "\u2581v": 1376, "\u2581with": 1377, "\u2581\u0442\u043e\u043b\u044c\u043a\u043e": 1378, "Search": 1379, "time": 1380, "\u2581Register": 1381, "\u2581\u041a\u043e\u043b\u0438\u0447\u0435\u0441\u0442\u0432\u043e": 1382, "\u2581\u0431\u0443\u043a\u0432": 1383, "\u2581\u0434\u043e\u043a\u0443\u043c\u0435\u043d\u0442\u0430": 1384, "\u0447\u0430": 1385, "\u2581us": 1386, "\u2581\u043e\u043d": 1387, "doc": 1388, "\u043d\u043e\u043c": 1389, "\u0447\u043d\u044b\u0445": 1390, "\u2581Target": 1391, "\u2581re": 1392, "De": 1393, "La": 1394, "tions": 1395, "\u0430\u043d\u0430": 1396, "\u0431\u0438\u0440\u0430": 1397, "\u0440\u044f\u0434": 1398, "\u0441\u0442\u0430\u0432\u044c\u0442\u0435": 1399, "\u0444\u0444": 1400, "\u2581Condi": 1401, "\u2581bi": 1402, "\u2581special": 1403, "\u2581\u0437": 1404, "\u2581\u043e\u0431\u0440\u0430\u0449\u0435\u043d\u0438\u0435": 1405, "\u2581\u0441\u043e\u0442\u0440\u0443\u0434\u043d\u0438\u043a\u043e\u0432": 1406, "\u2581\u0441\u0447\u0435\u0442\u0430": 1407, "\u2581\u0446\u0435\u043b\u044f\u0445": 1408, "ot": 1409, "\u0441\u043e": 1410, "\u258110": 1411, "\u2581vote": 1412, "\u2581www": 1413, "51": 1414, "\u0432\u044b": 1415, "\u2581delivery": 1416, "\u2581\u043c\u043e\u0431\u0438\u043b": 1417, "\u2581\u0445\u043e\u0442\u0438\u0442\u0435": 1418, "[25]": 1419, "status": 1420, "\u0436\u0430": 1421, "\u0441\u0447\u0435\u0442": 1422, "\u2581000": 1423, "\u2581Select": 1424, "\u2581policy": 1425, "+": 1426, "NOST": 1427, "est": 1428, "yat": 1429, "\u0441\u0442\u0438": 1430, "\u0448\u0438": 1431, "\u2581l": 1432, "\u2581send": 1433, "\u0432\u043e\u0434": 1434, "\u043e\u0434\u0430": 1435, "\u0441\u0442\u0435\u0440": 1436, "\u2581A": 1437, "\u2581p": 1438, "pa": 1439, "\u043a\u0430\u0437": 1440, "\u2581F": 1441, "\u2581SMS": 1442, "\u2581\u0433": 1443, "\u2581\u043c\u0430\u044f": 1444, "\u2581\u0442\u043e\u0440\u0433\u043e\u0432": 1445, "\u2581\u2013": 1446, "80": 1447, "\u042d": 1448, "\u2581cur": 1449, "\u2581parent": 1450, "\u2581variant": 1451, "\u2581\u043c\u043e\u0436\u0435\u0442\u0435": 1452, "40": 1453, "ion": 1454, "mp": 1455, "\u0416\u0435": 1456, "\u0432\u0442\u043e\u0440": 1457, "\u2581IC": 1458, "\u2581\u0441\u0435": 1459, "bank": 1460, "og": 1461, "\u0438\u0447\u0435\u0441\u043a\u0438\u0439": 1462, "\u043d\u044b\u043c": 1463, "\u2581show": 1464, "\u2581\u0423\u0447\u0430\u0441\u0442\u043d\u0438\u043a": 1465, "tom": 1466, "\u0413\u0440\u0430\u0436\u0434\u0430\u043d": 1467, "\u0430\u043b\u044c\u043d\u044b\u0435": 1468, "\u0432\u043b\u0435": 1469, "\u0435\u043c\u0430\u044f": 1470, "\u043c\u043e\u0436": 1471, "\u0447\u0435\u043d\u0438\u044f": 1472, "\u2581\u043a\u043e\u043d\u0442\u0430\u043a\u0442": 1473, "\u2581\u043f\u0440\u0435\u0434\u043e\u0441\u0442\u0430\u0432\u043b\u0435\u043d\u0438\u044f": 1474, "ANY": 1475, "\u043d\u044b\u043c\u0438": 1476, "\u0441\u0442\u0430\u0432": 1477, "\u2581\u0430\u043a\u0442\u043e\u0432": 1478, "\u2581\u0433\u043e\u0440\u043e\u0434": 1479, "\u2581\u0443\u0447\u0430\u0441\u0442\u043a\u0430": 1480, "\u2581\u05d0\u05ea": 1481, "from": 1482, "09": 1483, "\u0438\u043c\u043e\u0441\u0442\u044c": 1484, "\u0448\u0435\u043d\u0438\u0435": 1485, "Prof": 1486, "ab": 1487, "ile": 1488, "iska": 1489, "\u0434\u0443": 1490, "\u0438\u0440\u0443\u0435\u0442\u0441\u044f": 1491, "\u2581b": 1492, "\u2581Check": 1493, "\u2581comp": 1494, "\u2581member": 1495, "\u2581{": 1496, "\u2581\u0432\u043b\u0430\u0434\u0435": 1497, "\u2581\u043f\u043e\u0438\u0441\u043a": 1498, ");": 1499, "\u0441\u0442\u0432": 1500, "\u2581website": 1501, "\u2581\u0430\u0432\u0442\u043e\u043c\u043e\u0431\u0438\u043b\u044f": 1502, "\u2581\u0431\u0435\u0441\u043f\u043b\u0430\u0442\u043d\u043e": 1503, "\u2581\u0442\u043e\u0432\u0430\u0440\u043e\u0432": 1504, "634": 1505, "account": 1506, "dy": 1507, "ka": 1508, "nost": 1509, "\u0413\u0423": 1510, "\u0431\u0435\u0437": 1511, "\u043a\u043e\u0432": 1512, "\u2581customer": 1513, "\u2581\u043f\u043e\u043b": 1514, "82": 1515, "N": 1516, "tribute": 1517, "\u0430\u043b\u044c\u043d\u0430\u044f": 1518, "\u0438\u043e\u043d": 1519, "\u2581clinic": 1520, "\u2581\u0444\u043e\u0440\u0443\u043c\u0430": 1521, "31": 1522, "428": 1523, "99": 1524, "\u00bb.": 1525, "\u0412\u0441\u0435": 1526, "\u0418\u043d\u0444\u043e\u0440\u043c": 1527, "\u041c\u0430\u0440\u043a": 1528, "\u043b\u044c\u043d\u043e\u0441\u0442\u044c": 1529, "\u0440\u0435\u043c": 1530, "\u0451": 1531, "service": 1532, "\u0434\u0435\u043d\u0442": 1533, "\u0438\u0432\u0430\u043d\u0438\u0435": 1534, "\u043d\u0438\u0438": 1535, "\u0442\u0440\u0435": 1536, "\u2581Feedback": 1537, "\u2581\u0414": 1538, "28": 1539, "Com": 1540, "co": 1541, "dl": 1542, "ments": 1543, "nom": 1544, "\u0410\u0432\u0442\u043e": 1545, "\u043f\u043e\u0440": 1546, "\u2581\u042d\u043b": 1547, "\u2581\u043a\u043b\u0443\u0431": 1548, "\u2581\u043f\u043e\u0434\u043f\u0438\u0441": 1549, "\u2581\u0440\u0430\u0434\u0438\u043e": 1550, "Max": 1551, "O": 1552, "Po": 1553, "ks": 1554, "ui": 1555, "\u0415\u0441\u043b\u0438": 1556, "\u05d5\u05e0\u05d9": 1557, "\u05d9\u05d6\u05d4": 1558, "\u05d9\u05e0\u05ea": 1559, "\u2581view": 1560, "\u2581\u0434": 1561, "\u2581\u043f\u0440\u043e\u0435\u043a\u0442\u0430": 1562, "\u2581\u0440\u0435\u043a\u043e\u043c\u0435\u043d\u0434\u0430\u0446\u0438\u0438": 1563, "\u2581\u0443\u0447\u0435": 1564, "\u2581\u05d1\u05d0": 1565, "\u2581\u05de\u05e2": 1566, "\u2581\u05e7\u05d5\u05e8\u05e1": 1567, "Forum": 1568, "\u25817": 1569, "\u2581Un": 1570, "\u2581price": 1571, "\u2581\u044d\u043b\u0435\u043a\u0442\u0440\u043e\u043d\u043d\u044b": 1572, "-3": 1573, "Gene": 1574, "sk": 1575, "\u2581Fun": 1576, "\u2581license": 1577, "\u2581number": 1578, "\u2581topic": 1579, "\u2581\u041e\u0431": 1580, "\u2581\u043f\u0440\u043e\u0433\u0440\u0430\u043c\u043c\u0435": 1581, "Fi": 1582, "\u0430\u0446\u0438\u0438": 1583, "\u0441\u0442\u0440\u0438": 1584, "\u2581Apple": 1585, "\u2581\u0437\u0430\u043a\u0430\u0437": 1586, "index": 1587, "\u2581\u0423\u0436\u0435": 1588, "ca": 1589, "\u0425": 1590, "\u0436\u0435": 1591, "\u0446": 1592, "\u0449\u0435": 1593, "\u2581\u0412\u0441\u0435": 1594, "\u2581\u041d\u0410": 1595, "\u2581\u0430\u043a\u0446\u0438\u0438": 1596, "\u2581\u0434\u043e\u0441\u0442\u0443\u043f": 1597, "103": 1598, "\u043e\u043d": 1599, "\u2581\u0431\u044b": 1600, "\u2581\u0438\u0441\u043f\u043e\u043b\u044c\u0437\u043e\u0432\u0430\u043d\u0438\u0435": 1601, "\u2581\u043f\u0443\u0431\u043b\u0438\u043a\u0443": 1602, "PO": 1603, "dol": 1604, "tel": 1605, "web": 1606, "\u041b\u0438": 1607, "\u041e\u041b\u042c": 1608, "\u0435\u0442\u0435": 1609, "\u0442\u043e\u043b\u043e\u0433\u0438\u044f": 1610, "\u2581M": 1611, "\u2581\u0434\u0430\u0442\u0443": 1612, "\u2581\u043d\u0430\u0448": 1613, "rk": 1614, "search": 1615, "\u043c\u0438\u043d": 1616, "\u0441\u0442\u0432\u0430": 1617, "\u2581\u0420\u0424": 1618, "\u2581\u0437\u0430\u043f\u0438\u0441": 1619, "\u2581\u044d\u043b": 1620, "mit": 1621, "rate": 1622, "\u043e\u0431\u043d\u043e\u0432\u043b\u0435\u043d": 1623, "\u0441\u0442\u0435\u0439": 1624, "\u0442\u043e\u0440": 1625, "\u2581Performance": 1626, "\u2581access": 1627, "\u2581\u0411\u0430": 1628, "\u2581\u043d\u043e\u0432\u044b\u0445": 1629, "\u2581\u043f\u043e\u0434\u0442\u0432\u0435\u0440\u0436\u0434\u0435\u043d": 1630, "-45": 1631, "46": 1632, "75": 1633, "Ac": 1634, "office": 1635, "personal": 1636, "\u0430\u0442\u0438\u0432": 1637, "\u0432\u0430\u0440": 1638, "\u2581PRO": 1639, "\u2581already": 1640, "\u2581exist": 1641, "\u2581\u043a\u0443\u0440": 1642, "\u2581\u043c\u0430\u0442\u0435\u0440\u0438\u0430\u043b\u043e\u0432": 1643, "\u2581\u043f\u043e\u044f\u0441": 1644, "\u2581\u0441\u0442\u0440\u0430\u043d\u0438\u0446\u044b": 1645, "\u2581\u0441\u0447\u0451\u0442": 1646, "Yes": 1647, "ba": 1648, "hotel": 1649, "note": 1650, "student": 1651, "\u0411\u0430\u043d\u043a": 1652, "\u041d\u0430\u0441\u0442\u043e\u044f\u0449\u0438": 1653, "\u0424\u0418": 1654, "\u0432\u043e\u0433\u043e": 1655, "\u043b\u0435\u0439": 1656, "\u0441\u0441\u044b\u043b\u043a\u0430": 1657, "\u2581Country": 1658, "\u2581english": 1659, "\u2581g": 1660, "\u2581\u0413\u043e\u0434": 1661, "\u2581\u0430\u043a\u0446\u0438\u044f": 1662, "\u2581\u0434\u0435\u0440\u0435\u0432": 1663, "\u2581\u043a\u0430\u0442\u0430\u043b\u043e\u0433": 1664, "\u2581\u043f\u0438\u0441\u044c\u043c\u0430": 1665, "\u2581\u043f\u043e\u0441\u0435\u0442\u0438": 1666, "\u2581\u043f\u0443\u0431\u043b\u0438\u0447\u043d\u043e": 1667, "\u2581\u0441\u0438\u0441\u0442\u0435\u043c": 1668, "\u2581\u0442\u0435\u043c\u0430": 1669, "'": 1670, "bord": 1671, "\u2581In": 1672, "\u2581participant": 1673, "\u2581\u0421\u0435\u0440": 1674, "000": 1675, "Of": 1676, "\u0441\u044c": 1677, "\u2581gender": 1678, "\u2581\u043f\u0440\u043e\u0434\u0443\u043a\u0442\u0430": 1679, "648": 1680, "\u0423\u0447": 1681, "\u0441\u0441\u0438": 1682, "\u2581Address": 1683, "\u2581Order": 1684, "\u2581driver": 1685, "\u2581my": 1686, "\u2581ps": 1687, "\u2581que": 1688, "\u2581\u041a\u0430\u043a": 1689, "\u2581\u0422\u0438\u043f": 1690, "su": 1691, "\u2581add": 1692, "\u2581other": 1693, "\u2581\u043d\u0438\u0436\u0435": 1694, "net": 1695, "\u041f\u0435\u0440": 1696, "\u0431\u043e\u0440": 1697, "\u0432\u0430\u044f": 1698, "\u0441\u044b": 1699, "\u2581City": 1700, "\u2581keyword": 1701, "To": 1702, "margin": 1703, "\u0435\u043d": 1704, "\u043b\u043e": 1705, "\u2581\u0431\u043e\u043b\u0435\u0435": 1706, "\u2581\u0437\u0430\u043f\u0440\u043e\u0441": 1707, "cap": 1708, "client": 1709, "\u0441\u0442\u0430": 1710, "\u2014": 1711, "\u2581\u0431\u0443\u0434\u0443\u0442": 1712, "\u2581\u043e\u0431\u0440\u0430\u0437\u043e\u0432\u0430\u0442\u0435\u043b\u044c\u043d": 1713, "\u2581\u0443\u0447\u0430\u0441\u0442\u0438\u0435": 1714, "\u2581\u0444\u0430\u043a\u0442": 1715, "23": 1716, "452": 1717, "Pas": 1718, "dex": 1719, "mont": 1720, "\u0418\u043d\u0442\u0435\u0440": 1721, "\u043a\u0440\u0430\u0441": 1722, "\u043d\u0441\u0443\u043b\u044c\u0442": 1723, "RU": 1724, "ban": 1725, "holder": 1726, "ngu": 1727, "start": 1728, "\u041a\u0410": 1729, "\u0426\u0435": 1730, "\u0434\u0435\u043d": 1731, "\u0438\u0437\u0430\u0446\u0438\u0438": 1732, "\u043b\u0435\u043a": 1733, "\u043e\u0442\u043e": 1734, "\u0444": 1735, "\u2581Magic": 1736, "\u2581\u0421\u041e": 1737, "\u2581\u0422\u043e\u0440\u0433\u043e\u0432": 1738, "\u2581\u0430\u0432\u0442\u043e": 1739, "\u2581\u0432\u0430\u0448\u0443": 1740, "\u2581\u0434\u043e\u043b\u0436\u043d\u043e\u0441\u0442\u044c": 1741, "\u2581\u043a\u0430\u0440\u0442": 1742, "\u2581\u043b\u044e\u0431\u043e\u0435": 1743, "\u2581\u043c\u0435\u0441\u044f\u0446": 1744, "\u2581\u043d\u0430\u043b\u0438\u0447\u0438\u0438": 1745, "\u2581\u043e\u0442\u043d\u043e\u0448\u0435\u043d\u0438\u0438": 1746, "\u2581\u0440\u0443\u0431": 1747, "mic": 1748, "serie": 1749, "\u043e\u0447\u043d\u044b\u0439": 1750, "\u043f\u0440\u043e\u0435\u043a\u0442": 1751, "\u0442\u043e\u0439": 1752, "\u2581\u043f\u0440\u043e\u0433\u0440\u0430\u043c\u043c": 1753, "\u2581\u0448\u0442": 1754, "\u2581\u044f\u0432\u043b\u044f\u0435\u0442\u0441\u044f": 1755, "1234": 1756, "19": 1757, "Service": 1758, "\u0440\u0443\u0433": 1759, "\u0442\u0430\u0440\u0430": 1760, "\u2581\u0431\u0438\u043b\u0435\u0442": 1761, "\u2581\u043b\u0438\u0446\u0435": 1762, "\u2581\u043b\u0438\u0446\u0435\u043d\u0437": 1763, "\u2581\u043f\u043e\u0441\u043b\u0435": 1764, "\u2581\u043f\u0443\u0431\u043b\u0438\u0447\u043d": 1765, "\u2581\u0441\u0442": 1766, "\u2581\u0441\u0442\u0443\u0434\u0435\u043d\u0442\u043e\u0432": 1767, "\u2581\u0443\u0447\u0430\u0441\u0442\u043e\u043a": 1768, "81": 1769, "hod": 1770, "ized": 1771, "mination": 1772, "nt": 1773, "quest": 1774, "\u258112": 1775, "\u2581\u043d\u0430\u0441\u0435\u043b\u0435\u043d": 1776, "Date": 1777, "\u2581OK": 1778, "\u2581description": 1779, "\u2581\u0420\u043e\u0434\u0438": 1780, "\u2581\u0432\u0438\u0434\u0438\u0442\u0435": 1781, "\u2581\u043f\u0438\u0441\u044c\u043c\u043e": 1782, "Person": 1783, "ans": 1784, "bd": 1785, "he": 1786, "rec": 1787, "sh": 1788, "\u041f\u043e\u043b\u0438\u0442": 1789, "\u043e\u0432\u0430\u044f": 1790, "\u258113": 1791, "\u2581B": 1792, "\u2581og": 1793, "\u2581quanti": 1794, "\u2581yes": 1795, "\u2581\u041d\u0430\u043f\u0440\u0438\u043c\u0435\u0440": 1796, "\u2581\u043e\u0442\u0432\u0435\u0442": 1797, "\u2581\u044f\u0432\u043b\u044f": 1798, "\u041f\u0435\u0440\u0435": 1799, "\u2581Education": 1800, "\u2581\u0432\u0438\u0434": 1801, "\u2581\u043a\u043e\u0442\u043e\u0440\u0430\u044f": 1802, "\u2581\u043e\u0431\u044f\u0437\u0430\u0442\u0435\u043b\u044c\u043d\u043e": 1803, "01": 1804, "ff": 1805, "fio": 1806, "um": 1807, "work": 1808, "\u043e\u0434": 1809, "\u2581Ethereum": 1810, "\u2581auto": 1811, "\u2581org": 1812, "\u2581\u043f\u043e\u0434\u0442\u0432\u0435\u0440\u0436\u0434\u0430\u0435\u0442": 1813, "\u2581\u0441\u043a\u0438": 1814, "48": 1815, "68": 1816, "X": 1817, "patr": 1818, "\u0437\u0438": 1819, "\u0449\u0438\u0439": 1820, "\u2581fac": 1821, "\u2581pm": 1822, "\u2581\u041e\u0431\u0440\u0430\u0437\u043e\u0432\u0430": 1823, "\u2581\u0431\u0430\u0437\u0435": 1824, "\u2581\u0431\u043e\u043b\u044c\u0448\u0435": 1825, "\u2581\u0434\u0435\u0439\u0441\u0442\u0432\u0443": 1826, "\u2581\u043d\u0435\u0434\u0432\u0438\u0436\u0438\u043c\u043e\u0441\u0442\u0438": 1827, "34": 1828, "633": 1829, "ject": 1830, "onym": 1831, "ul": 1832, "\u0434\u043e\u0432\u043e": 1833, "\u043a\u043e\u043c": 1834, "\u043b\u0430\u0441": 1835, "\u2581for": 1836, "\u2581sen": 1837, "\u2581\u0411": 1838, "\u2581\u0414\u043e\u043c": 1839, "\u2581\u0430\u0434\u0440\u0435\u0441\u0430": 1840, "\u2581\u0432\u044b\u0441": 1841, "\u2581\u0437\u0430\u0432\u0435\u0434\u0435\u043d\u0438\u044f": 1842, "\u2581\u043f\u043e\u0438\u0441\u043a\u0430": 1843, "36": 1844, "alue": 1845, "\u0440\u0443\u043f": 1846, "\u2581wp": 1847, "\u2581\u0422\u0430\u043a": 1848, "\u2581\u043c\u0430\u0441\u0442\u0435\u0440": 1849, "02": 1850, "03": 1851, "Dia": 1852, "ip": 1853, "ve": 1854, "yu": 1855, "\u041d\u041e": 1856, "\u0438\u0442\u0435\u0441\u044c": 1857, "\u043e\u0432\u043e\u0435": 1858, "\u0440\u044b": 1859, "\u0441\u0438": 1860, "\u25810.5": 1861, "\u2581client": 1862, "\u2581individual": 1863, "\u2581\u0411\u0438\u043b": 1864, "\u2581\u0432\u0435\u0440\u043d\u043e": 1865, "\u2581\u043a\u0430\u0440\u0442\u044b": 1866, "\u2581\u043a\u043e\u043c": 1867, "\u2581\u043a\u043e\u0448": 1868, "\u2581\u043c\u0430\u0448\u0438\u043d\u044b": 1869, "\u2581\u043c\u0435\u0441\u0442\u043e": 1870, "\u2581\u043c\u043e\u043c\u0435\u043d\u0442": 1871, "\u2581\u0442\u0440\u0430\u043d\u0441\u0444\u0435\u0440": 1872, ":00": 1873, "Cor": 1874, "Model": 1875, "NO": 1876, "language": 1877, "si": 1878, "sky": 1879, "\u0432\u043e\u0439": 1880, "\u0438\u0440\u043e\u0432\u0430\u043d\u0438\u0435": 1881, "\u044e\u0442\u0441\u044f": 1882, "\u2581$": 1883, "\u258121": 1884, "\u2581max": 1885, "\u2581source": 1886, "\u2581\u041e\u0440": 1887, "\u2581\u0436\u0435": 1888, "\u2581\u043a\u0430\u0431\u0438\u043d\u0435\u0442": 1889, "\u2581\u0443\u0447\u0430\u0441\u0442\u043d\u0438\u043a\u043e\u0432": 1890, "83": 1891, "R": 1892, "ash": 1893, "stre": 1894, "\u043d\u043e\u0441": 1895, "\u043e\u0434\u043d\u043e": 1896, "\u043f\u0440\u043e": 1897, "\u0440\u0430\u0442\u0443\u0440\u0430": 1898, "\u0441\u0442\u0440\u044b": 1899, "\u0442\u0438\u0440\u0430": 1900, "\u2581Client": 1901, "\u2581full": 1902, "\u2581participation": 1903, "\u2581tel": 1904, "\u2581\u0437\u0430\u043a\u043e\u043d\u0447\u0438\u043b": 1905, "\u2581\u0438\u043d\u0441\u0442\u0440\u0443\u043c\u0435\u043d\u0442": 1906, "\u2581\u043a\u043e\u043b\u0435\u0441": 1907, "\u2581\u043a\u043e\u043d\u0433\u0440\u0435\u0441": 1908, "\u2581\u043d\u0430\u043b\u043e\u0433\u043e\u043e\u0431\u043b\u043e\u0436\u0435\u043d\u0438\u044f": 1909, "\u2581\u043f\u0440\u0435\u0434\u043e": 1910, "\u2581\u0440\u0430\u0441\u0447\u0435\u0442": 1911, "\u2581\u0441\u0435\u0440\u0442\u0438\u0444\u0438\u043a\u0430\u0442": 1912, "\u2581\u0441\u0442\u0430\u0440\u043e": 1913, "\u2716": 1914, "128": 1915, "met": 1916, "tor": 1917, "\u0434\u0435\u043b": 1918, "\u0435\u043a\u0442": 1919, "\u2581enti": 1920, "\u2581\u0432\u0445\u043e\u0434": 1921, "\u2581\u0441\u0442\u0440\u0430\u043d\u0438\u0446\u0430": 1922, "632": 1923, "An": 1924, "cense": 1925, "lic": 1926, "sse": 1927, "\u041c\u043e": 1928, "\u0421\u0442\u0430\u0442": 1929, "\u043c\u0435": 1930, "\u043d\u0438": 1931, "\u2581cat": 1932, "\u2581id": 1933, "\u2581\u0434\u043e\u0441\u0442\u0430\u0432\u043a\u0438": 1934, "35": 1935, "542": 1936, "ar": 1937, "ndo": 1938, "new": 1939, "\u0434\u043e\u0431": 1940, "\u2581Form": 1941, "\u2581bank": 1942, "\u2581\u043f\u0440\u043e\u043c\u043e": 1943, "655": 1944, "key": 1945, "\u043a\u043e\u043d\u0444\u0435\u0440\u0435\u043d\u0446": 1946, "\u0445\u0430": 1947, "\u0447\u0435\u0432": 1948, "\u2581Open": 1949, "\u2581bil": 1950, "\u2581manufacture": 1951, "\u2581\u041e\u0440\u0433\u0430\u043d\u0438\u0437\u0430\u0446\u0438": 1952, "\u2581\u0420": 1953, "\u2581\u043b\u0430\u0442\u0438\u043d": 1954, "\u2581\u0440\u0435\u0433\u0438\u0441\u0442\u0440\u0430\u0446\u0438\u044f": 1955, "\u2581\u0441\u043e\u0441\u0442\u043e\u0438\u0442\u0441\u044f": 1956, "Ti": 1957, "ate": 1958, "http": 1959, "it": 1960, "red": 1961, "size": 1962, "tle": 1963, "\u0422\u0440\u0435": 1964, "\u043a\u043e\u043d": 1965, "\u0442\u0435\u043b\u044c\u043d\u044b\u0439": 1966, "\u2581vat": 1967, "375": 1968, "41": 1969, "ESS": 1970, "PP": 1971, "house": 1972, "ov": 1973, "\u0440\u0435\u043a": 1974, "\u2581mp": 1975, "\u2581nick": 1976, "\u2581second": 1977, "\u2581\u0420\u0435": 1978, "29": 1979, "Cat": 1980, "SON": 1981, "Su": 1982, "des": 1983, "ego": 1984, "for": 1985, "solut": 1986, "\u041f\u0410\u0420": 1987, "\u041f\u0440\u0435\u0434\u0441\u0442\u0430\u0432": 1988, "\u043b\u0435\u043d\u0438\u0439": 1989, "\u043c\u0430\u0442": 1990, "\u0441\u0443": 1991, "\u2581messenger": 1992, "\u2581mobile": 1993, "\u2581\u041a\u0430\u043a\u0438\u0435": 1994, "\u2581\u0432\u044b\u0431\u0440\u0430\u043d": 1995, "\u2581\u043e\u043f\u043b\u0430\u0442\u044b": 1996, "\u2581\u0441\u043f\u0438\u0441\u043a\u0430": 1997, "\u2581\u0441\u0442\u0430\u0442\u0443\u0441": 1998, "),": 1999, "-27": 2000, "888": 2001, "By": 2002, "H": 2003, "cker": 2004, "tal": 2005, "\u0437": 2006, "\u043b\u043e\u0433\u0438": 2007, "\u043f\u043e\u043b\u043e\u0436\u0435\u043d": 2008, "\u0441\u0435\u0440": 2009, "\u2581\u0411\u0438\u0437\u043d\u0435\u0441": 2010, "\u2581\u041d\u0414\u0421": 2011, "\u2581\u0423\u0447\u0435\u043d\u0438": 2012, "\u2581\u0441\u0438\u0441\u0442\u0435\u043c\u0435": 2013, "\u2581\u0443\u0436\u0435": 2014, "\u2581\u0447\u0435\u0440\u0435\u0437": 2015, "69": 2016, "84": 2017, "\u0430\u043d\u0442": 2018, "\u043e\u0447\u043a\u0438": 2019, "\u2581Province": 2020, "\u2581Your": 2021, "\u2581business": 2022, "\u2581zip": 2023, "\u2581\u0431\u0435\u0437": 2024, "\u2581\u043f\u043e\u0441\u0442\u0430\u0432\u0449\u0438\u043a\u0430": 2025, "BAN": 2026, "adres": 2027, "dle": 2028, "fec": 2029, "nc": 2030, "pr": 2031, "\u0438\u0440\u0443\u0435\u0442": 2032, "\u043d\u0435\u0439": 2033, "\u0440\u0438\u0441": 2034, "\u0449\u0435\u043d": 2035, "\u0449\u0435\u043d\u0438\u0435": 2036, "\u044e\u0449\u0438\u0435": 2037, "\u2581\u0437\u0432\u043e\u043d": 2038, "\u2581\u0438\u043d\u0444\u043e\u0440\u043c\u0430\u0446\u0438\u043e\u043d\u043d\u043e": 2039, "\u2581\u0440\u0430\u0431\u043e\u0442\u0430\u0435\u0442": 2040, "\u2581\u0440\u0435\u0433\u0438\u0441\u0442\u0440\u0430\u0446\u0438\u044e": 2041, "\u2581\u0448\u043a\u043e\u043b\u044b": 2042, "278": 2043, "dr": 2044, "job": 2045, "ob": 2046, "ts": 2047, "\u0413\u0421": 2048, "\u0430\u0442\u044c": 2049, "\u0430\u044e": 2050, "\u0431\u043e": 2051, "\u0431\u0440\u043e\u043d": 2052, "\u0432\u043e\u0434\u0438": 2053, "\u0434\u0436\u0435\u0440": 2054, "\u0435\u043d\u0438\u044f": 2055, "\u0435\u0440\u0443": 2056, "\u0438\u0434\u0435\u043d\u0442": 2057, "\u043e\u0437": 2058, "\u043f\u0440\u0435\u0434": 2059, "\u043f\u0440\u043e\u0434\u0430\u0436": 2060, "\u0441\u043a\u043e": 2061, "\u0441\u0442\u0430\u0432\u043b\u044f\u0435\u0442": 2062, "\u0441\u0442\u0440\u043e\u0439": 2063, "\u0449\u0435\u043d\u0438\u044f": 2064, "\u044b\u0432\u0430\u0435\u043c": 2065, "\u0455": 2066, "\u2581need": 2067, "\u2581select": 2068, "\u2581\u0431\u0438\u0437\u043d\u0435\u0441": 2069, "\u2581\u0437\u043e\u043d\u0430": 2070, "\u2581\u0438\u043d\u0442\u0435\u0440\u0435\u0441": 2071, "\u2581\u043a\u0430\u0442\u0435\u0433\u043e\u0440\u0438\u0438": 2072, "\u2581\u043a\u043e\u0433\u0434\u0430": 2073, "\u2581\u043c\u043e\u0438": 2074, "\u2581\u043f\u043e\u0434\u0440\u0430\u0437\u0434\u0435\u043b\u0435\u043d\u0438\u044f": 2075, "\u2581\u043f\u0440\u0435\u0434\u043f\u0440\u0438\u043d\u0438\u043c\u0430": 2076, "\u2581\u043f\u0440\u043e\u0432\u0435\u0434\u0435\u043d\u0438\u044f": 2077, "\u2581\u0440\u0435\u0441\u0443\u0440\u0441": 2078, "\u2581\u0441\u0432\u043e\u0438": 2079, "\u2581\u0441\u0438\u0433\u0430\u0440\u0435\u0442": 2080, "\u2581\u0442\u0430\u0440\u0438\u0444": 2081, "\u2581\u0443\u043f\u0440\u0430\u0432\u043b\u0435\u043d\u0438\u044f": 2082, "38": 2083, "bik": 2084, "end": 2085, "\u0422\u0430": 2086, "\u043f\u043e\u043b": 2087, "\u2581birthday": 2088, "\u2581question": 2089, "\u2581\u0412\u0438": 2090, "\u2581\u0441\u043b\u043e\u0432\u0430": 2091, "fer": 2092, "firma": 2093, "manager": 2094, "ur": 2095, "\u0443\u043d": 2096, "\u25811:": 2097, "\u2581Perfect": 2098, "\u2581\u041d\u0430\u0439": 2099, "\u2581\u041d\u0438\u043a": 2100, "\u2581\u041e\u0431\u043b\u0430\u0441\u0442": 2101, "\u2581\u043f\u043e\u043b\u0443\u0447\u0438\u0442\u044c": 2102, "\u2581\u043f\u0440\u0435\u0434\u043b\u043e\u0436\u0435\u043d\u0438\u0435": 2103, "-00": 2104, "av": 2105, "ddi": 2106, "li": 2107, "\u0421\u043f": 2108, "\u043a\u043b\u0430\u0434": 2109, "\u2581section": 2110, "\u2581\u0412\u0430\u043c": 2111, "\u2581\u0415": 2112, "\u2581\u041a\u043e\u0440": 2113, "\u2581\u0432\u0430\u043c\u0438": 2114, "08": 2115, "13": 2116, "Cre": 2117, "PA": 2118, "cf": 2119, "nil": 2120, "tim": 2121, "\u0434\u0435\u043b\u044c": 2122, "\u0442\u043e\u043b\u044c\u043a\u043e": 2123, "\u0444\u0430": 2124, "\u0447\u043d\u044b\u0435": 2125, "\u2581WORK": 2126, "\u2581category": 2127, "\u2581pod": 2128, "\u2581rs": 2129, "\u2581sc": 2130, "\u2581\u043a\u043e\u043c\u0430\u043d\u0434\u0430": 2131, "\u2581\u044d\u0442\u043e\u0442": 2132, "39": 2133, "76": 2134, "IS": 2135, "qi": 2136, "\u0440\u043e\u043a": 2137, "\u2581\u043c\u043e\u0434\u0435\u043b\u0438": 2138, "\u2581\u043f\u0430\u0440\u0442\u043d\u0435\u0440\u0430": 2139, "\u2581\u043f\u0435\u0440\u0435": 2140, "\u2581\u0443\u0447\u0440\u0435\u0436\u0434\u0435\u043d\u0438\u044f": 2141, "\",": 2142, "card": 2143, "ovanie": 2144, "pl": 2145, "rus": 2146, "ya": 2147, "\u0417": 2148, "\u0434\u0430\u0439\u0442\u0435": 2149, "\u043d\u0438\u0446\u0430": 2150, "\u043f\u043e\u043b\u044c": 2151, "\u2581Med": 2152, "\u2581Number": 2153, "\u2581http": 2154, "\u2581\u0414\u043e\u043f\u043e\u043b\u043d\u0438\u0442\u0435\u043b\u044c\u043d": 2155, "\u2581\u041a\u043b\u044e\u0447": 2156, "\u2581\u0420\u0443\u0441": 2157, "\u2581\u043f\u0440\u043e\u0436\u0438\u0432\u0430\u043d\u0438\u044f": 2158, "42": 2159, "mo": 2160, "\u0437\u0443": 2161, "\u0442\u0435\u043b\u044c\u043d\u044b\u0435": 2162, "\u044c\u043d\u043e\u0433\u043e": 2163, "\u2581pre": 2164, "\u2581\u0421\u041f": 2165, "\u2581\u0430\u0432\u0442\u043e\u0440": 2166, "\u2581\u0441\u0443\u043f\u0440\u0443\u0433": 2167, "\u2581\u0443\u043b": 2168, "Bo": 2169, "be": 2170, "\u0433\u0440\u0430\u0434": 2171, "\u0440\u0435\u0436": 2172, "\u0443\u0441": 2173, "\u0451\u043d": 2174, "\u2581152": 2175, "\u2581degree": 2176, "\u2581mari": 2177, "\u2581\u041c\u0443\u0436": 2178, "\u2581\u0432\u0438\u0434\u044b": 2179, "\u2581\u0434\u043e\u043b\u0436\u0435\u043d": 2180, "bus": 2181, "curr": 2182, "ero": 2183, "interes": 2184, "mid": 2185, "pay": 2186, "plan": 2187, "\u0418\u041a": 2188, "\u041c\u044b": 2189, "\u0438\u043a": 2190, "\u0438\u0440\u043e\u0432\u0430\u043d\u0438\u044f": 2191, "\u043d\u0438\u044e": 2192, "\u0440\u0430": 2193, "\u0441\u0435\u0442\u0438": 2194, "\u0441\u0438\u043c": 2195, "\u044e\u0449\u0435\u0433\u043e": 2196, "\u2581Search": 2197, "\u2581T": 2198, "\u2581out": 2199, "\u2581service": 2200, "\u2581want": 2201, "\u2581\u0418\u0441": 2202, "\u2581\u0420\u0435\u043a\u043b\u0430\u043c": 2203, "\u2581\u0431\u043e\u043d\u0443\u0441": 2204, "\u2581\u0433\u0438": 2205, "\u2581\u0434\u0440\u0443\u0433\u0438\u0445": 2206, "\u2581\u0437\u043d\u0430\u043a": 2207, "\u2581\u043d\u0435\u043c\u043d\u043e\u0433\u043e": 2208, "\u2581\u043f\u0430\u0440\u0430\u043c\u0435\u0442\u0440": 2209, "\u2581\u043f\u043e\u0440\u0442\u0430\u043b": 2210, "\u2581\u0441\u043c\u043e\u0436\u0435\u0442\u0435": 2211, "\u2581\u0441\u0442\u0440\u0430\u043d\u0430\u0445": 2212, "At": 2213, "MENT": 2214, "[2]": 2215, "\\": 2216, "auto": 2217, "den": 2218, "ete": 2219, "iru": 2220, "kie": 2221, "lang": 2222, "obre": 2223, "rg": 2224, "tat": 2225, "tova": 2226, "voz": 2227, "working": 2228, "\u0413\u041b\u0410\u0421": 2229, "\u0418\u0415": 2230, "\u041a\u041e\u0419": 2231, "\u042d\u0414": 2232, "\u0434\u0435\u043b\u0435\u043d\u0438\u0435": 2233, "\u0435\u043d\u0438\u0435": 2234, "\u0438\u0440\u043e\u0432\u0430\u043d\u043d\u044b\u0445": 2235, "\u043a\u0440\u0430": 2236, "\u043b\u0435\u0442": 2237, "\u043b\u0438\u0433\u0438": 2238, "\u043b\u043b": 2239, "\u043d\u043e\u0432": 2240, "\u0440\u0435\u043d": 2241, "\u0441\u0442\u0430\u043d\u043e\u0432": 2242, "\u2581D": 2243, "\u2581Pay": 2244, "\u2581\u0413\u0440\u0430": 2245, "\u2581\u041a\u043e\u043c\u043f\u0430\u043d\u0438": 2246, "\u2581\u041f\u041e\u041b": 2247, "\u2581\u043a\u043e\u043d\u0441\u0443\u043b\u044c\u0442\u0430\u0446\u0438\u044f": 2248, "\u2581\u043a\u043e\u043d\u0444\u0435\u0440\u0435\u043d\u0446\u0438\u0438": 2249, "\u2581\u043c\u043e\u0434\u0435\u043b\u044c": 2250, "\u2581\u043d\u0435\u043e\u0431\u0445\u043e\u0434\u0438\u043c\u043e": 2251, "\u2581\u043e\u0431\u0440\u0430\u0437\u043e\u0432\u0430\u043d\u0438\u044f": 2252, "\u2581\u043e\u043f\u0435\u0440\u0430\u0442\u043e\u0440": 2253, "\u2581\u043f\u0440\u043e\u0434\u0430\u0436": 2254, "\u2581\u0441\u0430\u043c\u043e": 2255, "\u2581\u0441\u043f\u0438\u0441\u043e\u043a": 2256, "\u2581\u0444\u0430\u043c\u0438\u043b": 2257, "\u2581\u0444\u0438\u0440\u043c\u044b": 2258, "550": 2259, "90": 2260, "EER": 2261, "sem": 2262, "travel": 2263, "\u0430\u043b\u044c\u043d\u044b\u0445": 2264, "\u0432\u0430\u0442\u0430": 2265, "\u0432\u0438\u0437\u0438": 2266, "\u0432\u0448\u0435\u0433\u043e": 2267, "\u0437\u043e\u0432": 2268, "\u043b\u0435\u0437": 2269, "\u043c\u043e\u043d\u0442\u0430\u0436": 2270, "\u0440\u0430\u0432": 2271, "\u0440\u043e\u0432": 2272, "\u0441\u0442\u0430\u0432\u043b\u0435\u043d": 2273, "\u0441\u0442\u043e\u044f\u043d": 2274, "\u0442\u0440": 2275, "\u0447\u0435\u043d\u043e": 2276, "\u0447\u0435\u0441\u0442\u0432\u0430": 2277, "\u201a": 2278, "\u258118+": 2279, "\u258120": 2280, "\u2581Fill": 2281, "\u2581Yes": 2282, "\u2581me": 2283, "\u2581role": 2284, "\u2581start": 2285, "\u2581status": 2286, "\u2581telephone": 2287, "\u2581\u0431\u0430\u043d\u043a\u043e\u0432": 2288, "\u2581\u0432\u0438\u0434\u0430": 2289, "\u2581\u0434\u043e\u043a\u043b\u0430\u0434": 2290, "\u2581\u0437\u0430\u0431": 2291, "\u2581\u043c\u0438\u0440\u0435": 2292, "\u2581\u043e\u0444\u0438\u0446\u0438\u0430\u043b\u044c\u043d\u043e": 2293, "\u2581\u043f\u043e\u043a\u0430\u0437": 2294, "\u2581\u0440\u0430\u0437\u043c\u0435\u0440\u0435": 2295, "\u2581\u0447\u0430\u0441\u043e\u0432": 2296, "\u2731": 2297, "154": 2298, "17": 2299, "3-": 2300, "Master": 2301, "spon": 2302, "tele": 2303, "use": 2304, "video": 2305, "\u041d\u041f": 2306, "\u043b\u0430\u043c\u0430": 2307, "\u043d\u0430\u0440": 2308, "\u044e\u0442": 2309, "\u2581Web": 2310, "\u2581rad": 2311, "\u2581schools": 2312, "\u2581\u041a\u043e\u043d": 2313, "\u2581\u0433\u043e\u0434": 2314, "\u2581\u043d\u043e\u043c\u0435\u0440\u0430": 2315, "\u2581\u043e\u0442\u043f\u0440\u0430\u0432\u0438": 2316, "999": 2317, "Ex": 2318, "lash": 2319, "team": 2320, "\u0430\u043b\u044c\u043d\u043e\u0435": 2321, "\u0430\u0441\u0438": 2322, "\u0431\u0443\u0434": 2323, "\u043e\u0441": 2324, "\u258130": 2325, "\u2581Re": 2326, "\u2581Skype": 2327, "\u2581private": 2328, "\u2581region": 2329, "\u2581\u0437\u043d\u0430\u043a\u043e\u0432": 2330, "\u2581\u043c\u043e\u0436\u0435\u0442": 2331, "\u2581\u043c\u044b": 2332, "\u2581\u0440\u0435\u0433\u0438\u043e\u043d": 2333, "659": 2334, "ACT": 2335, "CONT": 2336, "back": 2337, "iwa": 2338, "level": 2339, "mbra": 2340, "res": 2341, "stan": 2342, "ti": 2343, "\u00ab": 2344, "\u0414\u0440\u0443\u0433\u0438": 2345, "\u0434\u0435": 2346, "\u0435\u0446": 2347, "\u043d\u0438\u043c": 2348, "\u043f\u043e\u043b\u043d\u0438\u0442\u044c": 2349, "\u2581promo": 2350, "\u2581repas": 2351, "\u2581social": 2352, "\u2581\u043a\u0430\u0447\u0435\u0441\u0442\u0432\u0435": 2353, "\u2581\u043a\u043e\u043d\u0441\u0443\u043b\u044c\u0442\u0430\u0446\u0438\u0438": 2354, "\u2581\u043f\u0440\u043e\u0441\u0442": 2355, "3]": 2356, "687": 2357, "97": 2358, "CE": 2359, "Sign": 2360, "der": 2361, "fter": 2362, "offer": 2363, "send": 2364, "shop": 2365, "\u043f\u0438\u0441\u0430\u043d": 2366, "\u043f\u0440\u0435": 2367, "\u2581\u0422\u0435\u043a\u0441\u0442": 2368, "\u2581\u0430\u0440\u0442\u0438\u043a\u0443\u043b": 2369, "\u2581\u0432\u0430\u0448\u0438": 2370, "\u2581\u043c\u043e\u0436\u043d\u043e": 2371, "\u2581\u0441\u0432\u043e\u044e": 2372, "\u2581\u0441\u043f\u0435\u0446": 2373, "Data": 2374, "buff": 2375, "cto": 2376, "gende": 2377, "qui": 2378, "spa": 2379, "\u0430\u0442\u043e\u0440": 2380, "\u0433\u0440\u0430\u0444": 2381, "\u043e\u0432\u044b\u0435": 2382, "\u043f\u0440\u043e\u0444": 2383, "\u258122": 2384, "\u2581MX": 2385, "\u2581class": 2386, "\u2581pere": 2387, "\u2581\u041f\u0430": 2388, "\u2581\u0430\u0432\u0442\u043e\u043c\u0430\u0442": 2389, "\u2581\u0430\u043a\u0442\u0438\u0432": 2390, "\u2581\u043c\u043d\u043e\u0433\u043e": 2391, "43": 2392, "675": 2393, "Book": 2394, "CHI": 2395, "Do": 2396, "LD": 2397, "REN": 2398, "TES": 2399, "ront": 2400, "www": 2401, "\u043a\u0443\u0441": 2402, "\u043e\u043b\u043e\u0433": 2403, "\u0441\u043a\u0430\u044f": 2404, "\u25812:": 2405, "\u2581Cap": 2406, "\u2581First": 2407, "\u2581Last": 2408, "\u2581P": 2409, "\u2581found": 2410, "\u2581global": 2411, "\u2581\u041f": 2412, "\u2581\u041f\u0440\u043e\u0444": 2413, "\u2581\u0433\u0440\u0443\u043f\u043f\u044b": 2414, "\u2581\u0435": 2415, "\u2581\u043c": 2416, "\u2581\u0441\u043e\u0431\u0441\u0442\u0432\u0435\u043d\u043d\u043e\u0441\u0442\u0438": 2417, "\u2581\u0447\u0438\u0441\u043b\u043e": 2418, "2-": 2419, "OD": 2420, "PK": 2421, "VAT": 2422, "la": 2423, "mi": 2424, "pre": 2425, "\u0411\u043e": 2426, "\u041d\u0430\u0439": 2427, "\u0432\u043b\u044f": 2428, "\u0434\u043a\u0438": 2429, "\u043d\u0430\u043f\u0440\u0438\u043c\u0435\u0440": 2430, "\u2581Poll": 2431, "\u2581example": 2432, "\u2581\u0424\u043e\u0440\u043c\u0430": 2433, "\u2581\u0434\u0435\u043d\u044c": 2434, "\u2581\u0437\u0430\u043f": 2435, "\u2581\u0437\u0430\u044f\u0432\u043a\u0443": 2436, "\u2581\u043a\u043e": 2437, "\u2581\u043f\u0440\u0435": 2438, "\u2581\u0441\u043a\u0430\u0447\u0430\u0442\u044c": 2439, "\u2581\u0442\u043e": 2440, "56": 2441, "building": 2442, "sign": 2443, "\u0414\u0438": 2444, "\u0434\u043e\u0441\u0442\u043e\u0432\u0435\u0440\u0435\u043d": 2445, "\u0438\u043c\u0438": 2446, "\u043b\u043e\u0436\u0435\u043d\u0438": 2447, "\u043f\u0435\u0440": 2448, "\u043f\u043b\u0430\u0442\u0430": 2449, "\u0441\u0435\u043b\u0435\u043d": 2450, "\u0441\u043a\u043e\u043c": 2451, "\u0447\u0451": 2452, "\u2581legal": 2453, "\u2581\u0437\u0430\u043a\u0430\u0437\u0447\u0438\u043a": 2454, "\u2581\u0441\u0430\u043b\u043e\u043d": 2455, "\u2581\u0441\u043b\u043e\u0432": 2456, "165": 2457, "333": 2458, "DE": 2459, "main": 2460, "pyr": 2461, "\u0430\u0434\u0430": 2462, "\u0433\u043e\u0432\u043e\u0440": 2463, "\u0435\u0447\u0435\u043d": 2464, "\u043a\u0435\u0440": 2465, "\u043c\u0438\u043d\u0430": 2466, "\u043e\u0431\u0445\u043e\u0434\u0438\u043c": 2467, "\u043f\u0440\u043e\u0441": 2468, "\u044b\u043c": 2469, "\u2581Con": 2470, "\u2581Manager": 2471, "\u2581arg": 2472, "\u2581tattoo": 2473, "\u2581var": 2474, "\u2581\u041a\u043b\u0443\u0431": 2475, "\u2581\u0421\u0442\u0430\u0432": 2476, "\u2581\u0438\u043d\u0442\u0435\u0440\u0432\u0430\u043b": 2477, "\u2581\u043d\u0430\u0432\u044b\u043a": 2478, "\u2581\u043f\u043e\u043c": 2479, "\u2581\u043f\u043e\u0441\u0442\u0430\u0432": 2480, "\u2581\u043f\u0440\u043e\u0435\u043a\u0442": 2481, "\u2581\u0440\u0435": 2482, "\u2581\u0440\u043e\u0431\u043e\u0442": 2483, "\u2581\u0441\u043e\u0431\u044b\u0442\u0438\u044f": 2484, "\u2581\u0443\u0441\u043b\u043e\u0432\u0438\u044f\u0445": 2485, "111": 2486, "126": 2487, "372": 2488, "635": 2489, ">": 2490, "XX": 2491, "am": 2492, "ines": 2493, "min": 2494, "op": 2495, "sa": 2496, "ssu": 2497, "uni": 2498, "\u0418\u0422\u0418": 2499, "\u0433\u0430": 2500, "\u0435\u0433\u0435": 2501, "\u043b\u0430\u0432": 2502, "\u043b\u0430\u043d": 2503, "\u043d\u0441\u043a\u0438\u0439": 2504, "\u0442\u0435\u0440": 2505, "\u0442\u043a\u0430": 2506, "\u0446\u0435\u043d\u0437": 2507, "\u0447\u0435\u0442": 2508, "\u044c\u0435": 2509, "\u2581W": 2510, "\u2581group": 2511, "\u2581\u0412\u043e": 2512, "\u2581\u0415\u0432\u0440\u043e\u0441\u043e\u044e\u0437": 2513, "\u2581\u0431\u0438\u0437\u043d\u0435\u0441\u0430": 2514, "\u2581\u0431\u044b\u043b\u043e": 2515, "\u2581\u0432\u043a\u043b\u044e\u0447\u0435\u043d\u0438": 2516, "\u2581\u0432\u044b\u0448\u0435": 2517, "\u2581\u0434\u0435\u0439\u0441\u0442\u0432\u0438\u044f": 2518, "\u2581\u0437\u0430\u0440": 2519, "\u2581\u043a\u0430\u0441": 2520, "\u2581\u043b\u044e\u0431\u0438\u0442\u0435": 2521, "\u2581\u043c\u0430\u0433\u0430\u0437\u0438\u043d": 2522, "\u2581\u043f\u043e\u043b\u044c\u0437\u043e\u0432\u0430\u0442\u0435\u043b\u0435\u0439": 2523, "\u2581\u0440\u0435\u0431\u0435\u043d\u043a\u0430": 2524, "\u2581\u0441\u0431\u043e\u0440": 2525, "\u2581\u0441\u043e\u0431\u0438\u0440\u0430": 2526, "1,00": 2527, "71": 2528, "86": 2529, "OOL": 2530, "Radio": 2531, "full": 2532, "guard": 2533, "lot": 2534, "mas": 2535, "mple": 2536, "os": 2537, "wed": 2538, "\u00ae": 2539, "\u00b0": 2540, "\u0415\u0420\u0418": 2541, "\u041e\u0420": 2542, "\u0421\u0414": 2543, "\u043a\u0440\u044b\u0432\u0430\u0442\u044c": 2544, "\u043a\u0443\u043b\u044c\u0442": 2545, "\u043a\u0443\u0440": 2546, "\u043b\u0435\u0440": 2547, "\u043b\u044f\u0442\u044c": 2548, "\u043e\u0432\u043e\u0434\u0438\u0442\u0435\u043b": 2549, "\u043f\u043b\u0430\u0442\u0435": 2550, "\u043f\u0440\u0438\u044f\u0442\u0438": 2551, "\u0440\u0435\u0448": 2552, "\u0441\u0442\u0443\u043f\u0438\u0442\u044c": 2553, "\u0442\u0435\u0439": 2554, "\u0443\u0441\u0442": 2555, "\u0446\u0435\u0432": 2556, "\u0447\u0430\u0439": 2557, "\u0447\u043d\u044b\u043c\u0438": 2558, "\u0448\u043e": 2559, "\u0449\u0430": 2560, "\u0449\u0443": 2561, "\u0451\u0440": 2562, "\u258111": 2563, "\u2581Telegram": 2564, "\u2581open": 2565, "\u2581su": 2566, "\u2581values": 2567, "\u2581\u041f\u043e\u0440\u0442\u0430\u043b": 2568, "\u2581\u0421\u0430\u043c\u0430\u0440": 2569, "\u2581\u0423\u043a\u0440\u0430\u0438\u043d\u044b": 2570, "\u2581\u0430\u043a\u0430\u0434\u0435\u043c": 2571, "\u2581\u0431\u0443\u0434\u0435\u043c": 2572, "\u2581\u0432\u044b\u0431\u043e\u0440\u0430": 2573, "\u2581\u0432\u044b\u043f\u043e\u043b\u043d\u0435\u043d\u0438\u044f": 2574, "\u2581\u0434\u0438\u043f\u043b\u043e\u043c": 2575, "\u2581\u0437\u0430\u0449\u0438\u0442\u0435": 2576, "\u2581\u043a\u043e\u043c\u043d\u0430\u0442": 2577, "\u2581\u043a\u043e\u043c\u043f\u0430\u043d\u0438\u044f": 2578, "\u2581\u043a\u043e\u0442\u043e\u0440\u043e\u0433\u043e": 2579, "\u2581\u043a\u0440\u0430\u0439": 2580, "\u2581\u043c\u0430\u0442\u0435\u0440\u0438\u0430\u043b\u044b": 2581, "\u2581\u043c\u0438\u043d\u0438\u043c\u0443\u043c": 2582, "\u2581\u043d\u0430\u0438\u0431\u043e\u043b\u0435\u0435": 2583, "\u2581\u043d\u0435\u0434\u0435\u043b\u044e": 2584, "\u2581\u043e\u0431\u0440\u0430\u0437\u043e\u0432\u0430\u043d\u0438\u0435": 2585, "\u2581\u043e\u0434\u043d\u0438\u043c": 2586, "\u2581\u043e\u0441\u0443\u0449\u0435\u0441\u0442\u0432\u043b\u0435\u043d\u0438\u0435": 2587, "\u2581\u043e\u0442\u0437\u044b\u0432": 2588, "\u2581\u043f\u0435\u0440\u0441\u043e\u043d\u0430\u043b\u044c\u043d": 2589, "\u2581\u043f\u043e\u043a\u0443\u043f\u043a\u0438": 2590, "\u2581\u043f\u043e\u043c\u043e\u0449\u044c\u044e": 2591, "\u2581\u043f\u043e\u0441\u043b\u0435\u0434\u043d\u0435\u0439": 2592, "\u2581\u043f\u0440\u0438\u043b\u043e\u0436\u0435\u043d\u0438\u044f": 2593, "\u2581\u0441\u043f\u0435\u0446\u0438\u0430\u043b\u044c\u043d\u044b\u0435": 2594, "\u2581\u0442\u0435\u043b\u0435": 2595, "\u2581\u0444\u0438\u043b\u044c\u043c": 2596, "\u2581\u0444\u0443\u0442\u0431\u043e\u043b\u044c\u043d": 2597, "\u2581\u0447\u043b\u0435\u043d": 2598, "656": 2599, "\u0410\u043d": 2600, "\u0436\u043d\u0430": 2601, "\u043f\u0430\u0441": 2602, "\u0443\u0436": 2603, "\u2581O": 2604, "\u2581au": 2605, "\u2581drink": 2606, "\u2581our": 2607, "\u2581\u0427\u0442\u043e": 2608, "\u2581\u043e\u0442\u043e\u0431\u0440\u0430\u0436\u0430": 2609, "\u2581\u043f\u0440\u043e\u0444\u0438\u043b": 2610, "AGE": 2611, "ITY": 2612, "WW": 2613, "dom": 2614, "\u0420\u043e\u0441": 2615, "\u0431\u0443": 2616, "\u0438\u043b\u044c": 2617, "\u0442\u0440\u0430": 2618, "\u0442\u0440\u0443\u0434\u043d\u0438": 2619, "\u044d\u043a\u0441\u043a\u0443\u0440\u0441": 2620, "\u2581C": 2621, "\u2581Lite": 2622, "\u2581Qi": 2623, "\u2581corp": 2624, "\u2581truck": 2625, "\u2581web": 2626, "\u2581\u043d\u0430\u0436\u043c\u0438\u0442\u0435": 2627, "\u2581\u0441\u0442\u0440\u0430\u043d\u0443": 2628, "Comp": 2629, "Tele": 2630, "any": 2631, "bb": 2632, "cat": 2633, "special": 2634, "val": 2635, "\u0417\u0410": 2636, "\u0430\u0434\u0440\u0435\u0441": 2637, "\u0430\u043a": 2638, "\u0431\u0430\u0432\u0438": 2639, "\u2581casca": 2640, "\u2581tele": 2641, "\u2581\u043d\u043e\u0432\u043e\u0433\u043e": 2642, "\u2581\u0441\u043e\u0446\u0438\u0430\u043b\u044c\u043d\u044b\u0445": 2643, "960": 2644, ":1": 2645, "Cap": 2646, "J": 2647, "OUR": 2648, "Pre": 2649, "Was": 2650, "eer": 2651, "od": 2652, "stu": 2653, "\u0410\u043a": 2654, "\u0414\u0435": 2655, "\u041a\u0443\u0440": 2656, "\u041d\u0430\u0446\u0438\u043e\u043d\u0430\u043b": 2657, "\u0427\u0410": 2658, "\u0435\u043c\u044b\u0439": 2659, "\u0439\u0442\u0435\u0441\u044c": 2660, "\u043b\u043e\u0441\u044c": 2661, "\u2581Accept": 2662, "\u2581K": 2663, "\u2581RES": 2664, "\u2581[": 2665, "\u2581car": 2666, "\u2581n": 2667, "\u2581process": 2668, "\u2581receive": 2669, "\u2581so": 2670, "\u2581\u041b\u044e\u0431": 2671, "\u2581\u043a\u043e\u0442\u043e\u0440\u0443\u044e": 2672, "\u2581\u043c\u0435\u0441\u0442\u0430": 2673, "\u2581\u0447\u0442\u043e\u0431\u044b": 2674, "-9": 2675, "646": 2676, "condition": 2677, "do": 2678, "ph": 2679, "wan": 2680, "\u0421\u0422\u0418": 2681, "\u043a\u0430\u0437\u0430\u043d": 2682, "\u043b\u044c\u043d\u044b\u0445": 2683, "\u0441\u043a\u0438\u0445": 2684, "\u044f\u043c\u0438": 2685, "\u044f\u0441\u044c": 2686, "\u2581Z": 2687, "\u2581note": 2688, "\u2581save": 2689, "\u2581\u0420\u043e\u0441\u0441\u0438\u0438": 2690, "\u2581\u0436\u0438\u0442\u0435\u043b\u044c\u0441\u0442\u0432\u0430": 2691, "\u2581\u043a\u043b\u0438\u0435\u043d\u0442\u043e\u0432": 2692, "57": 2693, "Hol": 2694, "Page": 2695, "contract": 2696, "kad": 2697, "wn": 2698, "\u043f\u0440\u043e\u0438\u0437\u0432\u043e\u0434\u0438\u0442\u0435\u043b": 2699, "\u2581Description": 2700, "\u2581Home": 2701, "\u2581by": 2702, "\u2581issue": 2703, "\u2581patron": 2704, "\u2581pe": 2705, "\u2581security": 2706, "\u2581vip": 2707, "\u2581\u0411\u0435\u0437": 2708, "\u2581\u0412\u0435\u0431": 2709, "\u2581\u0418\u043d\u0434\u0438": 2710, "\u2581\u0420\u0430\u0437": 2711, "\u2581\u0444\u043e\u0440\u043c\u0435": 2712, "\u2581\u0444\u043e\u0440\u0443\u043c": 2713, "50": 2714, "92": 2715, "dow": 2716, "here": 2717, "jur": 2718, "partner": 2719, "sha": 2720, "ton": 2721, "you": 2722, "\u0410\u043b": 2723, "\u0432\u044f\u0437\u0430\u0442\u044c": 2724, "\u0441\u043f\u0430": 2725, "\u044f\u0436": 2726, "\u25819": 2727, "\u2581States": 2728, "\u2581area": 2729, "\u2581middle": 2730, "\u2581\u0410\u043d\u0442\u0438": 2731, "\u2581\u0432\u0432\u0435\u0434\u0435\u043d": 2732, "\u2581\u043d\u0430\u0437\u0432\u0430": 2733, "\u2581\u043d\u0435\u043b\u044c\u0437\u044f": 2734, "Accept": 2735, "HTML": 2736, "Ter": 2737, "Z": 2738, "all": 2739, "car": 2740, "exp": 2741, "plata": 2742, "rod": 2743, "tory": 2744, "\u041d\u0438": 2745, "\u041e\u041d": 2746, "\u041f\u0440\u0430\u0432": 2747, "\u0438\u043c\u0430": 2748, "\u043f\u0440\u0430\u0432\u043b\u0435\u043d": 2749, "\u0441\u0443\u0442": 2750, "\u044f\u0445": 2751, "\u2581&": 2752, "\u2581course": 2753, "\u2581ok": 2754, "\u2581this": 2755, "\u2581\u041c\u0430\u0433\u0430\u0437\u0438\u043d": 2756, "\u2581\u041f\u0435\u0440": 2757, "\u2581\u0421\u0428\u0410": 2758, "-11": 2759, "608": 2760, "93": 2761, ":20": 2762, "KS": 2763, "L": 2764, "WI": 2765, "[4]": 2766, "document": 2767, "dt": 2768, "\u041c\u041e": 2769, "\u041c\u0421": 2770, "\u041f\u0440\u0435": 2771, "\u0431\u043e\u0442": 2772, "\u0432\u0430\u043d\u0438\u044f": 2773, "\u0434\u0440\u0430": 2774, "\u043c\u043f\u0438": 2775, "\u043c\u044b": 2776, "\u0441\u043a\u0438\u0435": 2777, "\u2581Das": 2778, "\u2581Gas": 2779, "\u2581Yan": 2780, "\u2581__": 2781, "\u2581account": 2782, "\u2581call": 2783, "\u2581direction": 2784, "\u2581height": 2785, "\u2581pa": 2786, "\u2581right": 2787, "\u2581top": 2788, "\u2581\u0422": 2789, "\u2581\u0432\u043e": 2790, "\u2581\u0432\u043e\u0437\u043c\u043e\u0436\u043d\u043e\u0441\u0442\u044c": 2791, "\u2581\u043b\u044e\u0431\u043e\u0439": 2792, "\u2581\u043d\u0430\u0447\u0430\u043b\u0430": 2793, "\u2581\u043d\u0443\u0436\u043d\u043e": 2794, "\u2581\u043f\u0430\u0440\u0442\u043d\u0451\u0440": 2795, "\u2581\u043f\u043e\u0442\u0435\u043d\u0446\u0438\u0430\u043b": 2796, "\u2581\u0443\u0447\u0430\u0441\u0442\u043d\u0438\u043a": 2797, ").": 2798, "LE": 2799, "enie": 2800, "ns": 2801, "pro": 2802, "secret": 2803, "state": 2804, "\u0435\u0440": 2805, "\u0435\u0440\u043e\u043c": 2806, "\u0438\u0447\u0435\u0441\u043a\u0438\u0445": 2807, "\u0439\u0441": 2808, "\u043c\u0435\u0442\u0430": 2809, "\u043c\u0438\u0442\u0435": 2810, "\u043c\u043e\u0431\u0438\u043b\u044c": 2811, "\u043d\u0441\u0438": 2812, "\u043e\u0432\u0443\u044e": 2813, "\u043e\u0433\u0440\u0430\u0444": 2814, "\u043e\u043d\u0430": 2815, "\u044c\u044e": 2816, "\u2581brand": 2817, "\u2581instagram": 2818, "\u2581require": 2819, "\u2581\u0411\u0430\u043d\u043a\u0430": 2820, "\u2581\u0431\u0438\u0440\u0436": 2821, "\u2581\u0434\u0430\u043d\u043d\u044b\u043c": 2822, "\u2581\u0434\u043e\u043b\u0436\u043d\u043e\u0441\u0442\u0438": 2823, "\u2581\u043a\u0432\u0430\u0440\u0442\u0438\u0440\u0430": 2824, "\u2581\u043c\u043d\u043e\u0439": 2825, "\u2581\u043c\u043e\u0433\u0443": 2826, "\u2581\u043d\u0430\u0448\u0435\u0439": 2827, "\u2581\u043d\u0430\u0448\u0435\u043c": 2828, "\u2581\u043e\u0431\u0435\u0441\u043f\u0435\u0447\u0435\u043d\u0438\u044f": 2829, "\u2581\u043e\u0431\u0441\u043b\u0443\u0436\u0438\u0432\u0430\u043d\u0438\u044f": 2830, "\u2581\u043f\u043e\u0436\u0435\u043b\u0430": 2831, "\u2581\u043f\u0440\u0430": 2832, "\u2581\u043f\u0440\u0438\u043d\u044f\u0442\u044c": 2833, "\u2581\u0440\u0430\u0431\u043e\u0442": 2834, "\u2581\u0441\u0438\u0441\u0442\u0435\u043c\u044b": 2835, "\u2581\u0447\u0430\u0441\u0430": 2836, "\u2581\u0447\u0435\u043c": 2837, "\u2581\u044d\u043a\u0441": 2838, "-24": 2839, "0000": 2840, "300": 2841, "37": 2842, "700": 2843, "94": 2844, "FT": 2845, "GAL": 2846, "RD": 2847, "UB": 2848, "che": 2849, "imas": 2850, "issue": 2851, "link": 2852, "\u040a": 2853, "\u0412\u041a": 2854, "\u0430\u0441\u044c": 2855, "\u0432\u0430\u043b": 2856, "\u0433\u043e\u043d": 2857, "\u0435\u043c\u044b\u0445": 2858, "\u0435\u043d\u043d\u0430\u044f": 2859, "\u0438\u043d\u0441\u0442\u0440\u0443\u043a\u0446\u0438": 2860, "\u0438\u0440\u0443\u0435\u043c": 2861, "\u043a\u0430\u043c\u0438": 2862, "\u043a\u0430\u0445": 2863, "\u043a\u043e\u043b": 2864, "\u0440\u0435\u0434\u043d\u0435": 2865, "\u0440\u0435\u0437": 2866, "\u0441\u0438\u043e\u043d": 2867, "\u0441\u0438\u044f": 2868, "\u0441\u0442\u0435": 2869, "\u0441\u0442\u044b": 2870, "\u0441\u0442\u044f\u043c\u0438": 2871, "\u0442\u0438\u043c": 2872, "\u0442\u043e\u0447\u043d\u043e": 2873, "\u0442\u0443\u0440": 2874, "\u0446\u0438\u043e\u043d\u043d\u044b\u0435": 2875, "\u0447\u043a\u0438": 2876, "\u0448\u0438\u0439": 2877, "\u044f\u0432": 2878, "\u044f\u0441": 2879, "\u258196": 2880, "\u2581S": 2881, "\u2581V": 2882, "\u2581store": 2883, "\u2581un": 2884, "\u2581\u0417\u0430\u0449\u0438\u0442\u0430": 2885, "\u2581\u0423\u0441\u0442\u0430\u0432": 2886, "\u2581\u0432\u043e\u0437\u0432\u0440\u0430\u0442": 2887, "\u2581\u0432\u043e\u043b\u043e\u0441": 2888, "\u2581\u0432\u0441\u0442\u0440\u0435\u0447\u0438": 2889, "\u2581\u0432\u044b\u043f\u0443\u0441\u043a\u0430": 2890, "\u2581\u0432\u044b\u0445\u043e\u0434": 2891, "\u2581\u0434\u0430\u0442\u0447\u0438\u043a": 2892, "\u2581\u0434\u0435\u0439": 2893, "\u2581\u0436\u0435\u043b\u0430\u043d": 2894, "\u2581\u0437\u0430\u043d\u044f\u0442\u0438\u0439": 2895, "\u2581\u0437\u0430\u044f\u0432": 2896, "\u2581\u0438\u0433\u0440": 2897, "\u2581\u0438\u043d\u0434\u0438\u0432\u0438\u0434\u0443\u0430\u043b\u044c\u043d\u043e": 2898, "\u2581\u0438\u043d\u0442\u0435": 2899, "\u2581\u0438\u0441\u043f\u043e\u043b\u043d\u0438": 2900, "\u2581\u043a\u0430\u043a\u043e\u043c": 2901, "\u2581\u043a\u0435\u043c": 2902, "\u2581\u043a\u043e\u043d\u0442\u0435\u043d\u0442": 2903, "\u2581\u043b\u0430\u0431\u043e\u0440\u0430\u0442\u043e\u0440": 2904, "\u2581\u043c\u0430\u0440\u043a\u0435\u0442\u0438\u043d\u0433\u043e\u0432": 2905, "\u2581\u043c\u0435\u0434\u0438\u0446\u0438\u043d\u0441\u043a\u043e\u0439": 2906, "\u2581\u043c\u0435\u0441\u0442\u0443": 2907, "\u2581\u043c\u0435\u0441\u044f\u0446\u0430": 2908, "\u2581\u043d\u043e": 2909, "\u2581\u043e\u0431\u0440\u0430\u0437\u043e\u0432\u0430\u043d\u0438\u0438": 2910, "\u2581\u043e\u043a\u043e\u043d\u0447\u0430": 2911, "\u2581\u043f\u0438\u0441": 2912, "\u2581\u043f\u043e\u043b\u0438": 2913, "\u2581\u043f\u0440\u043e\u0446\u0435\u0434\u0443\u0440\u044b": 2914, "\u2581\u0440\u0430\u0431\u043e\u0442\u0435": 2915, "\u2581\u0441\u0432\u044b\u0448\u0435": 2916, "\u2581\u0441\u043e\u0431\u0430\u043a": 2917, "\u2581\u0441\u043e\u043e\u0431\u0449\u0435\u0441\u0442\u0432\u0430": 2918, "\u2581\u0441\u0440\u043e\u043a\u0430": 2919, "\u2581\u0441\u0442\u0430\u0442\u044c": 2920, "\u2581\u0441\u0442\u0430\u0442\u044c\u0438": 2921, "\u2581\u0441\u0442\u0440\u0430\u043d\u0438\u0446\u0443": 2922, "\u2581\u0442\u0435\u0445\u043d\u043e\u043b\u043e\u0433\u0438\u0438": 2923, "\u2581\u0444\u0430\u043a\u0443\u043b\u044c\u0442\u0435\u0442": 2924, "\u2581\u0446\u0435\u043b\u0435\u0439": 2925, "\u2581\u0446\u0435\u043b\u044c\u044e": 2926, "\u2581\u0448\u0438": 2927, "\u2581\u0448\u043a\u043e\u043b\u044c\u043d": 2928, "\u2581\u044f\u043d\u0432\u0430\u0440\u044f": 2929, "-4": 2930, "200": 2931, "GRE": 2932, "NUM": 2933, "Ta": 2934, "able": 2935, "guru": 2936, "label": 2937, "list": 2938, "sion": 2939, "stvo": 2940, "\u0421\u0443": 2941, "\u043c\u0435\u043d\u0442": 2942, "\u043c\u0435\u0441\u0442": 2943, "\u0442\u0432\u043e\u0440": 2944, "\u2581Policy": 2945, "\u2581accepte": 2946, "\u2581advert": 2947, "\u2581born": 2948, "\u2581no": 2949, "\u2581\u0413\u0440\u0443\u043f\u043f": 2950, "\u2581\u0416\u0435": 2951, "&": 2952, "Facebook": 2953, "IK": 2954, "essa": 2955, "fund": 2956, "ight": 2957, "my": 2958, "ray": 2959, "trie": 2960, "\u0432\u0438\u0442": 2961, "\u0434\u043b\u044f": 2962, "\u0434\u0443\u043a": 2963, "\u0435\u0440\u043e": 2964, "\u0439\u0434": 2965, "\u043c\u0435\u043d\u0430": 2966, "\u043c\u043e\u0439": 2967, "\u043e\u0432\u0430\u0442\u044c": 2968, "\u0440\u0435\u0432": 2969, "\u0441\u0442\u0443\u0434\u0435\u043d": 2970, "\u2581)": 2971, "\u2581Ripp": 2972, "\u2581day": 2973, "\u2581facebook": 2974, "\u2581focus": 2975, "\u2581sum": 2976, "\u2581\u041a\u0430\u0434\u0430": 2977, "\u2581\u0421\u0435": 2978, "\u2581\u0421\u0442\u0430": 2979, "\u2581\u043f\u0430": 2980, "45": 2981, "Class": 2982, "dat": 2983, "dh": 2984, "km": 2985, "\u041e\u0441\u043d\u043e\u0432": 2986, "\u0433\u0440": 2987, "\u0434\u0435\u0440\u0436\u0430\u0442\u044c": 2988, "\u0438\u0441\u0442\u0438\u043a\u0430": 2989, "\u0440\u0430\u0441": 2990, "\u0440\u0442": 2991, "\u0447\u0438\u043d\u0430": 2992, "\u2581999": 2993, "\u2581Ad": 2994, "\u2581SE": 2995, "\u2581affiliate": 2996, "\u2581avatar": 2997, "\u2581mm": 2998, "\u2581real": 2999, "\u2581ref": 3000, "\u2581\u0410\u0432\u0442\u043e\u043c\u0430\u0442": 3001, "\u2581\u0412\u0430\u0448\u0438": 3002, "\u2581\u041a\u0430\u043a\u043e": 3003, "\u2581\u043d\u043e\u0432\u044b\u0439": 3004, "\u2581\u043f\u043e\u0434\u0447\u0438\u043d\u0435\u043d": 3005, "\u2581\u043f\u0440\u043e\u0433\u0440\u0430\u043c\u043c\u044b": 3006, "\u2581\u0441\u0432": 3007, "62": 3008, "657": 3009, "BI": 3010, "Se": 3011, "WHO": 3012, "XC": 3013, "adress": 3014, "aga": 3015, "cht": 3016, "default": 3017, "find": 3018, "fix": 3019, "ground": 3020, "port": 3021, "rab": 3022, "rial": 3023, "\u041f\u0443": 3024, "\u0432\u0441\u0435": 3025, "\u0435\u0432\u0430": 3026, "\u043b\u044e\u0431": 3027, "\u043c\u0430\u043d\u0434\u0430": 3028, "\u0440\u0441": 3029, "\u0441\u043b\u0443": 3030, "\u2581interval": 3031, "\u2581ver": 3032, "\u2581\u041a\u0435\u043c": 3033, "\u2581\u0422\u0435\u043c\u0430": 3034, "\u2581\u0424\u0438\u0440\u043c\u0430": 3035, "49": 3036, "Men": 3037, "ary": 3038, "cc": 3039, "cid": 3040, "deli": 3041, "pad": 3042, "pop": 3043, "very": 3044, "\u0431\u0438\u0442": 3045, "\u0434\u044c": 3046, "\u043b\u0430\u0439\u043d": 3047, "\u043e\u0446\u0438": 3048, "\u0441\u0435\u043b\u0435\u043d\u0438\u0435": 3049, "\u2581Do": 3050, "\u2581citizen": 3051, "\u2581control": 3052, "\u2581filter": 3053, "\u2581from": 3054, "\u2581or": 3055, "\u2581use": 3056, "\u2581year": 3057, "\u2581\u041a\u0430\u0442\u0435\u0433\u043e\u0440\u0438\u044f": 3058, "\u2581\u0427\u0430\u0441\u0442": 3059, "\u2581\u0432\u0430\u0448\u0435": 3060, "\u2581\u0433\u0434\u0435": 3061, "\u2581\u043b\u0438\u0446": 3062, "\u2581\u0440\u0435\u0439\u0442\u0438\u043d\u0433": 3063, "04": 3064, "548": 3065, "For": 3066, "ITE": 3067, "ST": 3068, "ZI": 3069, "dis": 3070, "invest": 3071, "\u0431\u0430": 3072, "\u0437\u0435\u0440": 3073, "\u0438\u0447\u0435\u0441\u043a\u0438\u043c": 3074, "\u0443\u0447": 3075, "\u0444\u0440\u0430": 3076, "\u2581income": 3077, "\u2581rulle": 3078, "\u2581smo": 3079, "\u2581\u041a\u0440\u0435\u0434\u0438\u0442": 3080, "\u2581\u0425\u043e\u0447\u0443": 3081, "\u2581\u0438\u043d\u0444\u043e\u0440\u043c": 3082, "\u2581\u043e\u0431\u0443\u0447\u0435\u043d\u0438\u0435": 3083, "\u2581\u043f\u0440\u043e\u0432\u0435\u0440\u043a\u0443": 3084, "\u2581\u0442\u0440\u0435\u043d\u0435\u0440": 3085, "240": 3086, "67": 3087, "85": 3088, "Li": 3089, "ND": 3090, "ams": 3091, "bot": 3092, "ding": 3093, "fam": 3094, "man": 3095, "moz": 3096, "nick": 3097, "one": 3098, "radi": 3099, "ta": 3100, "with": 3101, "\u0422\u0410": 3102, "\u0430\u043b\u044c\u043d\u043e": 3103, "\u0434\u0438\u0446\u0438": 3104, "\u0437\u0438\u043d": 3105, "\u0438\u043c\u0441\u044f": 3106, "\u043e\u0433": 3107, "\u043e\u043f": 3108, "\u043f\u0442": 3109, "\u0441\u043b\u043e\u0432": 3110, "\u0441\u0442\u0430\u0432\u043a\u0430": 3111, "\u0448\u0435\u0439": 3112, "\u2581Ber": 3113, "\u2581Bit": 3114, "\u2581Bitcoin": 3115, "\u2581CO": 3116, "\u2581Mon": 3117, "\u2581fb": 3118, "\u2581series": 3119, "\u2581\u0413\u0440\u0443\u0437": 3120, "\u2581\u041f\u043e\u0441\u043b\u0435": 3121, "\u2581\u0438\u043d\u0436\u0435\u043d\u0435\u0440": 3122, "\u2581\u043e\u0431\u043b\u0430\u0441\u0442": 3123, "\u2581\u043e\u043b\u0438\u043c\u043f\u0438\u0430\u0434\u0430": 3124, "-14": 3125, "000000": 3126, "636": 3127, "BER": 3128, "United": 3129, "bela": 3130, "config": 3131, "diplom": 3132, "law": 3133, "local": 3134, "mobile": 3135, "ne": 3136, "right": 3137, "rusi": 3138, "vanie": 3139, "\u0422\u043e": 3140, "\u0433\u043b\u043e": 3141, "\u0438\u0446\u0435": 3142, "\u043a\u0430\u0442": 3143, "\u043e\u0440": 3144, "\u0441\u0442\u0432\u043e\u0432\u0430\u0442\u044c": 3145, "\u258123": 3146, "\u25813:": 3147, "\u25814:": 3148, "\u2581Corre": 3149, "\u2581cm": 3150, "\u2581cod": 3151, "\u2581consent": 3152, "\u2581edu": 3153, "\u2581neb": 3154, "\u2581nik": 3155, "\u2581\u0414\u0435": 3156, "\u2581\u0434\u0432\u0430": 3157, "\u2581\u0438\u0437\u043e\u0431\u0440\u0430\u0436\u0435\u043d": 3158, "\u2581\u043a\u043b\u0438\u0435\u043d\u0442\u0430": 3159, "\u2581\u043a\u0443\u043f": 3160, "\u2581\u043f\u0440\u043e\u0434\u0443\u043a\u0442\u043e\u0432": 3161, "\u2581\u0440\u0430\u0431\u043e\u0442\u0430": 3162, "\u2581\u0441\u043f\u0435\u0446\u0438\u0430\u043b\u0438\u0441\u0442\u043e\u0432": 3163, "\u2581\u0445\u0438\u0440\u0443\u0440\u0433": 3164, "\u2581\u044d\u0442\u043e": 3165, "676": 3166, "70": 3167, ":14": 3168, "Part": 3169, "TH": 3170, "bound": 3171, "deg": 3172, "dent": 3173, "live": 3174, "mese": 3175, "nosti": 3176, "play": 3177, "rota": 3178, "ua": 3179, "va": 3180, "\u041c\u0438": 3181, "\u041d\u043e\u0432\u043e": 3182, "\u041e\u0419": 3183, "\u0437\u043d\u0430": 3184, "\u043a\u0441\u0430": 3185, "\u043f\u0438": 3186, "\u043f\u043e\u043d": 3187, "\u0444\u0438\u0446\u0438": 3188, "\u0449\u0438\u043a": 3189, "\u044c\u043d\u044b\u0435": 3190, "\u25810.2": 3191, "\u25812022": 3192, "\u2581=": 3193, "\u2581Us": 3194, "\u2581family": 3195, "\u2581hi": 3196, "\u2581information": 3197, "\u2581pur": 3198, "\u2581transform": 3199, "\u2581\u0434\u0440\u0443\u0433\u0430\u044f": 3200, "\u2581\u043d\u0430\u0447\u0430\u0442\u044c": 3201, "\u2581\u043f\u0440\u0435\u043f\u043e\u0434\u0430\u0432\u0430": 3202, "\u2581\u0440\u0430\u0437\u0434\u0435\u043b": 3203, "\u2581\u0441\u043f\u0438": 3204, "\u2581\u0441\u0442\u0443\u0434\u0435\u043d\u0442": 3205, "-12": 3206, "1-2": 3207, "50%": 3208, "658": 3209, "96": 3210, "Bas": 3211, "LL": 3212, "MOBIL": 3213, "Mobile": 3214, "VIN": 3215, "cus": 3216, "glasi": 3217, "kind": 3218, "nn": 3219, "ovy": 3220, "parent": 3221, "sia": 3222, "solid": 3223, "\u0420\u041e": 3224, "\u0420\u0443": 3225, "\u0421\u041f": 3226, "\u0434\u043a\u0430": 3227, "\u0435\u0432": 3228, "\u0435\u0441\u0441": 3229, "\u043a\u0440\u0435": 3230, "\u043b\u0451\u043d": 3231, "\u043c\u0435\u0439": 3232, "\u043e\u0432\u0430": 3233, "\u043e\u043c\u0443": 3234, "\u043f\u0438\u0442\u044c": 3235, "\u043f\u0438\u0448\u0438": 3236, "\u043f\u0440\u043e\u0431\u0443\u0439\u0442\u0435": 3237, "\u0441\u043b\u0435\u0434": 3238, "\u0441\u043e\u0431": 3239, "\u0442\u0438\u0442\u0435": 3240, "\u0446\u0438\u043e\u043d\u043d\u043e": 3241, "\u0446\u0438\u044e": 3242, "\u0446\u043e": 3243, "\u0447\u0435\u0439": 3244, "\u0447\u0435\u0440": 3245, "\u0447\u0438\u043a\u0430": 3246, "\u0447\u0443\u044e": 3247, "\u0448\u0435\u0433\u043e": 3248, "\u044c\u043d\u044b\u0445": 3249, "\u258127": 3250, "\u2581IP": 3251, "\u2581Neo": 3252, "\u2581PA": 3253, "\u2581Remember": 3254, "\u2581Service": 3255, "\u2581dol": 3256, "\u2581obraz": 3257, "\u2581who": 3258, "\u2581\u00bb": 3259, "\u2581\u0410\u0432\u0442\u043e\u0440": 3260, "\u2581\u0431\u0430\u0437": 3261, "\u2581\u0431\u043b\u0438\u0437\u043a\u0438": 3262, "\u2581\u0434\u0438": 3263, "\u2581\u0434\u043e\u0433\u043e\u0432\u043e\u0440": 3264, "\u2581\u0438\u0449\u0435\u0442": 3265, "\u2581\u043a\u043b\u044e\u0447": 3266, "\u2581\u043b\u0438\u0446\u043e\u043c": 3267, "\u2581\u043d\u0430\u043f\u0440\u0430\u0432\u043b\u0435\u043d": 3268, "\u2581\u043d\u0430\u043f\u0440\u0430\u0432\u043b\u0435\u043d\u0438\u0435": 3269, "\u2581\u043e\u0431\u043b\u0430\u0441\u0442\u0438": 3270, "\u2581\u043e\u0441\u043d\u043e\u0432\u043d\u043e\u0439": 3271, "\u2581\u043f\u043e\u0441\u0442\u0443\u043f\u043b\u0435\u043d\u0438\u044f": 3272, "\u2581\u043f\u0440\u0430\u0432\u043e": 3273, "\u2581\u043f\u0440\u0438\u0433\u043b\u0430\u0448\u0430": 3274, "\u2581\u0440\u0435\u043a\u043b\u0430\u043c\u0430": 3275, "\u2581\u0441\u0438\u0441\u0442\u0435\u043c\u0430": 3276, "\u2581\u0442\u0430\u043a": 3277, "\u2581\u0442\u0435\u043a\u0443\u0449": 3278, "\u2581\u0443\u0441\u043b\u0443\u0433\u0430": 3279, "-16": 3280, "1-6": 3281, "228": 3282, "Activ": 3283, "Dis": 3284, "EET": 3285, "IT": 3286, "Medic": 3287, "NC": 3288, "OG": 3289, "PRO": 3290, "STR": 3291, "TC": 3292, "[3]": 3293, "allo": 3294, "beri": 3295, "br": 3296, "conf": 3297, "dan": 3298, "elem": 3299, "register": 3300, "slov": 3301, "witch": 3302, "\u03bc": 3303, "\u0402": 3304, "\u0422\u0415": 3305, "\u042f\u043d\u0434\u0435\u043a\u0441": 3306, "\u0433\u0435\u043b\u044c": 3307, "\u0434\u0430\u0432\u0430": 3308, "\u0434\u0430\u0435\u0442\u0441\u044f": 3309, "\u0434\u0435\u0440\u0436": 3310, "\u0435\u043a\u0446\u0438\u044f": 3311, "\u0435\u0448\u0435": 3312, "\u0437\u0438\u0432": 3313, "\u0437\u0438\u0446\u0438": 3314, "\u0437\u043e\u043d": 3315, "\u0438\u0432\u0430\u0435\u0442": 3316, "\u0438\u043a\u043e\u0432": 3317, "\u043a\u0435\u0442": 3318, "\u043a\u043b\u044e": 3319, "\u043a\u0440\u0443": 3320, "\u043b\u043e\u0445": 3321, "\u043c\u0430\u0445": 3322, "\u043c\u0435\u0441\u044f\u0447\u043d": 3323, "\u043c\u044f\u043d": 3324, "\u043d\u0435\u043d\u0438\u044f": 3325, "\u043d\u0435\u0441\u0435\u043d\u0438\u044f": 3326, "\u043d\u0438\u043c\u0430\u0442\u044c": 3327, "\u043d\u0438\u0446\u044b": 3328, "\u043e\u0431\u0449\u0438": 3329, "\u043e\u0447\u043a\u0443": 3330, "\u0440\u043e\u0432\u0438": 3331, "\u0441\u0435\u043d": 3332, "\u0441\u043e\u0446\u0438": 3333, "\u0441\u0442\u0430\u0432\u043b\u044f\u0435\u043c": 3334, "\u0441\u0442\u0432\u043e\u0432\u0430\u043b": 3335, "\u0441\u0442\u0443\u043f": 3336, "\u0442\u0440\u043e": 3337, "\u0442\u044b\u0445": 3338, "\u0443\u043a": 3339, "\u0444\u043b\u043e\u0440": 3340, "\u0445\u0440\u0430\u043d\u0438": 3341, "\u0447\u0435\u0432\u043e": 3342, "\u0448\u0435\u0435": 3343, "\u0448\u0435\u043d\u0438\u044f": 3344, "\u0448\u0443": 3345, "\u0449\u0435\u0433\u043e": 3346, "\u0449\u0438\u0435": 3347, "\u044b\u0441": 3348, "\u044e\u0449\u0443\u044e": 3349, "\u25811,2": 3350, "\u2581PayPal": 3351, "\u2581Privacy": 3352, "\u2581Si": 3353, "\u2581Tour": 3354, "\u2581Wellness": 3355, "\u2581conditions": 3356, "\u2581count": 3357, "\u2581es": 3358, "\u2581mai": 3359, "\u2581push": 3360, "\u2581school": 3361, "\u2581twitter": 3362, "\u2581\u0411\u0415\u0417": 3363, "\u2581\u041a\u0440\u0435": 3364, "\u2581\u042d\u043d": 3365, "\u2581\u0430\u043a\u0446\u0438\u0439": 3366, "\u2581\u0431\u0430\u043d\u043a\u0435": 3367, "\u2581\u0431\u043e\u0433\u0430\u0442": 3368, "\u2581\u0431\u044b\u043b": 3369, "\u2581\u0432\u0438\u0434\u0435": 3370, "\u2581\u0432\u0438\u0434\u0435\u043e": 3371, "\u2581\u0432\u043e\u043a\u0437\u0430\u043b": 3372, "\u2581\u0432\u043e\u0441\u0441\u0442\u0430\u043d\u043e\u0432\u043b\u0435\u043d": 3373, "\u2581\u0433\u043e\u0441\u0442\u0438": 3374, "\u2581\u0433\u043e\u0441\u0443\u0434\u0430\u0440\u0441\u0442\u0432\u0435\u043d\u043d\u043e\u0439": 3375, "\u2581\u0434\u0435\u043b": 3376, "\u2581\u0434\u0435\u0442\u0435\u0439": 3377, "\u2581\u0434\u043e\u0433\u043e\u0432\u043e\u0440\u043e\u043c": 3378, "\u2581\u0434\u043e\u0445\u043e\u0434": 3379, "\u2581\u0436": 3380, "\u2581\u0436\u0443\u0440\u043d\u0430\u043b\u0438\u0441\u0442": 3381, "\u2581\u0437\u0430\u043a\u0443\u043f": 3382, "\u2581\u0438\u0434\u0435\u044f": 3383, "\u2581\u0438\u043d\u043e\u0441\u0442\u0440\u0430\u043d": 3384, "\u2581\u0438\u043d\u0442\u0435\u0440\u0435\u0441\u043d\u043e": 3385, "\u2581\u0438\u043d\u0442\u0435\u0440\u043d\u0435\u0442\u0435": 3386, "\u2581\u0438\u0441\u0442\u043e\u0440\u0438\u0438": 3387, "\u2581\u043a\u043e\u043c\u043f\u0430\u043d\u0438": 3388, "\u2581\u043b\u044e\u0431\u0438\u043c": 3389, "\u2581\u043c\u043b\u0440\u0434": 3390, "\u2581\u043c\u043e\u043b\u043e\u0434": 3391, "\u2581\u043c\u044f": 3392, "\u2581\u043d\u0435\u043e\u0431\u0445\u043e\u0434\u0438\u043c\u043e\u0441\u0442\u0438": 3393, "\u2581\u043d\u043e\u0432\u043e\u0439": 3394, "\u2581\u043e\u0431\u043e\u0440\u0443\u0434\u043e\u0432\u0430\u043d\u0438\u044f": 3395, "\u2581\u043e\u0440\u0433\u0430\u043d\u0430": 3396, "\u2581\u043e\u0442\u043a\u0430\u0437\u0430\u0442\u044c\u0441\u044f": 3397, "\u2581\u043e\u0442\u043a\u0440\u044b\u0442": 3398, "\u2581\u043e\u0444\u043e\u0440\u043c\u043b\u0435\u043d\u0438\u044f": 3399, "\u2581\u043f\u0438\u0441\u0430\u0442\u044c": 3400, "\u2581\u043f\u043e\u0434\u0430\u0447\u0438": 3401, "\u2581\u043f\u043e\u043b\u0438\u0442\u0438\u043a\u0443": 3402, "\u2581\u043f\u043e\u043b\u043e\u0436\u0435\u043d\u0438\u044f": 3403, "\u2581\u043f\u043e\u043b\u0443\u0447\u0435\u043d\u0438\u0438": 3404, "\u2581\u043f\u043e\u043b\u0443\u0447\u0438\u043b": 3405, "\u2581\u043f\u043e\u043d\u0438\u043c\u0430\u044e": 3406, "\u2581\u043f\u043e\u043d\u044f\u043b": 3407, "\u2581\u043f\u043e\u0440\u0442\u0444\u0435\u043b": 3408, "\u2581\u043f\u043e\u0441\u0440\u0435\u0434\u0441\u0442\u0432\u043e\u043c": 3409, "\u2581\u043f\u0440\u0435\u0434\u0441\u0442\u0430\u0432\u043b\u0435\u043d": 3410, "\u2581\u043f\u0440\u0435\u0438\u043c\u0443\u0449\u0435\u0441\u0442\u0432\u0430": 3411, "\u2581\u043f\u0440\u0438\u043d\u0430\u0434\u043b\u0435\u0436": 3412, "\u2581\u043f\u0440\u043e\u0431": 3413, "\u2581\u043f\u0440\u043e\u0435\u043a\u0442\u043e\u0432": 3414, "\u2581\u043f\u0443\u0431\u043b\u0438\u043a\u0430\u0446\u0438\u0438": 3415, "\u2581\u043f\u0443\u0442": 3416, "\u2581\u0440\u0430\u0437\u0430": 3417, "\u2581\u0440\u0430\u0437\u0440\u0430\u0431\u043e\u0442\u043a\u0438": 3418, "\u2581\u0440\u0430\u0437\u044b": 3419, "\u2581\u0440\u0430\u0441\u0441\u043a\u0430\u0437": 3420, "\u2581\u0440\u0435\u0435\u0441\u0442\u0440": 3421, "\u2581\u0440\u0435\u043f\u0443\u0442\u0430\u0446\u0438": 3422, "\u2581\u0441\u0430": 3423, "\u2581\u0441\u0430\u043c\u044b\u0439": 3424, "\u2581\u0441\u0432\u0435\u0434\u0435\u043d\u0438\u044f": 3425, "\u2581\u0441\u0432\u0438\u0434\u0435\u0442\u0435\u043b\u044c\u0441\u0442\u0432": 3426, "\u2581\u0441\u043a\u0430\u0437\u0430\u0442\u044c": 3427, "\u2581\u0441\u043a\u043b\u0430\u0434": 3428, "\u2581\u0441\u043b\u0443\u0447\u0430\u0435": 3429, "\u2581\u0441\u043e\u0432\u0435\u0442": 3430, "\u2581\u0441\u043e\u0441\u0442\u0430\u0432": 3431, "\u2581\u0441\u043e\u0442\u0440\u0443\u0434\u043d\u0438\u0447\u0435\u0441\u0442\u0432\u0430": 3432, "\u2581\u0441\u0442\u0430\u0432\u043a\u0430": 3433, "\u2581\u0442\u0430\u0442\u0443": 3434, "\u2581\u0442\u0435\u043b\u0435\u0444\u043e\u043d\u0438": 3435, "\u2581\u0442\u0435\u0445\u043d\u0438\u043a\u0430": 3436, "\u2581\u0442\u0435\u0445\u043d\u043e\u043b\u043e\u0433": 3437, "\u2581\u0442\u043e\u0432\u0430\u0440": 3438, "\u2581\u0442\u0440\u0430\u0444\u0438\u043a": 3439, "\u2581\u0443\u0434\u0430\u043b\u0435\u043d": 3440, "\u2581\u0443\u043d\u0438\u0432\u0435\u0440\u0441\u0438\u0442\u0435\u0442": 3441, "\u2581\u0443\u0441\u0442\u0430\u0432": 3442, "\u2581\u0443\u0447\u0430\u0441\u0442\u0432\u043e\u0432\u0430\u0442\u044c": 3443, "\u2581\u0444\u043e\u043d\u0434\u0430": 3444, "\u2581\u0447\u0438\u0441\u043b\u0435": 3445, "\u2581\u0448\u043a\u043e\u043b\u0430": 3446, "\u2581\u044d\u0442\u0438": 3447, "\u2581\u044d\u0442\u043e\u0439": 3448, "\u2581\u044e\u0440\u0438\u0441\u0442": 3449, "\u2581\u044f\u0437\u044b\u043a\u0430": 3450, "858": 3451, "Di": 3452, "cade": 3453, "cred": 3454, "ential": 3455, "facebook": 3456, "lement": 3457, "location": 3458, "mone": 3459, "pf": 3460, "reference": 3461, "sen": 3462, "show": 3463, "via": 3464, "\u041a\u0430\u0440": 3465, "\u0421\u0430": 3466, "\u0426\u0435\u043d\u0442\u0440": 3467, "\u0432\u043e\u043b": 3468, "\u0433\u043e\u0440\u043e\u0434": 3469, "\u0438\u043d\u043e": 3470, "\u0438\u0441\u0442\u0435": 3471, "\u043b\u043e\u0433": 3472, "\u0440\u0430\u0431\u043e\u0442\u043a\u0430": 3473, "\u0441\u043f\u043e": 3474, "\u0442\u0435\u043b": 3475, "\u258115": 3476, "\u2581Sett": 3477, "\u2581invitation": 3478, "\u2581most": 3479, "\u2581num": 3480, "\u2581partner": 3481, "\u2581signature": 3482, "\u2581\u0416": 3483, "\u2581\u0438\u043c\u0435": 3484, ".01.": 3485, "790": 3486, "ARCH": 3487, "Control": 3488, "Not": 3489, "bil": 3490, "credit": 3491, "lish": 3492, "programm": 3493, "vice": 3494, "\u0411\u0438\u0437\u043d\u0435\u0441": 3495, "\u041a\u041e": 3496, "\u0430\u0440\u0438": 3497, "\u0433\u0440\u0430\u043c": 3498, "\u0438\u043d\u0442\u0435\u0440\u0435\u0441": 3499, "\u258132": 3500, "\u2581Hr": 3501, "\u2581Site": 3502, "\u2581adres": 3503, "\u2581article": 3504, "\u2581doklad": 3505, "\u2581whatsapp": 3506, "\u2581\u0412\u043e\u043f\u0440\u043e\u0441": 3507, "\u2581\u0418\u043d\u0444\u043e\u0440\u043c\u0430\u0446\u0438\u044f": 3508, "\u2581\u041a\u043e\u043b": 3509, "-70": 3510, "-8": 3511, "785": 3512, "CP": 3513, "DS": 3514, "IEL": 3515, "SC": 3516, "Ur": 3517, "[11]": 3518, "gin": 3519, "iya": 3520, "pers": 3521, "point": 3522, "room": 3523, "\u0415\u0413": 3524, "\u0416\u0443\u0440\u043d\u0430\u043b": 3525, "\u0434\u043e\u043b\u0436": 3526, "\u0435\u0432\u044b\u0435": 3527, "\u0435\u043c\u043e": 3528, "\u043e\u0447\u043d\u043e": 3529, "\u0442\u0430\u043c": 3530, "\u25813-": 3531, "\u2581academic": 3532, "\u2581ci": 3533, "\u2581month": 3534, "\u2581ng": 3535, "\u2581page": 3536, "\u2581\u0413\u043b\u0430\u0432\u043d\u0430\u044f": 3537, "\u2581\u0422\u0435\u043c": 3538, "\u2581\u043a\u043e\u0440\u043f\u0443\u0441": 3539, "\u2581\u043d\u0435\u0433\u043e": 3540, "-21": 3541, "-47": 3542, "395": 3543, "647": 3544, "685": 3545, "DR": 3546, "Source": 3547, "corpora": 3548, "dob": 3549, "dor": 3550, "hor": 3551, "ke": 3552, "ked": 3553, "kor": 3554, "mento": 3555, "ut": 3556, "way": 3557, "\u0416": 3558, "\u0418\u0441": 3559, "\u041a\u0412": 3560, "\u0435\u0432\u043e": 3561, "\u0440\u0435": 3562, "\u0447\u0435\u043d\u0438\u0435": 3563, "\u2581Olymp": 3564, "\u2581WEB": 3565, "\u2581left": 3566, "\u2581o": 3567, "\u2581scale": 3568, "\u2581short": 3569, "\u2581sports": 3570, "\u2581\u0416\u0435\u043b": 3571, "\u2581\u041e\u0442\u0432\u0435\u0442": 3572, "\u2581\u0421\u043a\u043e\u043b\u044c\u043a\u043e": 3573, "\u2581\u0421\u0443": 3574, "\u2581\u0432\u0435\u0440\u0441\u0438\u0438": 3575, "\u2581\u043a\u0430\u0442\u0435\u0433\u043e\u0440\u0438\u044f": 3576, "\u2581\u043f\u043e\u043b\u0443\u0447\u0430": 3577, "\u2581\u0441\u043f\u0435\u0446\u0438\u0430\u043b": 3578, "010": 3579, "222": 3580, "But": 3581, "FZ": 3582, "Main": 3583, "[32]": 3584, "app": 3585, "bbi": 3586, "club": 3587, "clusi": 3588, "du": 3589, "el": 3590, "family": 3591, "kontakt": 3592, "pol": 3593, "rs": 3594, "tid": 3595, "tre": 3596, "\u0418\u0437": 3597, "\u0421\u0422\u0420\u0410": 3598, "\u0431\u044a": 3599, "\u0436\u0430\u0432": 3600, "\u0438\u0447\u0435\u0441\u043a\u043e\u0433\u043e": 3601, "\u043c\u043e\u043d": 3602, "\u043d\u0430\u043b\u0438": 3603, "\u043d\u043d\u044b\u0439": 3604, "\u043e\u0433\u0440\u0430\u0444\u0438\u044f": 3605, "\u0442\u0430\u043d": 3606, "\u0447\u043d\u0438\u043a": 3607, "\u044e\u0449\u0438\u0439": 3608, "\u2581Return": 3609, "\u2581author": 3610, "\u2581image": 3611, "\u2581main": 3612, "\u2581mat": 3613, "\u2581repeat": 3614, "\u2581target": 3615, "\u2581vid": 3616, "\u2581\u0413": 3617, "\u2581\u041c\u0435\u043d": 3618, "\u2581\u041c\u044b": 3619, "\u2581\u041d\u043e\u0432\u044b\u0439": 3620, "\u2581\u041d\u0443": 3621, "\u2581\u0422\u041e\u041f": 3622, "\u2581\u0424\u0435\u0434\u0435\u0440\u0430\u0446\u0438\u0438": 3623, "\u2581\u0430\u0432\u0442\u043e\u043c\u0430\u0442\u0438\u0447\u0435\u0441\u043a\u0438": 3624, "\u2581\u043a\u043b\u0438\u043d\u0438\u043a\u0430": 3625, "\u2581\u043c\u0430\u0433\u0430\u0437\u0438\u043d\u0430": 3626, "\u2581\u043e\u0444\u0438\u0441": 3627, "\u2581\u043f\u043e\u043b\u043d\u043e\u0441\u0442\u044c\u044e": 3628, "\u2581\u0441\u043e\u0433\u043b\u0430\u0441": 3629, "\u2581\u0441\u043e\u0446\u0438\u0430\u043b\u044c\u043d\u044b\u0435": 3630, "185": 3631, "345": 3632, "795": 3633, "Del": 3634, "KA": 3635, "Na": 3636, "Ob": 3637, "are": 3638, "dog": 3639, "ffer": 3640, "oke": 3641, "organisation": 3642, "over": 3643, "pi": 3644, "ri": 3645, "sche": 3646, "\u0420\u0443\u0441": 3647, "\u0432\u0430\u0448": 3648, "\u0434\u0435\u043d\u0438\u044f": 3649, "\u0435\u0431": 3650, "\u043a\u043e\u043b\u0435": 3651, "\u043c\u0430\u0448": 3652, "\u043d\u043e\u0441\u0442\u044c\u044e": 3653, "\u0445\u043e\u0436": 3654, "\u0446\u044b": 3655, "\u2581Agency": 3656, "\u2581Cha": 3657, "\u2581activity": 3658, "\u2581border": 3659, "\u2581days": 3660, "\u2581help": 3661, "\u2581identity": 3662, "\u2581sort": 3663, "\u2581will": 3664, "\u2581world": 3665, "\u2581\u041a\u043e\u043c\u0430\u043d\u0434": 3666, "\u2581\u041c\u0430": 3667, "\u2581\u0421\u0422\u0420": 3668, "\u2581\u0430\u043d\u0433\u043b\u0438\u0439\u0441\u043a\u043e": 3669, "\u2581\u043f\u0440\u043e\u0439\u0442\u0438": 3670, "\u2581\u0441\u043e\u0432": 3671, "\u2581\u0448\u0430\u0433": 3672, "579": 3673, "63": 3674, "688": 3675, "91": 3676, "Full": 3677, "Or": 3678, "PART": 3679, "UCH": 3680, "ant": 3681, "bic": 3682, "by": 3683, "ender": 3684, "ferenc": 3685, "out": 3686, "prav": 3687, "sian": 3688, "tab": 3689, "tting": 3690, "\u041d\u0410": 3691, "\u041d\u0443": 3692, "\u0424\u043e\u0442\u043e": 3693, "\u0435\u0437": 3694, "\u0435\u043d\u0442": 3695, "\u0449\u0435\u043c": 3696, "\u044d\u043b\u0435\u043a\u0442\u0440\u043e\u043d": 3697, "\u2581...": 3698, "\u2581BMW": 3699, "\u2581Date": 3700, "\u2581as": 3701, "\u2581boys": 3702, "\u2581corporate": 3703, "\u2581place": 3704, "\u2581street": 3705, "\u2581\u041a\u043e\u043d\u043a\u0443\u0440\u0441": 3706, "\u2581\u041f\u0435\u0440\u0435": 3707, "\u2581\u0427\u0442\u043e\u0431\u044b": 3708, "\u2581\u0430\u043a": 3709, "\u2581\u0434\u043e\u043c\u0430": 3710, "\u2581\u0437\u0430\u043f\u0440\u0435\u0449\u0435\u043d": 3711, "\u2581\u0438\u0441\u043f\u043e\u043b\u044c\u0437\u043e\u0432\u0430\u043d": 3712, "\u2581\u043d\u0430\u0439\u0442\u0438": 3713, "\u2581\u043d\u0435\u043f\u0440\u0438": 3714, "\u2581\u043e\u0442\u043f\u0440\u0430\u0432\u043b\u044f": 3715, "\u2581\u0448\u0435\u0441\u0442\u044c": 3716, "-15": 3717, "233": 3718, "567": 3719, "650": 3720, "828": 3721, "ATE": 3722, "IR": 3723, "System": 3724, "WEB": 3725, "ages": 3726, "dde": 3727, "go": 3728, "if": 3729, "import": 3730, "ki": 3731, "know": 3732, "tension": 3733, "ved": 3734, "vit": 3735, "wr": 3736, "\u041b\u0418": 3737, "\u0430\u043d\u0438\u044f": 3738, "\u0433\u0440\u0430\u043c\u043c\u0430": 3739, "\u0436\u0430\u043b": 3740, "\u043a\u0442\u043e\u0440": 3741, "\u043d\u0434": 3742, "\u043d\u043e\u0433": 3743, "\u043e\u0431\u0449\u0435": 3744, "\u043e\u0440\u0442": 3745, "\u043f\u043e\u043b\u043d": 3746, "\u043f\u043e\u043b\u043d\u044f\u0442\u044c": 3747, "\u0440\u0430\u0447": 3748, "\u0443\u0439": 3749, "\u0444\u0440": 3750, "\u044c\u0442\u0435": 3751, "\u2581Activ": 3752, "\u2581Unit": 3753, "\u2581ad": 3754, "\u2581at": 3755, "\u2581document": 3756, "\u2581ex": 3757, "\u2581one": 3758, "\u2581pet": 3759, "\u2581tp": 3760, "\u2581\u0420\u0430": 3761, "\u2581\u0422\u0435\u0445\u043d\u0438\u043a": 3762, "\u2581\u0426\u0432\u0435\u0442": 3763, "\u2581\u0434\u0435": 3764, "\u2581\u0434\u0440\u0443\u0433\u043e\u0435": 3765, "\u2581\u043f\u0435\u0434\u0430\u0433\u043e\u0433": 3766, "\u2581\u0441\u0442\u0440\u043e": 3767, "\u2581\u0441\u0443\u0434": 3768, "\u2581\u0443\u043a\u0430\u0437\u0430\u0442\u044c": 3769, "\u2581\u044d\u0442\u0430": 3770, "-90": 3771, "2022": 3772, "488": 3773, "597": 3774, "AD": 3775, "Eng": 3776, "War": 3777, "act": 3778, "cd": 3779, "come": 3780, "fy": 3781, "max": 3782, "ras": 3783, "sal": 3784, "sum": 3785, "telefon": 3786, "zip": 3787, "\u041c\u0415\u0420": 3788, "\u0431\u044e": 3789, "\u0432\u0430\u043b\u044c": 3790, "\u0432\u0435\u0440\u0435\u043d": 3791, "\u0434\u0430\u0440": 3792, "\u0436\u0438\u0432\u0430": 3793, "\u0438\u0440\u043e\u0432\u0430\u043d": 3794, "\u0438\u0440\u0443\u044e": 3795, "\u0438\u0447\u0435\u0441\u043a\u043e\u0439": 3796, "\u043a\u0440\u044b": 3797, "\u043e\u0432\u043a\u0430": 3798, "\u0441\u043b\u0435": 3799, "\u0447\u043a\u0430": 3800, "\u0448\u043a\u043e\u043b": 3801, "\u0448\u043b\u0435": 3802, "\u049a\u04b1": 3803, "\u2581200": 3804, "\u25818-": 3805, "\u2581Bank": 3806, "\u2581Contact": 3807, "\u2581THE": 3808, "\u2581an": 3809, "\u2581be": 3810, "\u2581con": 3811, "\u2581current": 3812, "\u2581die": 3813, "\u2581eg": 3814, "\u2581feedback": 3815, "\u2581girls": 3816, "\u2581\u0418\u0441\u043a\u0430": 3817, "\u2581\u041f\u043e\u0436\u0430\u043b\u0443\u0439": 3818, "\u2581\u0420\u0435\u043c\u043e\u043d\u0442": 3819, "\u2581\u0420\u0443": 3820, "\u2581\u0421\u0442\u043e\u0438\u043c\u043e\u0441\u0442\u044c": 3821, "\u2581\u0431\u043b\u043e\u0433": 3822, "\u2581\u043e\u0431\u0440\u0430\u0449\u0435\u043d\u0438\u044f": 3823, "\u2581\u043f\u0435\u0440\u0441\u043e\u043d\u0430\u0436": 3824, "\u2581\u043f\u043b\u0430\u0442": 3825, "\u2581\u0440\u043e\u0434\u0438\u0442\u0435\u043b": 3826, "\u2581\u0444\u0438\u043d\u0430\u043d\u0441\u043e\u0432": 3827, "\u2581\u0444\u043e\u0440\u043c\u044b": 3828, "1-": 3829, "260": 3830, "61": 3831, "660": 3832, "Bir": 3833, "EC": 3834, "IP": 3835, "LS": 3836, "News": 3837, "Pay": 3838, "get": 3839, "io": 3840, "len": 3841, "media": 3842, "ny": 3843, "pla": 3844, "pon": 3845, "promo": 3846, "rage": 3847, "\u041a\u0443": 3848, "\u0426\u0418": 3849, "\u0427\u0435": 3850, "\u042b": 3851, "\u0430\u0435\u0442\u0441\u044f": 3852, "\u0430\u0440\u0435\u043d": 3853, "\u0430\u0442\u0438\u0432\u043d\u0430": 3854, "\u0432\u043c\u0435": 3855, "\u0433\u043e\u0434": 3856, "\u0438\u0437\u0438\u0440\u043e\u0432\u0430\u043d": 3857, "\u0438\u0437\u043c": 3858, "\u0438\u0442\u0435\u043b\u044c\u043d\u044b\u0435": 3859, "\u043a\u0430\u0437\u0430\u043b\u0438": 3860, "\u043a\u0430\u043c": 3861, "\u043b\u0435\u0432\u0430": 3862, "\u043b\u0438\u0441\u044c": 3863, "\u043c\u0435\u0442\u0440": 3864, "\u043d\u0435\u0435": 3865, "\u043d\u0443\u0442": 3866, "\u043e\u0441\u0442": 3867, "\u043f\u043e\u0432": 3868, "\u0440\u0430\u0431\u043e\u0442\u0430": 3869, "\u0440\u0430\u0449\u0435\u043d\u0438\u0435": 3870, "\u0440\u0435\u0434": 3871, "\u0440\u0435\u043d\u0438\u0435": 3872, "\u0442\u0430\u0436": 3873, "\u0442\u0430\u0446\u0438\u044f": 3874, "\u0443\u043a\u0430\u0437\u0430\u043d\u043d\u044b\u0435": 3875, "\u0443\u043b": 3876, "\u044f\u0442": 3877, "\u2019": 3878, "\u2581Text": 3879, "\u2581appro": 3880, "\u2581box": 3881, "\u2581came": 3882, "\u2581child": 3883, "\u2581dis": 3884, "\u2581na": 3885, "\u2581pw": 3886, "\u2581religion": 3887, "\u2581sog": 3888, "\u2581speaker": 3889, "\u2581tax": 3890, "\u2581trade": 3891, "\u2581\u0411\u0435\u043b\u0430\u0440\u0443\u0441": 3892, "\u2581\u0418\u0432\u0430\u043d": 3893, "\u2581\u0420\u0430\u0434": 3894, "\u2581\u0420\u0430\u0439\u043e\u043d": 3895, "\u2581\u0432\u0430\u0440\u0438\u0430\u043d\u0442\u043e\u0432": 3896, "\u2581\u0434\u0440": 3897, "\u2581\u0437\u0430\u0431\u043e\u043b\u0435\u0432\u0430\u043d\u0438\u044f": 3898, "\u2581\u0437\u0430\u043a\u0430\u043d\u0447\u0438\u0432\u0430": 3899, "\u2581\u0437\u0430\u043f\u0438\u0441\u0430": 3900, "\u2581\u0438\u0433\u0440\u043e\u043a\u0430": 3901, "\u2581\u043a\u043b\u0443\u0431\u0430": 3902, "\u2581\u043a\u043e\u043c\u043c\u0435\u043d\u0442\u0430\u0440\u0438\u044f": 3903, "\u2581\u043c\u0430\u0441\u043b\u0430": 3904, "\u2581\u043c\u0435\u0434": 3905, "\u2581\u043c\u0438\u043d\u0443\u0442": 3906, "\u2581\u043d\u0430\u0447\u0438\u043d\u0430": 3907, "\u2581\u043e\u0434\u0438\u043d\u0430\u043a\u043e\u0432\u044b": 3908, "\u2581\u043e\u0442\u0432\u0435\u0442\u0430": 3909, "\u2581\u043f\u043e\u0434\u0440\u044f\u0434": 3910, "\u2581\u043f\u043e\u043b\u0438\u0442\u0438\u043a\u0430": 3911, "\u2581\u043f\u043e\u043c\u043e\u0436\u0435\u0442": 3912, "\u2581\u043f\u043e\u043c\u043e\u0447\u044c": 3913, "\u2581\u043f\u0440\u043e\u0432\u0435\u0440\u044f": 3914, "\u2581\u043f\u0440\u043e\u0444\u0435\u0441\u0441\u0438\u043e\u043d\u0430\u043b": 3915, "\u2581\u0440\u0430\u0437\u0440\u0435\u0448": 3916, "\u2581\u0440\u0430\u043c\u043a\u0430\u0445": 3917, "\u2581\u0441\u0435\u0440\u0438\u044f": 3918, "\u2581\u0441\u043f\u043e\u043d\u0441\u043e\u0440": 3919, "\u2581\u0441\u043f\u043e\u0441\u043e\u0431": 3920, "\u2581\u0441\u0440\u0435\u0434\u0441\u0442\u0432": 3921, "\u2581\u0441\u0442\u0440\u043e\u043a": 3922, "\u2581\u0442\u0435\u043a\u0443\u0449\u0438": 3923, "\u2581\u0442\u0435\u043c": 3924, "\u2581\u0442\u0435\u0447\u0435\u043d\u0438\u0435": 3925, "\u2581\u0442\u0440\u0435": 3926, "\u2581\u0446\u0435\u043d\u044b": 3927, "\u2581\u0447": 3928, "\u2581\u0447\u0435\u043b\u043e\u0432\u0435\u043a": 3929, "\".": 3930, ".12.2012": 3931, "645": 3932, "651": 3933, "679": 3934, "78": 3935, "859": 3936, "Bon": 3937, "INA": 3938, "Line": 3939, "ME": 3940, "ML": 3941, "Par": 3942, "Sc": 3943, "Step": 3944, "brow": 3945, "cale": 3946, "communica": 3947, "don": 3948, "etti": 3949, "gp": 3950, "indica": 3951, "izar": 3952, "mut": 3953, "ndar": 3954, "ng": 3955, "ol": 3956, "polit": 3957, "polni": 3958, "retur": 3959, "tain": 3960, "tour": 3961, "ys": 3962, "\u040f": 3963, "\u0410\u0423": 3964, "\u0412\u041a\u043e\u043d\u0442\u0430\u043a\u0442\u0435": 3965, "\u0412\u043e\u0441\u0442\u043e\u0447\u043d": 3966, "\u041a\u0430\u043f\u0438\u0442\u0430\u043b": 3967, "\u041e\u0423": 3968, "\u0420\u0406": 3969, "\u0424\u0438\u043d\u0430\u043d\u0441": 3970, "\u0427\u0415": 3971, "\u0428\u0430": 3972, "\u0430\u0436": 3973, "\u0430\u043d\u0442\u0430": 3974, "\u0430\u0442\u044c\u0441\u044f": 3975, "\u0431\u0435\u043b": 3976, "\u0431\u043e\u043b\u044c\u0448": 3977, "\u0432\u0430\u0442\u044c": 3978, "\u0432\u043e\u0437\u0432\u0440\u0430\u0449\u0435\u043d": 3979, "\u0432\u0448\u0438\u0439": 3980, "\u0433\u0430\u043b": 3981, "\u0434\u0435\u043b\u0435\u043d": 3982, "\u0434\u043d\u0435\u0432\u043d": 3983, "\u0434\u043e\u0432\u0430": 3984, "\u0434\u0440": 3985, "\u0435\u0434": 3986, "\u0437\u0430\u0445": 3987, "\u0438\u043d\u0444\u043e\u0440\u043c": 3988, "\u0438\u0441\u043a\u0430": 3989, "\u0438\u0444\u0438\u043a\u0430\u0446\u0438\u044f": 3990, "\u0438\u0447\u0435\u0441\u043a\u0438\u0435": 3991, "\u043a\u0430\u0439": 3992, "\u043a\u0430\u0441": 3993, "\u043c\u043e\u0433\u0430": 3994, "\u043d\u0435\u0448": 3995, "\u043d\u043d\u043e\u0435": 3996, "\u043d\u044e\u044e": 3997, "\u043e\u0432\u0435": 3998, "\u043e\u0437\u043d\u0430": 3999, "\u043e\u0441\u0442\u044c": 4000, "\u043e\u0447\u0435\u043a": 4001, "\u043e\u044e": 4002, "\u043f\u0430\u043b\u0438": 4003, "\u043f\u0430\u0440\u0442": 4004, "\u043f\u0440\u0430\u0432\u043b\u044f\u044e": 4005, "\u043f\u0440\u043e\u043c\u044b\u0448\u043b\u0435\u043d\u043d": 4006, "\u0440\u0435\u043b\u0438": 4007, "\u0440\u044b\u0437": 4008, "\u0441\u0435\u0442": 4009, "\u0441\u043c": 4010, "\u0441\u043c\u0435\u0440": 4011, "\u0441\u043f\u043e\u0440\u0442\u0438\u0432\u043d": 4012, "\u0441\u043f\u043e\u0441\u043e\u0431": 4013, "\u0441\u0442\u0430\u043d\u0434\u0430\u0440\u0442": 4014, "\u0441\u0442\u043e\u0440\u0438": 4015, "\u0442\u0430\u043b": 4016, "\u0442\u0435\u043b\u044c\u043d\u043e\u0441\u0442\u0438": 4017, "\u0442\u0435\u0441\u044c": 4018, "\u0442\u0438\u043a": 4019, "\u0442\u0438\u043a\u0435": 4020, "\u0442\u0438\u043b": 4021, "\u0442\u0438\u043d\u0433": 4022, "\u0442\u0443\u043b": 4023, "\u0445\u0440\u0430\u043d\u0435\u043d\u0438": 4024, "\u0446\u0435\u043d\u0442\u0440": 4025, "\u0447\u0435\u0441\u043a\u0438": 4026, "\u0447\u0438\u043a\u0438": 4027, "\u0448\u0435\u043a": 4028, "\u0448\u0438\u043d": 4029, "\u0448\u043d\u044f\u044f": 4030, "\u0449\u0438\u0445": 4031, "\u044c\u044f": 4032, "\u0457": 4033, "\u0458": 4034, "\u045f": 4035, "\u201c": 4036, "\u2581(12": 4037, "\u2581--": 4038, "\u2581-->": 4039, "\u25810%": 4040, "\u258109:00": 4041, "\u258119": 4042, "\u258121:00": 4043, "\u2581256": 4044, "\u258129": 4045, "\u25813000": 4046, "\u2581Admin": 4047, "\u2581Az": 4048, "\u2581Ben": 4049, "\u2581Business": 4050, "\u2581Gate": 4051, "\u2581Job": 4052, "\u2581LEGO": 4053, "\u2581League": 4054, "\u2581Organization": 4055, "\u2581Petro": 4056, "\u2581Science": 4057, "\u2581application": 4058, "\u2581bad": 4059, "\u2581companies": 4060, "\u2581like": 4061, "\u2581offers": 4062, "\u2581shopping": 4063, "\u2581\u0410\u043a": 4064, "\u2581\u0410\u0441": 4065, "\u2581\u0411\u0430\u043d\u043a": 4066, "\u2581\u0417\u0430\u043a\u043e\u043d\u043e\u043c": 4067, "\u2581\u0418\u0441\u0443\u0441": 4068, "\u2581\u0419\u043e": 4069, "\u2581\u041b\u0438\u0447\u043d\u043e": 4070, "\u2581\u041f\u0430\u0440\u0442": 4071, "\u2581\u041f\u043e\u0434\u0440\u043e\u0431\u043d\u0435\u0435": 4072, "\u2581\u0420\u043e\u0441\u0441\u0438\u0439\u0441\u043a\u043e\u0439": 4073, "\u2581\u0420\u0443\u0431": 4074, "\u2581\u0424\u0435\u0434\u0435\u0440\u0430\u043b\u044c\u043d\u043e\u0433\u043e": 4075, "\u2581\u0425\u0430\u0440": 4076, "\u2581\u0430\u043b": 4077, "\u2581\u0431\u0430\u0437\u0443": 4078, "\u2581\u0431\u0440\u043e\u0434": 4079, "\u2581\u0432\u0430\u0436\u043d\u044b\u043c": 4080, "\u2581\u0432\u043e\u0437\u043c\u043e\u0436\u043d\u043e\u0441\u0442\u0438": 4081, "\u2581\u0432\u0440\u0435\u043c\u0435\u043d\u0438": 4082, "\u2581\u0432\u0443\u0437": 4083, "\u2581\u0432\u044b\u043f\u043b\u0430\u0442": 4084, "\u2581\u0433\u043b\u0430\u0437": 4085, "\u2581\u0433\u0440\u0443\u043f\u043f\u0430": 4086, "\u2581\u0434\u0438\u0432\u0438": 4087, "\u2581\u0434\u043e\u043f\u043e\u043b\u043d\u0438\u0442\u0435\u043b\u044c\u043d\u043e": 4088, "\u2581\u0434\u0440\u0443\u0433\u043e\u043c\u0443": 4089, "\u2581\u0436\u0435\u043b": 4090, "\u2581\u0436\u0438\u0432\u043e\u0442": 4091, "\u2581\u0436\u0438\u0437\u043d\u0438": 4092, "\u2581\u0437\u0430\u0432\u0435\u0434\u0435\u043d\u0438\u0435": 4093, "\u2581\u0437\u0430\u0433": 4094, "\u2581\u0437\u0430\u043a\u043e\u043d\u0430": 4095, "\u2581\u0437\u0430\u043d\u0438\u043c\u0430": 4096, "\u2581\u0437\u0430\u044f\u0432\u043b\u0435\u043d": 4097, "\u2581\u0437\u043d\u0430\u0435\u0442\u0435": 4098, "\u2581\u0437\u043d\u0430\u043a\u043e\u043c\u044b": 4099, "\u2581\u0438\u0437\u0431\u0440\u0430\u043d": 4100, "\u2581\u0438\u043c\u0435\u0435\u0442\u0441\u044f": 4101, "\u2581\u0438\u043d\u0432\u0435\u0441\u0442\u043e\u0440": 4102, "\u2581\u0438\u043d\u0442\u0435\u0440\u0435\u0441\u0443": 4103, "\u2581\u0438\u043d\u0444\u043e\u0440\u043c\u0430\u0446\u0438\u043e\u043d\u043d\u044b\u0445": 4104, "\u2581\u0438\u0441\u043f\u043e\u043b\u044c\u0437\u043e\u0432\u0430\u043d\u0438\u0435\u043c": 4105, "\u2581\u043a\u0430\u0436\u0434\u044b": 4106, "\u2581\u043a\u043e\u043b\u0438\u0447\u0435\u0441\u0442\u0432\u043e": 4107, "\u2581\u043a\u043e\u043b\u043b\u0435\u0434\u0436": 4108, "\u2581\u043a\u043e\u043c\u0438\u0441\u0441\u0438\u0438": 4109, "\u2581\u043a\u043e\u043c\u0438\u0442\u0435\u0442": 4110, "\u2581\u043a\u043e\u043c\u043c\u0435\u043d\u0442\u0430\u0440\u0438\u0435\u0432": 4111, "\u2581\u043a\u043e\u043d\u0442\u043e\u0440": 4112, "\u2581\u043a\u043e\u0442\u043e\u0440\u044b\u0445": 4113, "\u2581\u043a\u0440\u0443": 4114, "\u2581\u043b\u0438\u0441\u0442": 4115, "\u2581\u043b\u0438\u0447\u043d\u043e\u0441\u0442\u044c": 4116, "\u2581\u043b\u0443\u0447\u0448\u0435": 4117, "\u2581\u043c\u0435\u0434\u0438\u0446\u0438\u043d\u0441\u043a\u043e": 4118, "\u2581\u043c\u043d\u043e\u0433\u043e\u0435": 4119, "\u2581\u043c\u043d\u043e\u044e": 4120, "\u2581\u043c\u043e\u0434\u0435\u0440\u0430\u0442\u043e\u0440": 4121, "\u2581\u043c\u043e\u0440\u0435": 4122, "\u2581\u043c\u0443\u0437": 4123, "\u2581\u043c\u0443\u0437\u044b\u043a\u0430": 4124, "\u2581\u043d\u0430\u043a\u043e\u043f\u043b\u0435\u043d": 4125, "\u2581\u043d\u0430\u043f\u0440\u0430\u0432\u043b\u0435\u043d\u0438\u044f": 4126, "\u2581\u043d\u0430\u0441\u0442\u043e\u044f\u0449\u0435\u0435": 4127, "\u2581\u043d\u0430\u0443\u0447\u043d\u043e": 4128, "\u2581\u043d\u0438\u043c\u0438": 4129, "\u2581\u043d\u0443\u0436\u043d\u044b": 4130, "\u2581\u043e\u0431\u0435\u0441\u043f\u0435\u0447\u0435\u043d": 4131, "\u2581\u043e\u0431\u043e": 4132, "\u2581\u043e\u0434\u0435": 4133, "\u2581\u043e\u043f": 4134, "\u2581\u043e\u0441\u043d\u043e\u0432\u0430\u043d\u0438\u044f": 4135, "\u2581\u043e\u0442\u043a\u0440\u044b\u0442\u044c": 4136, "\u2581\u043e\u0442\u0446\u0430": 4137, "\u2581\u043f\u0430\u043a\u0435\u0442": 4138, "\u2581\u043f\u0435\u0440\u0438\u043e\u0434\u0438\u0447\u0435\u0441\u043a\u0438": 4139, "\u2581\u043f\u0435\u0440\u0441\u043e\u043d\u0430\u043b": 4140, "\u2581\u043f\u0438": 4141, "\u2581\u043f\u043e\u0434\u043f\u0438\u0441\u0430\u043d": 4142, "\u2581\u043f\u0440": 4143, "\u2581\u043f\u0440\u0430\u0432\u0430\u0445": 4144, "\u2581\u043f\u0440\u0435\u0432\u044b\u0448\u0430\u0435\u0442": 4145, "\u2581\u043f\u0440\u0435\u0434\u043e\u0441\u0442\u0430\u0432\u043b\u044f\u044e\u0442": 4146, "\u2581\u043f\u0440\u0435\u0434\u043f\u0440\u0438\u044f\u0442\u0438\u0435": 4147, "\u2581\u043f\u0440\u0435\u0434\u0441\u0442\u0430\u0432\u0438\u0442\u0435\u043b": 4148, "\u2581\u043f\u0440\u0438\u043c\u0435\u043d\u0438": 4149, "\u2581\u043f\u0440\u0438\u043d\u044f\u0442\u0438\u044f": 4150, "\u2581\u043f\u0440\u0438\u043e\u0431\u0440\u0435\u0442\u0430": 4151, "\u2581\u043f\u0440\u043e\u0438\u0437\u0432\u043e\u0434": 4152, "\u2581\u043f\u0440\u043e\u0444\u0435\u0441": 4153, "\u2581\u043f\u0443\u0442\u044c": 4154, "\u2581\u0440\u0430\u0431\u043e\u0442\u0443": 4155, "\u2581\u0440\u0430\u0437\u0432\u043e\u0434": 4156, "\u2581\u0440\u0430\u0437\u043c\u0435\u0440": 4157, "\u2581\u0440\u0435\u0430\u043b\u0438\u0437\u0430\u0446\u0438\u0438": 4158, "\u2581\u0440\u0435\u0433\u043b\u0430\u043c\u0435\u043d\u0442": 4159, "\u2581\u0440\u0435\u043a\u043e\u043c\u0435\u043d\u0434\u0443\u044e": 4160, "\u2581\u0440\u0443\u0431\u043b\u044f": 4161, "\u2581\u0441\u0431\u043e\u0440\u043d\u0438\u043a": 4162, "\u2581\u0441\u0432\u0435": 4163, "\u2581\u0441\u0435\u0439\u0447\u0430\u0441": 4164, "\u2581\u0441\u0435\u043b\u043e": 4165, "\u2581\u0441\u0435\u043c\u044c\u0438": 4166, "\u2581\u0441\u043e\u0431\u0441\u0442\u0432\u0435\u043d\u043d\u0438\u043a": 4167, "\u2581\u0441\u043e\u0434\u0435\u0440\u0436\u0430": 4168, "\u2581\u0441\u043e\u0437\u0434\u0430\u0442\u044c": 4169, "\u2581\u0441\u043e\u0445\u0440\u0430\u043d": 4170, "\u2581\u0441\u0440\u0430\u0437\u0443": 4171, "\u2581\u0441\u0440\u0435\u0434\u043d\u0435\u0433\u043e": 4172, "\u2581\u0441\u0442\u0430\u0440\u044b\u0445": 4173, "\u2581\u0441\u0442\u0430\u0442\u044c\u0435": 4174, "\u2581\u0441\u0442\u0440\u043e\u0438": 4175, "\u2581\u0441\u0443\u0431\u044a\u0435\u043a\u0442": 4176, "\u2581\u0441\u0443\u043c\u043c\u0430": 4177, "\u2581\u0441\u0443\u043c\u043c\u0443": 4178, "\u2581\u0441\u0444\u0435\u0440\u0443": 4179, "\u2581\u0441\u0447\u0438\u0442\u0430\u0435\u0442": 4180, "\u2581\u0442\u0435\u043b\u0435\u0444\u043e\u043d\u0443": 4181, "\u2581\u0442\u0435\u043e\u0440\u0438\u044f": 4182, "\u2581\u0442\u0440\u0430\u043d\u0441": 4183, "\u2581\u0443\u0434\u0430": 4184, "\u2581\u0443\u0434\u043e\u0441\u0442\u043e\u0432\u0435\u0440\u044f": 4185, "\u2581\u0443\u0441\u043b\u043e\u0432\u0438": 4186, "\u2581\u0443\u0441\u043b\u043e\u0432\u0438\u0435": 4187, "\u2581\u0444\u0435\u0432\u0440\u0430\u043b\u044f": 4188, "\u2581\u0445\u0430\u0440\u0430\u043a\u0442\u0435\u0440\u0430": 4189, "\u2581\u0446\u0435\u043d\u0430": 4190, "\u2581\u044f\u0449\u0438\u043a": 4191, "\u2581\u201e": 4192, "\u25be": 4193, "-29": 4194, "225": 4195, "397": 4196, "609": 4197, "LG": 4198, "Settings": 4199, "Tra": 4200, "USD": 4201, "action": 4202, "ble": 4203, "cation": 4204, "cm": 4205, "core": 4206, "eng": 4207, "fak": 4208, "fi": 4209, "kg": 4210, "lig": 4211, "page": 4212, "stav": 4213, "what": 4214, "\u0420\u0422": 4215, "\u0430\u0439\u0442\u0435": 4216, "\u0432\u0438\u0441": 4217, "\u0435\u0432\u0438": 4218, "\u043b\u0430\u0442\u0438": 4219, "\u043c\u043f": 4220, "\u043d\u0435\u043c": 4221, "\u2581(+": 4222, "\u258124": 4223, "\u2581Enter": 4224, "\u2581H": 4225, "\u2581NEW": 4226, "\u2581Position": 4227, "\u2581VAT": 4228, "\u2581boss": 4229, "\u2581cl": 4230, "\u2581inf": 4231, "\u2581ny": 4232, "\u2581\u041f\u0440\u0435": 4233, "\u2581\u0420\u0430\u0431\u043e\u0442": 4234, "\u2581\u0420\u0430\u0441": 4235, "1959": 4236, "765": 4237, "835": 4238, "837": 4239, "842": 4240, "CHE": 4241, "Enter": 4242, "NI": 4243, "New": 4244, "PI": 4245, "SKA": 4246, "Za": 4247, "order": 4248, "rea": 4249, "rl": 4250, "son": 4251, "support": 4252, "visa": 4253, "zanie": 4254, "\u041b\u0430": 4255, "\u041e\u041e": 4256, "\u0421\u0422": 4257, "\u042d\u043b": 4258, "\u0432\u0440": 4259, "\u0438\u043b": 4260, "\u043a\u043b\u0430\u0441\u0441": 4261, "\u043c\u0438\u043d\u0438\u0441\u0442\u0440": 4262, "\u043d\u0438\u043a\u0438": 4263, "\u043d\u043e\u0432\u0430": 4264, "\u043d\u0443": 4265, "\u043f\u0430\u0442": 4266, "\u0440\u0443\u0447": 4267, "\u0447\u0438\u0435": 4268, "\u2581***": 4269, "\u2581>": 4270, "\u2581CON": 4271, "\u2581R": 4272, "\u2581Radio": 4273, "\u2581Such": 4274, "\u2581Type": 4275, "\u2581WHO": 4276, "\u2581eye": 4277, "\u2581hair": 4278, "\u2581location": 4279, "\u2581moze": 4280, "\u2581owner": 4281, "\u2581plan": 4282, "\u2581public": 4283, "\u2581root": 4284, "\u2581sale": 4285, "\u2581self": 4286, "\u2581speak": 4287, "\u2581zone": 4288, "\u2581\u041c\u0430\u0440\u043a": 4289, "\u2581\u041d\u0415": 4290, "\u2581\u0441\u043b\u0435\u0434\u0443\u044e\u0449\u0438\u0435": 4291, "(*": 4292, "-0": 4293, "426": 4294, "453": 4295, "578": 4296, "678": 4297, "FORM": 4298, "Ho": 4299, "RAN": 4300, "Stock": 4301, "TEL": 4302, "ULA": 4303, "has": 4304, "mg": 4305, "nov": 4306, "party": 4307, "pen": 4308, "ref": 4309, "tifica": 4310, "uste": 4311, "\u0431\u0435\u043b\u044b": 4312, "\u043d\u0443\u0441": 4313, "\u0440\u0435\u043d\u0442": 4314, "\u0442\u0443\u0441": 4315, "\u044a\u0435\u0437\u0434": 4316, "\u2581@": 4317, "\u2581Catalog": 4318, "\u2581POD": 4319, "\u2581Sur": 4320, "\u2581aero": 4321, "\u2581certificate": 4322, "\u2581children": 4323, "\u2581ident": 4324, "\u2581intro": 4325, "\u2581min": 4326, "\u2581oferta": 4327, "\u2581per": 4328, "\u2581representativ": 4329, "\u2581state": 4330, "\u2581teacher": 4331, "\u2581variable": 4332, "\u2581weight": 4333, "\u2581wheel": 4334, "\u2581\u0411\u0443\u0434": 4335, "\u2581\u041a\u043e\u043d\u0444\u0435\u0440\u0435\u043d\u0446": 4336, "\u2581\u041e\u0441\u0442\u0430": 4337, "\u2581\u041f\u0440\u0435\u0434\u0441\u0442\u0430\u0432\u0438\u0442\u0435\u043b": 4338, "\u2581\u043a\u0440\u0430\u0441": 4339, "\u2581\u0441\u0430\u043c\u043e\u0441\u0442\u043e\u044f\u0442\u0435\u043b\u044c\u043d\u043e": 4340, "-60": 4341, "05": 4342, "495": 4343, "79": 4344, "Be": 4345, "Day": 4346, "NOW": 4347, "OT": 4348, "You": 4349, "[8]": 4350, "[9]": 4351, "cr": 4352, "element": 4353, "ical": 4354, "learning": 4355, "map": 4356, "mk": 4357, "nas": 4358, "php": 4359, "save": 4360, "uz": 4361, "vi": 4362, "\u0413\u0418": 4363, "\u0432\u0435\u0441\u0442\u0438": 4364, "\u0435\u043d\u043d\u044b\u0435": 4365, "\u0438\u043e": 4366, "\u043b\u043e\u043f": 4367, "\u043f\u0430\u043a": 4368, "\u0440\u043e\u0436\u0434\u0435\u043d": 4369, "\u0449\u0438\u043d\u0430": 4370, "\u044e\u0440\u0438": 4371, "\u2581Facebook": 4372, "\u2581Juri": 4373, "\u2581Pre": 4374, "\u2581education": 4375, "\u2581event": 4376, "\u2581far": 4377, "\u2581hotel": 4378, "\u2581measure": 4379, "\u2581review": 4380, "\u2581rule": 4381, "\u2581team": 4382, "\u2581yan": 4383, "\u2581\u0410\u0432\u0442\u043e": 4384, "\u2581\u0418\u043d\u0442\u0435\u0440\u043d\u0435\u0442": 4385, "\u2581\u0421\u0442\u0443\u0434\u0435\u043d\u0442": 4386, "\u2581\u0422\u0440\u0435": 4387, "\u2581\u0423\u043d\u0438\u0432\u0435\u0440\u0441\u0438\u0442\u0435\u0442": 4388, "\u2581\u0430\u043d\u043e\u043d\u0441": 4389, "\u2581\u0432\u0440\u0430\u0447": 4390, "\u2581\u043e\u0431\u043b\u0430\u0441\u0442\u044c": 4391, "\u2581\u043e\u0431\u0440\u0430\u0449\u0430\u0442\u044c\u0441\u044f": 4392, "\u2581\u043f\u0440\u043e\u0438\u0437\u0432\u043e\u0434\u0438\u0442\u0435\u043b\u044f": 4393, "\u2581\u043f\u0443\u0431\u043b": 4394, "\u2581\u0441\u0438\u0441\u0442\u0435\u043c\u0443": 4395, "195": 4396, "400": 4397, "697": 4398, "7-": 4399, "ATION": 4400, "ED": 4401, "ENDER": 4402, "Stat": 4403, "WhatsApp": 4404, "admin": 4405, "hev": 4406, "idea": 4407, "imen": 4408, "liver": 4409, "nic": 4410, "ongo": 4411, "punkt": 4412, "real": 4413, "ulit": 4414, "uri": 4415, "\u0411\u0435\u0437": 4416, "\u0421\u0438": 4417, "\u0428\u043a\u043e\u043b": 4418, "\u0430\u043d\u043e": 4419, "\u0438\u043b\u0430": 4420, "\u0438\u043b\u0438\u0441\u044c": 4421, "\u043f\u043e\u0434": 4422, "\u0440\u0430\u0431\u0430\u0442": 4423, "\u0440\u0443\u0433\u0430": 4424, "\u0441\u0430\u043d": 4425, "\u0441\u0432\u0430": 4426, "\u0441\u043b\u043e": 4427, "\u0441\u043b\u043e\u0432\u0438": 4428, "\u2581300": 4429, "\u2581Please": 4430, "\u2581WhatsApp": 4431, "\u2581ale": 4432, "\u2581identify": 4433, "\u2581kol": 4434, "\u2581log": 4435, "\u2581marathon": 4436, "\u2581minimum": 4437, "\u2581postal": 4438, "\u2581sig": 4439, "\u2581\u0418\u0437": 4440, "\u2581\u0418\u043d": 4441, "\u2581\u041a\u0430\u0442\u0430\u043b\u043e\u0433": 4442, "\u2581\u041a\u043e\u043d\u0442\u0440\u043e\u043b\u044c": 4443, "\u2581\u041a\u0443\u0440\u0441": 4444, "\u2581\u0422\u043e\u043b\u044c\u043a\u043e": 4445, "\u2581\u0427\u0430\u0441": 4446, "\u2581\u0432\u043a\u043b\u044e\u0447\u0430\u044f": 4447, "\u2581\u0432\u0441\u0435\u043c": 4448, "\u2581\u0437\u043d\u0430\u0447\u0435\u043d\u0438\u0435": 4449, "\u2581\u043f\u043e\u0432\u0442\u043e\u0440\u043d\u043e": 4450, "\u2581\u043f\u043e\u043b\u043d\u043e": 4451, "\u2581\u043f\u0440\u0438\u043c\u0435\u0440": 4452, "-50": 4453, "110": 4454, "15%": 4455, "439": 4456, "441": 4457, "448": 4458, "77": 4459, "CL": 4460, "First": 4461, "Link": 4462, "NG": 4463, "PD": 4464, "[35]": 4465, "bi": 4466, "deal": 4467, "gmail": 4468, "govor": 4469, "havi": 4470, "ici": 4471, "indeks": 4472, "nici": 4473, "our": 4474, "pant": 4475, "process": 4476, "rf": 4477, "tif": 4478, "vid": 4479, "visit": 4480, "xhi": 4481, "\u0410\u041d\u0410": 4482, "\u041f\u043e\u0442\u0440\u0435\u0431": 4483, "\u0432\u043e\u0434\u0441\u0442\u0432\u043e": 4484, "\u0434\u0440\u0443\u0433\u043e": 4485, "\u043d\u0442\u0438": 4486, "\u043e\u0441\u0442\u0438": 4487, "\u043f\u043e\u0434\u0440\u044f\u0434\u0447\u0438\u043a": 4488, "\u2581!": 4489, "\u258114": 4490, "\u258165": 4491, "\u2581Is": 4492, "\u2581Member": 4493, "\u2581N": 4494, "\u2581alternative": 4495, "\u2581color": 4496, "\u2581context": 4497, "\u2581dog": 4498, "\u2581et": 4499, "\u2581ho": 4500, "\u2581med": 4501, "\u2581non": 4502, "\u2581online": 4503, "\u2581options": 4504, "\u2581pin": 4505, "\u2581regulations": 4506, "\u2581rem": 4507, "\u2581ser": 4508, "\u2581third": 4509, "\u2581word": 4510, "\u2581\u0412\u0438\u0434": 4511, "\u2581\u0418\u0434\u0435": 4512, "\u2581\u041a\u043b\u0438": 4513, "\u2581\u041d\u043e\u0432\u043e": 4514, "\u2581\u041e\u0434": 4515, "\u2581\u0422\u0443\u0440": 4516, "\u2581\u0426\u0435\u043d\u0430": 4517, "\u2581\u0432\u044b\u0431\u043e\u0440": 4518, "\u2581\u0437\u0430\u044f\u0432\u043a\u0438": 4519, "\u2581\u043f\u0440\u043e\u0448\u043b\u0438": 4520, "\u2581\u0441\u043f\u043e\u0440\u0442\u0438\u0432\u043d\u043e": 4521, "158": 4522, "179": 4523, "444": 4524, "568": 4525, "778": 4526, "Ca": 4527, "English": 4528, "Instagram": 4529, "NS": 4530, "ORG": 4531, "VID": 4532, "auti": 4533, "cks": 4534, "cri": 4535, "di": 4536, "ful": 4537, "https": 4538, "mode": 4539, "nes": 4540, "other": 4541, "ough": 4542, "so": 4543, "\u041b\u042c": 4544, "\u041f\u0435": 4545, "\u0420\u0430\u0434": 4546, "\u0432\u0435\u0434\u0435": 4547, "\u0434\u043e\u043c": 4548, "\u043a\u0440\u044b\u0442\u044c": 4549, "\u043b\u0438\u043d": 4550, "\u043b\u0438\u0447\u043d\u044b\u0435": 4551, "\u0440\u043e\u0448": 4552, "\u0449": 4553, "\u044d\u043b": 4554, "\u044f\u0437\u044b": 4555, "\u2581G": 4556, "\u2581To": 4557, "\u2581XXX": 4558, "\u2581corresponde": 4559, "\u2581courses": 4560, "\u2581itu": 4561, "\u2581kommentar": 4562, "\u2581sch": 4563, "\u2581sfer": 4564, "\u2581shop": 4565, "\u2581soc": 4566, "\u2581where": 4567, "\u2581\u0412\u0435\u0434\u044c": 4568, "\u2581\u0417": 4569, "\u2581\u041a\u0442\u043e": 4570, "\u2581\u041b\u0430": 4571, "\u2581\u041c\u0430\u0441\u0442\u0435\u0440": 4572, "\u2581\u041f\u0435": 4573, "\u2581\u0421\u0435\u043c\u0438\u043d\u0430\u0440": 4574, "\u2581\u0425\u043e": 4575, "\u2581\u0427\u0435\u043c": 4576, "\u2581\u042d\u0442\u043e": 4577, "\u2581\u0431\u0435\u043b": 4578, "\u2581\u0431\u0443\u0434\u0443": 4579, "\u2581\u0432\u0430\u0448\u0430": 4580, "\u2581\u0437\u043d\u0430\u044e": 4581, "\u2581\u043c\u0430\u0440": 4582, "\u2581\u043c\u0430\u0440\u043a\u0430": 4583, "\u2581\u043d\u0430\u043c\u0438": 4584, "\u2581\u043e\u0442\u0434\u0435\u043b": 4585, "\u2581\u0440\u0430\u0439\u043e\u043d\u043d\u043e\u0433\u043e": 4586, "\u2581\u0441\u0435\u0440\u0432\u0435\u0440": 4587, "\u2581\u0442\u0435\u043b": 4588, "-500": 4589, "123": 4590, "190": 4591, "641": 4592, "74": 4593, "865": 4594, "Ab": 4595, "RON": 4596, "Tr": 4597, "[5]": 4598, "align": 4599, "bl": 4600, "cer": 4601, "chi": 4602, "ci": 4603, "down": 4604, "far": 4605, "ire": 4606, "ister": 4607, "ko": 4608, "mb": 4609, "mer": 4610, "oj": 4611, "okon": 4612, "que": 4613, "rc": 4614, "rca": 4615, "str": 4616, "ted": 4617, "tin": 4618, "tra": 4619, "ulle": 4620, "vy": 4621, "where": 4622, "\u0413\u0435\u0440": 4623, "\u041a\u0422": 4624, "\u0420\u043e\u0441\u0441\u0438\u044f": 4625, "\u0422\u0438": 4626, "\u0423\u043d\u0438\u0432\u0435\u0440": 4627, "\u0435\u043c\u044b\u0435": 4628, "\u0435\u043d\u043d\u043e\u0435": 4629, "\u043a\u043b\u0438\u043d": 4630, "\u043a\u0440\u044b\u0442\u044b": 4631, "\u043d\u043e\u0432\u0438": 4632, "\u043d\u0441\u043a\u0430\u044f": 4633, "\u0440\u0444": 4634, "\u0445\u0430\u0440": 4635, "\u0449\u0435\u0435": 4636, "\u2581'": 4637, "\u2581108": 4638, "\u2581AC": 4639, "\u2581Data": 4640, "\u2581Russia": 4641, "\u2581Sie": 4642, "\u2581Tax": 4643, "\u2581ac": 4644, "\u2581background": 4645, "\u2581bitcoin": 4646, "\u2581bring": 4647, "\u2581coup": 4648, "\u2581geo": 4649, "\u2581head": 4650, "\u2581jur": 4651, "\u2581margin": 4652, "\u2581notification": 4653, "\u2581piercing": 4654, "\u2581pol": 4655, "\u2581\u0412\u0430\u043c\u0438": 4656, "\u2581\u0414\u0440\u0443\u0433\u043e": 4657, "\u2581\u041c\u043d\u0435": 4658, "\u2581\u041f\u0440\u043e\u0433\u0440\u0430\u043c": 4659, "\u2581\u0421\u0438\u0441\u0442\u0435\u043c": 4660, "\u2581\u0421\u043f\u0430\u0441\u0438\u0431\u043e": 4661, "\u2581\u0431\u0435\u0437\u043e\u043f\u0430\u0441\u043d\u043e\u0441\u0442\u0438": 4662, "\u2581\u0431\u0440\u0430\u0443\u0437\u0435\u0440": 4663, "\u2581\u0432\u043e\u043f\u0440\u043e\u0441\u044b": 4664, "\u2581\u0433\u0435\u043d": 4665, "\u2581\u0434\u0435\u0442\u0430\u043b\u0438": 4666, "\u2581\u0434\u043e\u043c\u0435": 4667, "\u2581\u043a\u0430\u0431\u0435\u043b": 4668, "\u2581\u043a\u0432": 4669, "\u2581\u043a\u043e\u043d\u0442\u0440\u0430": 4670, "\u2581\u043e\u0447\u0435\u043d\u044c": 4671, "\u2581\u0440\u0435\u0441\u0443\u0440\u0441\u044b": 4672, "\u2581\u0444\u043e\u0440\u043c\u0430\u0442": 4673, "!)": 4674, "-28": 4675, "379": 4676, "434": 4677, "477": 4678, "586": 4679, "BE": 4680, "CEP": 4681, "Card": 4682, "RI": 4683, "Sp": 4684, "Star": 4685, "US": 4686, "ee": 4687, "enses": 4688, "fa": 4689, "fel": 4690, "fin": 4691, "flag": 4692, "flat": 4693, "kit": 4694, "mm": 4695, "nger": 4696, "nr": 4697, "project": 4698, "san": 4699, "sure": 4700, "ther": 4701, "tru": 4702, "unting": 4703, "\u0410\u0419": 4704, "\u041a\u0438": 4705, "\u0420\u043e\u0437": 4706, "\u0421\u0421": 4707, "\u0430\u043b": 4708, "\u0431\u0430\u043d": 4709, "\u0432\u0430\u0436": 4710, "\u0438\u0433": 4711, "\u0438\u0442\u0435\u043b\u0438": 4712, "\u043a\u043e\u043d\u0442\u0430\u043a\u0442": 4713, "\u043d\u0430\u0441": 4714, "\u043e\u0440\u0438\u044f": 4715, "\u043f\u0440\u0430\u0432\u043b\u0435\u043d\u0438\u044f": 4716, "\u0440\u0438\u043d\u0430": 4717, "\u0441\u043c\u0430\u043d": 4718, "\u0442\u043e\u0432": 4719, "\u0447\u0435\u043a": 4720, "\u0447\u0435\u043d\u044c": 4721, "\u2581100%": 4722, "\u2581<": 4723, "\u2581AU": 4724, "\u2581Adobe": 4725, "\u2581De": 4726, "\u2581Moscow": 4727, "\u2581Pin": 4728, "\u2581Sex": 4729, "\u2581Step": 4730, "\u2581below": 4731, "\u2581dat": 4732, "\u2581exp": 4733, "\u2581favor": 4734, "\u2581go": 4735, "\u2581know": 4736, "\u2581mo": 4737, "\u2581using": 4738, "\u2581wat": 4739, "\u2581widget": 4740, "\u2581\u041a\u0410": 4741, "\u2581\u041a\u043e": 4742, "\u2581\u041c\u043e\u0441\u043a\u0432\u0430": 4743, "\u2581\u041f\u0440\u0430\u0432\u043e": 4744, "\u2581\u0421\u0440\u043e\u043a": 4745, "\u2581\u0421\u0442\u0440\u043e": 4746, "\u2581\u0427\u0438": 4747, "\u2581\u0430\u0431\u043e": 4748, "\u2581\u0432\u0430\u0448\u0438\u043c": 4749, "\u2581\u0434\u0435\u0432": 4750, "\u2581\u0434\u0438\u0430\u0433\u043d\u043e\u0441\u0442\u0438\u043a\u0430": 4751, "\u2581\u0434\u0438\u0440\u0435\u043a\u0442\u043e\u0440": 4752, "\u2581\u0436\u0438\u0432": 4753, "\u2581\u043a\u043b\u0430\u0441\u0441": 4754, "\u2581\u043a\u043e\u043d": 4755, "\u2581\u043c\u0435\u0440\u043e\u043f\u0440\u0438\u044f\u0442\u0438\u0439": 4756, "\u2581\u043c\u043e\u0439": 4757, "\u2581\u043d\u0430\u0448\u0438": 4758, "\u2581\u043d\u043e\u0432\u0438\u043d": 4759, "\u2581\u043f\u043e\u043a\u0443\u043f\u0430\u0442\u0435\u043b\u044f": 4760, "\u2581\u043f\u043e\u0441\u0442\u043e\u044f\u043d\u043d\u043e": 4761, "\u2581\u043f\u0440\u043e\u0434\u0443\u043a\u0442\u044b": 4762, "\u2581\u043f\u0440\u043e\u0445\u043e\u0434\u0438\u043b": 4763, "\u2581\u0440\u0430\u0439\u043e\u043d": 4764, "\u2581\u0440\u0435\u0448\u0435\u043d\u0438\u044f": 4765, "\u2581\u0441\u043e\u0437\u0434\u0430\u043d\u0438\u044f": 4766, "\u2581\u0444\u0438\u0437\u0438\u0447\u0435\u0441\u043a\u043e": 4767, "\u2581\u0444\u0443\u043d\u043a\u0446\u0438\u043e\u043d": 4768, "\u2581\u201c": 4769, "\u2581\u2022": 4770, "''": 4771, "-13": 4772, "-20": 4773, "100%": 4774, "10000": 4775, "1111": 4776, "159": 4777, "347": 4778, "454": 4779, "55": 4780, "73": 4781, "Gra": 4782, "Is": 4783, "Sur": 4784, "TER": 4785, "bbe": 4786, "blog": 4787, "cii": 4788, "content": 4789, "cz": 4790, "drog": 4791, "goda": 4792, "grade": 4793, "loos": 4794, "mea": 4795, "mr": 4796, "nych": 4797, "ofer": 4798, "pper": 4799, "prze": 4800, "py": 4801, "roz": 4802, "side": 4803, "stva": 4804, "tha": 4805, "ticket": 4806, "tip": 4807, "tool": 4808, "urs": 4809, "vide": 4810, "volu": 4811, "war": 4812, "we": 4813, "\u0411\u0443\u043a": 4814, "\u0412\u0410": 4815, "\u0412\u0415\u0420": 4816, "\u0414\u041a": 4817, "\u0416\u0414": 4818, "\u0422\u0443\u0493\u0430\u043d": 4819, "\u0430\u043d\u0438\u0435": 4820, "\u0430\u0442\u0435\u043b\u0435\u043c": 4821, "\u0432\u0438": 4822, "\u0436\u0438": 4823, "\u0436\u043d\u0435": 4824, "\u043b\u0430\u0440": 4825, "\u043b\u0435\u0442\u0435": 4826, "\u043b\u0438\u0446\u0435": 4827, "\u043b\u043e\u0436": 4828, "\u043c\u043d": 4829, "\u043c\u043d\u043e\u0436": 4830, "\u043d\u0442\u043e\u0432": 4831, "\u043d\u044f": 4832, "\u043d\u044f\u0442": 4833, "\u043e\u0442\u0435\u0440\u0430\u043f\u0438\u044f": 4834, "\u043f\u0440": 4835, "\u0440\u0435\u0434\u043d\u044f\u044f": 4836, "\u0440\u043e\u0432\u0430": 4837, "\u0441\u0442\u0430\u0432\u043b\u044f\u0442\u044c": 4838, "\u0441\u0442\u0432\u0443\u0435\u0442": 4839, "\u0442\u0435\u043b\u0435\u0439": 4840, "\u0442\u0435\u043b\u044c\u043d\u043e\u0439": 4841, "\u0442\u0438\u043a\u0430": 4842, "\u0442\u0438\u043d": 4843, "\u0442\u0438\u0447\u0435\u0441\u043a\u0438\u0435": 4844, "\u0443\u043b\u044c": 4845, "\u0445\u043e\u0434\u0438\u0442\u044c": 4846, "\u0446\u0438\u0439": 4847, "\u2581Delivery": 4848, "\u2581My": 4849, "\u2581Newsletter": 4850, "\u2581Ori": 4851, "\u2581Reg": 4852, "\u2581bottom": 4853, "\u2581can": 4854, "\u2581cena": 4855, "\u2581container": 4856, "\u2581curso": 4857, "\u2581default": 4858, "\u2581function": 4859, "\u2581h": 4860, "\u2581home": 4861, "\u2581instructor": 4862, "\u2581inter": 4863, "\u2581meta": 4864, "\u2581po": 4865, "\u2581pr": 4866, "\u2581scroll": 4867, "\u2581server": 4868, "\u2581shipping": 4869, "\u2581side": 4870, "\u2581ticket": 4871, "\u2581transparent": 4872, "\u2581used": 4873, "\u2581y": 4874, "\u2581\u0410\u043d": 4875, "\u2581\u0428": 4876, "\u2581\u0430\u043b\u043b\u0435\u0440\u0433": 4877, "\u2581\u0432\u043e\u043f\u0440\u043e\u0441\u0430\u043c": 4878, "\u2581\u0434\u0430\u043d\u043d\u044b\u0439": 4879, "\u2581\u0434\u043e\u043a\u0443\u043c\u0435\u043d\u0442\u043e\u0432": 4880, "\u2581\u0437\u0430\u0439\u043c": 4881, "\u2581\u0437\u0430\u043d\u0438\u043c\u0430\u0442\u044c\u0441\u044f": 4882, "\u2581\u0437\u0435\u043b\u0435\u043d": 4883, "\u2581\u0438\u043c\u0435\u043d\u0438": 4884, "\u2581\u043a\u043e\u043f": 4885, "\u2581\u043a\u043e\u0442\u043e\u0440\u043e\u0439": 4886, "\u2581\u043a\u0440\u043e\u0432\u0438": 4887, "\u2581\u043a\u0443\u0440\u0441\u044b": 4888, "\u2581\u043a\u04af\u043d\u0456": 4889, "\u2581\u043b\u0438\u0442\u0440": 4890, "\u2581\u043b\u0438\u0447\u043d\u043e": 4891, "\u2581\u043d\u0430\u0448\u0438\u043c": 4892, "\u2581\u043e\u043a\u0430\u0437\u0430\u043d\u0438\u044f": 4893, "\u2581\u043e\u0440": 4894, "\u2581\u043e\u0442\u0432\u0435\u0442\u0441\u0442\u0432\u0435\u043d\u043d": 4895, "\u2581\u043e\u0444\u0435\u0440\u0442\u0430": 4896, "\u2581\u043f": 4897, "\u2581\u043f\u0435\u0440": 4898, "\u2581\u043f\u043e\u0434\u0430\u0440\u043e\u043a": 4899, "\u2581\u043f\u043e\u0434\u0434\u0435\u0440\u0436\u043a\u0443": 4900, "\u2581\u043f\u043e\u043b\u044c": 4901, "\u2581\u043f\u043e\u043c\u0435\u0449\u0435\u043d\u0438\u044f": 4902, "\u2581\u043f\u0440\u0438\u0435\u043c\u0435": 4903, "\u2581\u043f\u0440\u043e\u0434": 4904, "\u2581\u043f\u0440\u043e\u0434\u043e\u043b\u0436\u0438": 4905, "\u2581\u043f\u0440\u043e\u0444": 4906, "\u2581\u0440\u0430\u0434\u0438": 4907, "\u2581\u0440\u0435\u0431\u0451\u043d\u043a\u0430": 4908, "\u2581\u0441\u0432\u043e\u0431\u043e\u0434\u043d\u043e": 4909, "\u2581\u0441\u043a\u043b\u0430\u0434\u0430": 4910, "\u2581\u0441\u043e\u0441\u0442\u043e\u044f\u043d\u0438\u0435": 4911, "\u2581\u0441\u043f\u0430\u043c": 4912, "\u2581\u0441\u0447\u0435\u0442\u043e\u0432": 4913, "\u2581\u0442\u0440\u0430\u043d\u0441\u043f\u043e\u0440\u0442": 4914, "\u2581\u0442\u0440\u0435\u0431\u0443\u0435\u0442\u0441\u044f": 4915, "\u2581\u0442\u0443\u0440\u0430": 4916, "\u2581\u0443\u0434\u043e\u0431\u043d\u043e": 4917, "\u2581\u0444\u0438\u0437\u0438\u0447\u0435\u0441\u043a\u0438\u0445": 4918, "\u2581\u044d\u0442\u0443": 4919, "-2010": 4920, "-42": 4921, "/3": 4922, "0001": 4923, "108": 4924, "2019": 4925, "256": 4926, "320": 4927, "4,9": 4928, "565": 4929, "7.00": 4930, "737": 4931, "738": 4932, "89": 4933, "</": 4934, "=\"": 4935, "><": 4936, "AA": 4937, "AB": 4938, "AM": 4939, "CI": 4940, "Car": 4941, "DAY": 4942, "EGA": 4943, "Information": 4944, "LT": 4945, "MP": 4946, "MR": 4947, "MZ": 4948, "NEC": 4949, "PS": 4950, "RIT": 4951, "TEX": 4952, "UAH": 4953, "UX": 4954, "We": 4955, "XXX": 4956, "YA": 4957, "YS": 4958, "ZE": 4959, "ale": 4960, "appoint": 4961, "ball": 4962, "bet": 4963, "bu": 4964, "cam": 4965, "can": 4966, "cari": 4967, "closure": 4968, "cra": 4969, "cru": 4970, "dad": 4971, "dini": 4972, "enzi": 4973, "font": 4974, "general": 4975, "gh": 4976, "glob": 4977, "hd": 4978, "hell": 4979, "heq": 4980, "hram": 4981, "hu": 4982, "ilor": 4983, "international": 4984, "ises": 4985, "kh": 4986, "khar": 4987, "kov": 4988, "kz": 4989, "lg": 4990, "lica": 4991, "life": 4992, "model": 4993, "nner": 4994, "occupation": 4995, "ons": 4996, "ori": 4997, "ose": 4998, "ponent": 4999, "protec": 5000, "quote": 5001, "raf": 5002, "rece": 5003, "rv": 5004, "r\u0259": 5005, "sca": 5006, "shire": 5007, "tes": 5008, "ties": 5009, "walk": 5010, "}}": 5011, "\u0098": 5012, "\u0405": 5013, "\u0410\u0410": 5014, "\u0410\u041b\u042c": 5015, "\u0410\u041d\u0418": 5016, "\u0414\u041d": 5017, "\u0415\u041d\u0418\u0415": 5018, "\u0415\u0422\u0418": 5019, "\u0418\u0412": 5020, "\u0418\u0422": 5021, "\u0418\u043d\u0444\u043e\u0440\u043c\u0430\u0442\u0438\u043a\u0430": 5022, "\u041a\u0410\u0417": 5023, "\u041a\u043e\u043e\u0440\u0434\u0438\u043d": 5024, "\u041c\u0430\u0442\u0435\u043c\u0430\u0442\u0438\u043a\u0430": 5025, "\u041d\u0422": 5026, "\u041e\u0417": 5027, "\u041e\u0441\u043d\u043e\u0432\u043d\u044b\u0435": 5028, "\u0421\u041a\u041e": 5029, "\u0421\u041f\u041e\u0420\u0422": 5030, "\u0421\u042b": 5031, "\u0421\u0432\u043e\u0431\u043e\u0434": 5032, "\u0421\u0443\u043f\u0435\u0440": 5033, "\u0422\u0411": 5034, "\u0423\u0420": 5035, "\u0424\u0420": 5036, "\u0428\u0423": 5037, "\u0430\u0432": 5038, "\u0430\u0435\u0442": 5039, "\u0430\u0442\u043e\u0440\u0430": 5040, "\u0430\u0446\u0438\u043e\u043d\u043d\u043e\u0433\u043e": 5041, "\u0431\u0430\u0441": 5042, "\u0431\u043b\u0438": 5043, "\u0432\u0430\u0440\u0434": 5044, "\u0432\u043e\u0441\u0442\u043e\u0447\u043d": 5045, "\u0432\u044b\u043c": 5046, "\u0432\u044f\u0437\u044c": 5047, "\u0433\u043b\u0430\u0441": 5048, "\u0433\u0440\u0443\u0437": 5049, "\u0434\u0435\u043d\u0438": 5050, "\u0434\u0435\u0440": 5051, "\u0434\u0435\u044f": 5052, "\u0434\u0436": 5053, "\u0434\u0438\u043a": 5054, "\u0434\u0438\u043d\u0433": 5055, "\u0434\u043e\u0431\u0440\u0435": 5056, "\u0434\u043e\u0445\u043e\u0434": 5057, "\u0435\u0433\u043e": 5058, "\u0435\u0436": 5059, "\u0435\u0437\u0434": 5060, "\u0435\u0437\u0434\u0430": 5061, "\u0435\u043a\u0446\u0438\u0438": 5062, "\u0435\u043b\u0435": 5063, "\u0435\u0440\u0430": 5064, "\u0435\u0440\u044b": 5065, "\u0435\u0441\u0442\u0435": 5066, "\u0435\u0441\u0442\u044c": 5067, "\u0436\u0435\u043d\u0435": 5068, "\u0436\u0436": 5069, "\u0436\u0438\u0440": 5070, "\u0436\u043a\u0438": 5071, "\u0437\u0430\u0432": 5072, "\u0437\u0430\u043a\u043e\u043d\u043e\u0434\u0430\u0442\u0435\u043b\u044c\u0441\u0442\u0432\u0430": 5073, "\u0437\u0430\u043f": 5074, "\u0437\u043e\u0431\u0440\u0430\u0436": 5075, "\u0437\u044f": 5076, "\u0438\u0441\u044c": 5077, "\u0438\u0442\u0435\u0442": 5078, "\u0438\u0442\u0441\u044f": 5079, "\u0438\u0445": 5080, "\u043a\u0430\u0442\u0430": 5081, "\u043a\u0435\u043c": 5082, "\u043a\u043b": 5083, "\u043a\u043b\u0443\u0431": 5084, "\u043a\u043e\u0432\u0430": 5085, "\u043a\u043e\u0432\u0441\u043a\u0438": 5086, "\u043a\u0440\u0435\u0434\u0438\u0442": 5087, "\u043a\u0440\u044b\u0442\u0438\u0435": 5088, "\u043b\u0430\u0436": 5089, "\u043b\u0430\u0441\u044c": 5090, "\u043b\u0435\u0433": 5091, "\u043b\u0435\u0442\u0430": 5092, "\u043b\u0435\u0442\u0438": 5093, "\u043b\u0438\u0447": 5094, "\u043b\u0438\u0447\u043d\u0430": 5095, "\u043b\u043e\u0433\u043e": 5096, "\u043b\u043e\u0436\u0435\u043d\u0438\u0435": 5097, "\u043b\u043e\u043a": 5098, "\u043b\u043e\u043d": 5099, "\u043b\u043e\u0448": 5100, "\u043b\u044b": 5101, "\u043b\u044c\u043d\u0430\u044f": 5102, "\u043b\u044c\u043d\u0435": 5103, "\u043b\u044f\u0446\u0438": 5104, "\u043c\u0430\u0442\u0440\u0438": 5105, "\u043c\u0438\u043c\u043e": 5106, "\u043c\u043d\u043e\u0433\u043e": 5107, "\u043c\u043e\u043b\u043e": 5108, "\u043c\u043e\u0440\u0430": 5109, "\u043c\u0443\u043d": 5110, "\u043d\u0430\u0432": 5111, "\u043d\u0430\u0440\u0430": 5112, "\u043d\u0435\u043d\u0438\u0435": 5113, "\u043d\u0438\u0445": 5114, "\u043d\u043e\u043a": 5115, "\u043d\u043e\u0441\u0438\u0442\u044c": 5116, "\u043d\u044f\u044f": 5117, "\u043e\u0431\u043e\u0440\u0443\u0434\u043e\u0432\u0430\u043d": 5118, "\u043e\u0431\u0440\u0430\u0437": 5119, "\u043e\u0432\u0430\u043d": 5120, "\u043e\u0432\u043a\u0438": 5121, "\u043e\u0432\u0441\u043a\u0438": 5122, "\u043e\u043a\u0430": 5123, "\u043e\u043f\u0442": 5124, "\u043e\u0440\u0434\u0430": 5125, "\u043e\u0441\u043d\u043e\u0432": 5126, "\u043e\u0441\u0442\u0430": 5127, "\u043e\u0447\u043d\u043e\u0439": 5128, "\u043f\u0438\u0441\u0430\u0442\u0438": 5129, "\u043f\u043a\u0430": 5130, "\u043f\u043b\u0430": 5131, "\u043f\u043b\u0438\u0432": 5132, "\u043f\u043b\u043e": 5133, "\u043f\u043e\u0437": 5134, "\u043f\u043e\u0442\u0440\u0435\u0431": 5135, "\u043f\u0440\u043e\u0432\u043e\u0436\u0434\u0435\u043d": 5136, "\u043f\u044b\u0442": 5137, "\u0440\u0430\u0437\u0440\u0430\u0431\u043e\u0442\u0447\u0438\u043a": 5138, "\u0440\u0430\u043a": 5139, "\u0440\u0430\u043c": 5140, "\u0440\u0438\u0445": 5141, "\u0440\u0438\u0446\u0430": 5142, "\u0440\u043e": 5143, "\u0440\u043e\u0441\u0441": 5144, "\u0440\u0441\u0442\u0432\u043e": 5145, "\u0440\u0443\u0436": 5146, "\u0441\u0430\u043a": 5147, "\u0441\u0430\u043d\u0434\u0440": 5148, "\u0441\u043a\u0443\u044e": 5149, "\u0441\u043b\u0443\u0436\u0438": 5150, "\u0441\u043c\u0435": 5151, "\u0441\u043e\u043b\u044c": 5152, "\u0441\u043f\u0435\u0448": 5153, "\u0441\u0442\u0432\u0435": 5154, "\u0441\u0442\u0432\u0435\u043d": 5155, "\u0441\u0442\u0440\u043e\u0438\u0442\u044c": 5156, "\u0441\u0442\u0443\u043f\u0430\u0442\u044c": 5157, "\u0441\u0442\u044f\u0445": 5158, "\u0441\u04e9\u0437": 5159, "\u0442\u0435\u043b\u044c\u043d\u043e\u0433\u043e": 5160, "\u0442\u0438\u0432": 5161, "\u0442\u0438\u043a\u0443": 5162, "\u0442\u043e\u043a": 5163, "\u0442\u0440\u043e\u043f": 5164, "\u0442\u0441": 5165, "\u0442\u0443\u0440\u044b": 5166, "\u0443\u0437": 5167, "\u0443\u043a\u0430": 5168, "\u0444\u0438\u0440\u043c": 5169, "\u0444\u043e\u0440": 5170, "\u0444\u043e\u0440\u043c": 5171, "\u0446\u0435\u043c": 5172, "\u0446\u0435\u043d\u0435\u043d": 5173, "\u0446\u0438\u0435\u0439": 5174, "\u0447\u0435\u043b": 5175, "\u0447\u0435\u0441\u0442\u0432\u0435": 5176, "\u0447\u0438\u043a\u043e\u0432": 5177, "\u0447\u0438\u0441\u043b\u0435": 5178, "\u0447\u0438\u0442": 5179, "\u0447\u0438\u0442\u0430": 5180, "\u0447\u0438\u0445": 5181, "\u0447\u043d\u0438": 5182, "\u0447\u043d\u044b\u043c": 5183, "\u0448\u0430\u044f": 5184, "\u0448\u0435\u043d": 5185, "\u0448\u0435\u043d\u0438": 5186, "\u0448\u0438\u043c\u0438": 5187, "\u0448\u043a\u0438": 5188, "\u0448\u0443\u044e": 5189, "\u0449\u0438\u043c": 5190, "\u044b\u043c\u0438": 5191, "\u044c\u043d\u044b\u043c": 5192, "\u044d\u043a\u0441": 5193, "\u044d\u043d\u0435\u0440\u0433\u043e": 5194, "\u044d\u0440": 5195, "\u044e\u0449\u0438\u043c": 5196, "\u044f\u0441\u043d\u0435": 5197, "\u044f\u0442\u044c\u0441\u044f": 5198, "\u0491": 5199, "\u05ea\u05dd": 5200, "\u2013": 5201, "\u2581(11": 5202, "\u2581(6": 5203, "\u258101": 5204, "\u258119,": 5205, "\u25811930": 5206, "\u25812,3": 5207, "\u25812002": 5208, "\u25812018": 5209, "\u25812019": 5210, "\u258129,": 5211, "\u258130%": 5212, "\u258159": 5213, "\u25818.": 5214, "\u258180": 5215, "\u2581AS": 5216, "\u2581Academic": 5217, "\u2581Bir": 5218, "\u2581Bona": 5219, "\u2581Bund": 5220, "\u2581Cloud": 5221, "\u2581Club": 5222, "\u2581DE": 5223, "\u2581Days": 5224, "\u2581Designer": 5225, "\u2581Free": 5226, "\u2581Green": 5227, "\u2581Ha": 5228, "\u2581Hum": 5229, "\u2581Inf": 5230, "\u2581Latvia": 5231, "\u2581Master": 5232, "\u2581Me": 5233, "\u2581Nick": 5234, "\u2581OFF": 5235, "\u2581POS": 5236, "\u2581PR": 5237, "\u2581Permalink": 5238, "\u2581River": 5239, "\u2581Sar": 5240, "\u2581Services": 5241, "\u2581Swiss": 5242, "\u2581Ta": 5243, "\u2581Time": 5244, "\u2581Wall": 5245, "\u2581Will": 5246, "\u2581X": 5247, "\u2581YouTube": 5248, "\u2581agreed": 5249, "\u2581am": 5250, "\u2581are": 5251, "\u2581authority": 5252, "\u2581being": 5253, "\u2581celebrity": 5254, "\u2581cruise": 5255, "\u2581experience": 5256, "\u2581express": 5257, "\u2581free": 5258, "\u2581google": 5259, "\u2581handle": 5260, "\u2581keeles": 5261, "\u2581kg": 5262, "\u2581least": 5263, "\u2581maintenance": 5264, "\u2581master": 5265, "\u2581months": 5266, "\u2581needed": 5267, "\u2581old": 5268, "\u2581on": 5269, "\u2581portal": 5270, "\u2581possible": 5271, "\u2581profi": 5272, "\u2581rene": 5273, "\u2581royal": 5274, "\u2581scientist": 5275, "\u2581til": 5276, "\u2581und": 5277, "\u2581we": 5278, "\u2581would": 5279, "\u2581years": 5280, "\u2581\u0410\u0434": 5281, "\u2581\u0411\u043e\u0433\u0430": 5282, "\u2581\u0412\u0435\u043b\u0438\u043a\u043e\u0431\u0440\u0438\u0442\u0430\u043d\u0438\u0438": 5283, "\u2581\u0413\u043e\u0441\u043f\u043e\u0434\u0430": 5284, "\u2581\u0413\u043e\u0441\u043f\u043e\u0434\u044c": 5285, "\u2581\u0415\u0433\u043e": 5286, "\u2581\u0417\u0430\u043a\u043e\u043d\u0430": 5287, "\u2581\u0417\u0430\u043f\u0430\u0434": 5288, "\u2581\u041a\u0430\u0431\u0438\u043d\u0435\u0442": 5289, "\u2581\u041a\u0430\u0437\u0430\u0445\u0441\u0442\u0430\u043d": 5290, "\u2581\u041a\u043e\u043c\u043f\u043b\u0435\u043a\u0441": 5291, "\u2581\u041c\u041e\u041d": 5292, "\u2581\u041c\u043e\u0434\u0443\u043b": 5293, "\u2581\u041c\u043e\u0441\u043a\u0432\u044b": 5294, "\u2581\u041c\u043e\u0441\u043a\u043e\u0432\u0441\u043a\u043e\u0439": 5295, "\u2581\u041e\u0434\u043d\u0430\u043a\u043e": 5296, "\u2581\u041e\u0440\u0433\u0430\u043d\u0438\u0437\u0430\u0442\u043e\u0440": 5297, "\u2581\u041f\u0410": 5298, "\u2581\u041f\u0420\u0418": 5299, "\u2581\u041f\u0440\u0435\u0436\u0434\u0435": 5300, "\u2581\u041f\u0440\u043e\u0431\u043b\u0435\u043c": 5301, "\u2581\u0420\u0430\u0434\u0438\u043e": 5302, "\u2581\u0420\u043e\u0434": 5303, "\u2581\u0421\u041c\u0418": 5304, "\u2581\u0421\u0435\u0432\u0435\u0440": 5305, "\u2581\u0421\u043f\u0430\u0441": 5306, "\u2581\u0422\u0412": 5307, "\u2581\u0422\u041e\u041e": 5308, "\u2581\u0422\u0435\u0445\u043d\u0438": 5309, "\u2581\u0424\u0430\u043a\u0442": 5310, "\u2581\u0425\u041a": 5311, "\u2581\u0425\u0440\u0438\u0441\u0442\u0430": 5312, "\u2581\u0430\u0432\u0433\u0443\u0441\u0442\u0430": 5313, "\u2581\u0430\u0433\u0435\u043d": 5314, "\u2581\u0430\u0434\u043c\u0438\u043d": 5315, "\u2581\u0430\u0437\u0430\u0440\u0442": 5316, "\u2581\u0430\u043b\u0438": 5317, "\u2581\u0430\u043c\u0435\u0440\u0438\u043a\u0430\u043d\u0441\u043a\u0438": 5318, "\u2581\u0430\u043d\u0430\u043b\u0438\u0437\u0430": 5319, "\u2581\u0431\u0430\u043b\u0430\u043d\u0441": 5320, "\u2581\u0431\u0438\u0437\u043d\u0435\u0441\u043c\u0435\u043d": 5321, "\u2581\u0431\u043e\u043b\u044c\u0448": 5322, "\u2581\u0431\u0440\u043e\u043a\u0435\u0440": 5323, "\u2581\u0431\u0443\u0434\u0443\u0449\u0435\u043c": 5324, "\u2581\u0432\u0430\u0436\u043d\u043e": 5325, "\u2581\u0432\u0430\u043b\u044e\u0442\u0430": 5326, "\u2581\u0432\u0435\u043d\u0442\u0438\u043b": 5327, "\u2581\u0432\u0435\u0449\u044c": 5328, "\u2581\u0432\u043e\u0437\u0440\u0430\u0441\u0442": 5329, "\u2581\u0432\u043e\u0437\u0440\u0430\u0441\u0442\u0430": 5330, "\u2581\u0432\u043e\u043b\u043d": 5331, "\u2581\u0432\u043e\u0441\u043f\u043e\u043b\u044c\u0437\u043e\u0432\u0430\u0442\u044c\u0441\u044f": 5332, "\u2581\u0432\u043e\u0441\u0441\u0442\u0430\u043d\u043e\u0432\u043b\u0435\u043d\u0438\u044f": 5333, "\u2581\u0432\u0440\u0435\u043c\u0435\u043d\u043d\u043e": 5334, "\u2581\u0432\u0441\u0435\u043c\u0438": 5335, "\u2581\u0432\u0441\u0435\u0445": 5336, "\u2581\u0432\u0442\u043e\u0440\u043e\u0433\u043e": 5337, "\u2581\u0432\u044b\u0435\u0437\u0434": 5338, "\u2581\u0432\u044b\u0438\u0433\u0440\u044b\u0448": 5339, "\u2581\u0433\u0430\u043b": 5340, "\u2581\u0433\u0430\u0440\u0430\u043d\u0442": 5341, "\u2581\u0433\u0430\u0440\u0434\u0435\u0440\u043e\u0431": 5342, "\u2581\u0433\u0438\u043d\u0435\u043a\u043e\u043b\u043e\u0433": 5343, "\u2581\u0433\u043e\u0434\u0443": 5344, "\u2581\u0433\u0440\u0430\u043d\u0442": 5345, "\u2581\u0434\u0430\u043b": 5346, "\u2581\u0434\u0432\u0443\u0445": 5347, "\u2581\u0434\u0438\u0441\u0446\u0438\u043f\u043b\u0438\u043d": 5348, "\u2581\u0434\u043d\u0435\u043c": 5349, "\u2581\u0434\u043d\u0438": 5350, "\u2581\u0434\u043d\u044f": 5351, "\u2581\u0434\u043e\u0431\u0430\u0432\u0438\u043b": 5352, "\u2581\u0434\u043e\u0431\u0438\u0442\u044c\u0441\u044f": 5353, "\u2581\u0434\u043e\u0431\u0440\u043e": 5354, "\u2581\u0434\u043e\u043b\u043b\u0430\u0440\u043e\u0432": 5355, "\u2581\u0434\u043e\u043f\u0443\u0441\u043a\u0430": 5356, "\u2581\u0434\u043e\u0441\u0442\u043e\u0432\u0435\u0440\u043d": 5357, "\u2581\u0434\u043e\u0445\u043e\u0434\u0430": 5358, "\u2581\u0434\u043e\u0445\u043e\u0434\u043e\u0432": 5359, "\u2581\u0434\u0440\u0443\u0433\u0438\u0435": 5360, "\u2581\u0434\u0440\u0443\u0433\u0443\u044e": 5361, "\u2581\u0435\u0435": 5362, "\u2581\u0435\u0441\u0442\u0435\u0441\u0442\u0432\u0435\u043d\u043d\u043e": 5363, "\u2581\u0435\u0451": 5364, "\u2581\u0436\u0435\u043b\u0430\u0435": 5365, "\u2581\u0436\u0435\u043b\u0430\u044e": 5366, "\u2581\u0436\u0435\u0442": 5367, "\u2581\u0436\u0438\u043b": 5368, "\u2581\u0437\u0430\u0432\u043e\u0434": 5369, "\u2581\u0437\u0430\u0434\u0430\u0447\u0438": 5370, "\u2581\u0437\u0430\u043a\u043b\u044e\u0447\u0435\u043d\u0438\u044f": 5371, "\u2581\u0437\u0430\u043a\u043e\u043d\u043e\u0434\u0430\u0442\u0435\u043b": 5372, "\u2581\u0437\u0430\u043c\u0443\u0436": 5373, "\u2581\u0437\u0434\u0430\u043d\u0438\u044f": 5374, "\u2581\u0437\u0434\u0440\u0430\u0432\u043e": 5375, "\u2581\u0437\u0434\u0440\u0430\u0432\u043e\u043e\u0445\u0440\u0430\u043d\u0435\u043d\u0438\u044f": 5376, "\u2581\u0438\u0433\u0440\u0443": 5377, "\u2581\u0438\u0434\u0435\u0438": 5378, "\u2581\u0438\u0437\u0432\u0435\u0441\u0442\u043d\u044b": 5379, "\u2581\u0438\u043c": 5380, "\u2581\u0438\u043c\u0443\u0449\u0435\u0441\u0442\u0432\u043e": 5381, "\u2581\u0438\u043d\u0432\u0435\u0441\u0442\u0438\u0446\u0438\u044f": 5382, "\u2581\u0438\u043d\u0442\u0435\u0440\u0430\u043a\u0442\u0438\u0432": 5383, "\u2581\u0438\u043d\u0442\u0435\u0440\u0435\u0441\u043e\u0432": 5384, "\u2581\u0438\u043d\u0442\u0435\u0440\u0435\u0441\u044b": 5385, "\u2581\u0438\u043d\u0444\u043e\u0440\u043c\u0430\u0446\u0438\u0435\u0439": 5386, "\u2581\u0438\u0441\u043a\u0430": 5387, "\u2581\u0438\u0441\u043a\u0443\u0441\u0441\u0442\u0432": 5388, "\u2581\u0438\u0441\u043f\u043e\u043b\u044c\u0437\u0443\u0435\u043c": 5389, "\u2581\u0438\u044e\u043b\u044f": 5390, "\u2581\u043a\u0430\u0436\u0434\u043e\u0439": 5391, "\u2581\u043a\u0430\u043a\u0438\u0445": 5392, "\u2581\u043a\u0430\u043f\u0438\u0442\u0430\u043b": 5393, "\u2581\u043a\u0430\u0442\u0435\u0433\u043e\u0440": 5394, "\u2581\u043a\u0430\u0444\u0435\u0434\u0440": 5395, "\u2581\u043a\u0430\u0447\u0435\u0441\u0442\u0432\u0430": 5396, "\u2581\u043a\u0432\u0430\u043b\u0438\u0444\u0438\u043a\u0430\u0446\u0438\u0438": 5397, "\u2581\u043a\u043b\u0430\u0432\u0438\u0448": 5398, "\u2581\u043a\u043b\u0438\u043c\u0430\u0442": 5399, "\u2581\u043a\u043e\u043c\u043c\u0435\u043d\u0442\u0430\u0440\u0438\u0438": 5400, "\u2581\u043a\u043e\u043d\u0435\u0447\u043d\u043e": 5401, "\u2581\u043a\u043e\u043d\u0442\u0440\u0430\u043a\u0442": 5402, "\u2581\u043a\u043e\u0440\u043f\u043e\u0440\u0430\u0446": 5403, "\u2581\u043a\u043e\u0442\u043e\u0440\u044b\u043c": 5404, "\u2581\u043a\u0440\u0443\u043f\u043d\u0435\u0439\u0448\u0438": 5405, "\u2581\u043a\u0443\u043b\u044c\u0442\u0443\u0440\u044b": 5406, "\u2581\u043a\u0443\u043f\u0438\u0442\u044c": 5407, "\u2581\u043b\u0435\u0433\u043a\u043e": 5408, "\u2581\u043b\u044e\u0434\u0435\u0439": 5409, "\u2581\u043c\u0430": 5410, "\u2581\u043c\u0430\u043b\u043e": 5411, "\u2581\u043c\u0430\u0440\u043a\u0438": 5412, "\u2581\u043c\u0435\u0436\u0434\u0443\u043d\u0430\u0440\u043e\u0434\u043d\u043e": 5413, "\u2581\u043c\u0435\u0442\u043e\u0434\u044b": 5414, "\u2581\u043c\u043b\u043d": 5415, "\u2581\u043c\u043d\u0435\u043d\u0438\u0435": 5416, "\u2581\u043c\u043e\u0434": 5417, "\u2581\u043c\u043e\u0434\u0435\u043b": 5418, "\u2581\u043c\u043e\u0435\u0439": 5419, "\u2581\u043c\u043e\u043b\u043e\u0434\u044b\u0445": 5420, "\u2581\u043c\u0443\u0436\u0430": 5421, "\u2581\u043d": 5422, "\u2581\u043d\u0430\u0434\u043e": 5423, "\u2581\u043d\u0430\u0441\u0442\u0440\u043e\u0439\u043a\u0438": 5424, "\u2581\u043d\u0430\u0448\u0435\u0433\u043e": 5425, "\u2581\u043e\u0431\u0430": 5426, "\u2581\u043e\u0431\u0435\u0441\u043f\u0435\u0447\u0435\u043d\u0438\u0435": 5427, "\u2581\u043e\u0431\u043b": 5428, "\u2581\u043e\u0431\u043e\u0440\u043e\u0442": 5429, "\u2581\u043e\u0431\u043e\u0440\u0443\u0434\u043e\u0432\u0430\u043d\u0438\u0435": 5430, "\u2581\u043e\u0431\u0440\u0430": 5431, "\u2581\u043e\u0431\u0443": 5432, "\u2581\u043e\u0431\u0443\u0447\u0430": 5433, "\u2581\u043e\u0431\u0449\u0435\u0439": 5434, "\u2581\u043e\u0431\u0449\u0435\u0441\u0442\u0432\u0430": 5435, "\u2581\u043e\u0431\u0449\u0435\u0441\u0442\u0432\u043e": 5436, "\u2581\u043e\u0431\u044a\u0435\u043c": 5437, "\u2581\u043e\u043f\u0435\u0440\u0430\u0446\u0438\u0439": 5438, "\u2581\u043e\u043f\u0435\u0440\u0430\u0446\u0438\u044f": 5439, "\u2581\u043e\u043f\u0440\u0435\u0434\u0435\u043b\u0435\u043d\u043d\u044b\u0445": 5440, "\u2581\u043e\u0440\u0433\u0430\u043d\u044b": 5441, "\u2581\u043e\u0441": 5442, "\u2581\u043e\u0441\u043d\u043e\u0432\u0430\u043d\u0438\u0438": 5443, "\u2581\u043e\u0441\u0442\u0430\u0435\u0442\u0441\u044f": 5444, "\u2581\u043e\u0441\u0442\u0430\u043d\u043e\u0432": 5445, "\u2581\u043e\u0441\u0443\u0449\u0435\u0441\u0442\u0432": 5446, "\u2581\u043e\u0441\u0443\u0449\u0435\u0441\u0442\u0432\u043b\u0435\u043d\u0438\u044f": 5447, "\u2581\u043e\u0442\u0432\u0435\u0442\u0441\u0442\u0432\u0435\u043d\u043d\u043e\u0441\u0442\u044c": 5448, "\u2581\u043e\u0442\u0434\u0435\u043b\u0430": 5449, "\u2581\u043e\u0442\u0434\u0435\u043b\u044c\u043d\u043e": 5450, "\u2581\u043e\u0442\u0435\u0446": 5451, "\u2581\u043e\u0442\u043a\u0443\u0434\u0430": 5452, "\u2581\u043f\u0435\u0440\u0435\u0434\u0430\u0447\u0435": 5453, "\u2581\u043f\u0438\u043a": 5454, "\u2581\u043f\u0438\u0442\u043e\u043c": 5455, "\u2581\u043f\u043b\u043e\u0449\u0430\u0434": 5456, "\u2581\u043f\u043e\u0434\u043b\u0438\u043d\u043d": 5457, "\u2581\u043f\u043e\u043a\u0443\u043f\u0430\u0442\u0435\u043b\u044c": 5458, "\u2581\u043f\u043e\u043b\u043e\u0436\u0435\u043d\u0438\u0435": 5459, "\u2581\u043f\u043e\u043b\u044c\u0437\u043e\u0432\u0430\u0442\u044c\u0441\u044f": 5460, "\u2581\u043f\u043e\u043b\u044c\u0437\u0443": 5461, "\u2581\u043f\u043e\u0441\u0435\u0449\u0430": 5462, "\u2581\u043f\u043e\u0441\u043b\u0435\u0434\u043d\u0435\u0433\u043e": 5463, "\u2581\u043f\u043e\u0441\u0442\u0430\u0432\u043a\u0438": 5464, "\u2581\u043f\u043e\u0442\u043e\u043c\u0443": 5465, "\u2581\u043f\u043e\u0442\u0440\u0435\u0431\u0438\u0442\u0435\u043b\u044f": 5466, "\u2581\u043f\u0440\u0430\u0432": 5467, "\u2581\u043f\u0440\u0430\u0432\u0438\u043b\u044c\u043d\u043e": 5468, "\u2581\u043f\u0440\u0435\u0434\u043b\u043e\u0436\u0435\u043d\u0438\u0439": 5469, "\u2581\u043f\u0440\u0435\u0434\u043e\u0441\u0442\u0430\u0432\u043b\u0435\u043d\u0438\u0435": 5470, "\u2581\u043f\u0440\u0435\u0434\u043f\u043e\u043b\u043e\u0436\u0438": 5471, "\u2581\u043f\u0440\u0435\u0434\u043f\u043e\u0447\u0438\u0442\u0430": 5472, "\u2581\u043f\u0440\u0435\u0441\u0441": 5473, "\u2581\u043f\u0440\u0438\u0432\u0430\u0442\u043d\u043e\u0441\u0442": 5474, "\u2581\u043f\u0440\u0438\u0435\u043c\u0430": 5475, "\u2581\u043f\u0440\u0438\u0437\u043d\u0430": 5476, "\u2581\u043f\u0440\u0438\u043c\u0435\u043d\u0435": 5477, "\u2581\u043f\u0440\u0438\u043c\u0435\u0440\u043d\u043e": 5478, "\u2581\u043f\u0440\u043e\u0432\u0435\u0434\u0435": 5479, "\u2581\u043f\u0440\u043e\u0433\u0440\u0430\u043c\u043c\u0430": 5480, "\u2581\u043f\u0440\u043e\u0434\u043e\u043b\u0436\u0435\u043d\u0438\u0435": 5481, "\u2581\u043f\u0440\u043e\u0441": 5482, "\u2581\u043f\u0440\u043e\u0446\u0435\u0441\u0441\u043e\u0432": 5483, "\u2581\u0440\u0430\u0431\u043e\u0442\u043d\u0438\u043a": 5484, "\u2581\u0440\u0430\u0431\u043e\u0447\u0438\u0435": 5485, "\u2581\u0440\u0430\u0437\u0432\u0438\u0442\u0438\u0435": 5486, "\u2581\u0440\u0430\u0437\u043c\u0435": 5487, "\u2581\u0440\u0430\u0437\u043c\u0435\u0449\u0435\u043d": 5488, "\u2581\u0440\u0430\u0437\u044a": 5489, "\u2581\u0440\u0430\u043d": 5490, "\u2581\u0440\u043e\u0434\u0438\u043b\u0441\u044f": 5491, "\u2581\u0440\u043e\u043b\u044c": 5492, "\u2581\u0440\u044b\u043d\u043a\u0430": 5493, "\u2581\u0440\u044b\u043d\u043a\u0435": 5494, "\u2581\u0441\u0430\u043c\u044b\u043c": 5495, "\u2581\u0441\u0430\u0445\u0430\u0440": 5496, "\u2581\u0441\u0432\u0435\u0434\u0435\u043d\u0438\u0439": 5497, "\u2581\u0441\u0434\u0435\u043b\u0430\u043b": 5498, "\u2581\u0441\u0434\u0435\u043b\u0430\u0442\u044c": 5499, "\u2581\u0441\u0434\u0435\u043b\u043e\u043a": 5500, "\u2581\u0441\u0435\u0431\u044f": 5501, "\u2581\u0441\u0435\u043a\u0443\u043d\u0434": 5502, "\u2581\u0441\u0435\u043c\u0435\u0439": 5503, "\u2581\u0441\u0435\u043d\u0442\u044f\u0431\u0440\u0435": 5504, "\u2581\u0441\u043b\u0435\u0434\u0443\u044e\u0449\u0435\u0435": 5505, "\u2581\u0441\u043b\u0443": 5506, "\u2581\u0441\u043c\u0430\u0440\u0442\u0444\u043e\u043d": 5507, "\u2581\u0441\u043e\u0431\u043b\u044e\u0434\u0430\u0442\u044c": 5508, "\u2581\u0441\u043e\u0431\u043b\u044e\u0434\u0435\u043d\u0438\u0435": 5509, "\u2581\u0441\u043e\u0431\u0441\u0442\u0432\u0435\u043d\u043d\u043e": 5510, "\u2581\u0441\u043e\u0432\u0435\u0440\u0448\u0435\u043d": 5511, "\u2581\u0441\u043e\u0432\u0435\u0440\u0448\u0435\u043d\u043d\u043e": 5512, "\u2581\u0441\u043e\u043e\u0431\u0449\u0438\u0442\u044c": 5513, "\u2581\u0441\u043e\u043e\u0442\u0432\u0435\u0442\u0441\u0442\u0432\u0438\u0435": 5514, "\u2581\u0441\u043e\u043e\u0442\u0432\u0435\u0442\u0441\u0442\u0432\u0443\u0435\u0442": 5515, "\u2581\u0441\u043e\u0441\u0442\u0430\u0432\u0435": 5516, "\u2581\u0441\u043f": 5517, "\u2581\u0441\u0440\u0435\u0434\u0441\u0442\u0432\u0430": 5518, "\u2581\u0441\u0442\u0430\u043b": 5519, "\u2581\u0441\u0442\u0430\u044f": 5520, "\u2581\u0441\u0442\u043e\u0438\u043c\u043e\u0441\u0442\u0438": 5521, "\u2581\u0441\u0443": 5522, "\u2581\u0441\u0444\u043e\u0440\u043c\u0438\u0440\u043e\u0432\u0430": 5523, "\u2581\u0442\u0435\u0431\u0435": 5524, "\u2581\u0442\u0435\u043c\u0435": 5525, "\u2581\u0442\u0435\u0441\u0442": 5526, "\u2581\u0442\u0435\u0445\u043d\u0438\u0447\u0435\u0441\u043a\u0438": 5527, "\u2581\u0442\u043e\u043c\u0443": 5528, "\u2581\u0442\u0440\u0430": 5529, "\u2581\u0442\u0440\u0430\u0433": 5530, "\u2581\u0442\u0440\u0435\u0431\u043e\u0432\u0430\u043d\u0438\u0439": 5531, "\u2581\u0442\u0440\u0435\u0445": 5532, "\u2581\u0443\u0432\u0435\u043b\u0438\u0447\u0435\u043d": 5533, "\u2581\u0443\u043a\u0430\u0437\u0430\u043d\u043d\u044b\u0445": 5534, "\u2581\u0443\u0440\u043e\u0432\u0435\u043d\u044c": 5535, "\u2581\u0443\u0441\u0442\u0430\u043d\u043e\u0432": 5536, "\u2581\u0443\u0441\u0442\u0430\u043d\u043e\u0432\u043a\u0438": 5537, "\u2581\u0443\u0441\u0442\u043e\u0439\u0447\u0438\u0432\u043e\u0441\u0442": 5538, "\u2581\u0443\u0447\u0440\u0435\u0434\u0438\u0442\u0435\u043b": 5539, "\u2581\u0444\u0430\u0439\u043b": 5540, "\u2581\u0444\u0430\u0439\u043b\u044b": 5541, "\u2581\u0444\u0438\u0437\u0438\u043a\u0430": 5542, "\u2581\u0444\u043b\u043e\u0442": 5543, "\u2581\u0444\u043e\u0440\u043c": 5544, "\u2581\u0444\u043e\u0440\u043c\u0438\u0440\u043e\u0432\u0430\u043d\u0438\u044f": 5545, "\u2581\u0444\u0443\u043d\u043a\u0446\u0438\u0439": 5546, "\u2581\u0445\u0430\u0440\u0430\u043a\u0442\u0435\u0440": 5547, "\u2581\u0445\u0435": 5548, "\u2581\u0445\u043e\u0442\u0435\u043b": 5549, "\u2581\u0445\u043e\u0442\u0435\u043b\u0438": 5550, "\u2581\u0445\u0440\u0430\u043d\u0438": 5551, "\u2581\u0446\u0432\u0435\u0442": 5552, "\u2581\u0446\u0435\u043b\u0438": 5553, "\u2581\u0446\u0435\u043d\u0442\u0440\u0443": 5554, "\u2581\u0446\u0435\u0440\u043a\u0432\u0438": 5555, "\u2581\u0447\u0430\u0441\u0442\u043d\u043e\u0441\u0442\u0438": 5556, "\u2581\u0447\u0430\u0442": 5557, "\u2581\u0447\u0435\u043a": 5558, "\u2581\u0447\u0435\u043a\u0430": 5559, "\u2581\u0447\u0435\u043b\u043e\u0432\u0435\u043a\u043e\u043c": 5560, "\u2581\u0448\u043a\u043e\u043b\u0435": 5561, "\u2581\u0448\u0442\u0430\u0442": 5562, "\u2581\u044d\u043a\u0441\u043f\u043b\u0443\u0430\u0442\u0430": 5563, "\u2581\u044d\u0441": 5564, "\u2581\u044d\u0442\u0438\u043c\u0438": 5565, "\u2581\u044d\u0442\u0438\u0445": 5566, "\u2581\u044f\u0432\u043b\u044f\u044e\u0442\u0441\u044f": 5567, "\u2581\u05d4": 5568, "\u2581\u0627\u0644\u0625\u0644\u0643\u062a\u0631\u0648\u0646\u064a": 5569, "\u540d": 5570, "\u756a\u53f7": 5571, "-08": 5572, "......": 5573, "07": 5574, "1000": 5575, "2000": 5576, "264": 5577, "652": 5578, "770": 5579, "786": 5580, "789": 5581, "CSS": 5582, "GA": 5583, "KP": 5584, "MIN": 5585, "Please": 5586, "What": 5587, "aab": 5588, "block": 5589, "brand": 5590, "build": 5591, "edu": 5592, "home": 5593, "iin": 5594, "ik": 5595, "ining": 5596, "kun": 5597, "nk": 5598, "oty": 5599, "ring": 5600, "stry": 5601, "sys": 5602, "tet": 5603, "urre": 5604, "zd": 5605, "\u0415\u041d\u0418\u042f": 5606, "\u041c\u043e\u0441\u043a\u0432\u0430": 5607, "\u0420\u0415": 5608, "\u0430\u043a\u0442\u0438\u0432": 5609, "\u0434\u0438\u044f": 5610, "\u043a\u0440\u0438": 5611, "\u043a\u0442\u0435\u0440": 5612, "\u043b\u0430\u0442": 5613, "\u043d\u0430\u0440\u043e\u0434": 5614, "\u043e\u0447\u043a\u0430": 5615, "\u043f\u0430\u0440\u0442\u0430\u043c\u0435\u043d\u0442": 5616, "\u043f\u0438\u0442\u0430": 5617, "\u043f\u043b\u0430\u0442": 5618, "\u0442\u043e\u043c": 5619, "\u0445\u043e": 5620, "\u0447\u0438\u0439": 5621, "\u25811.": 5622, "\u2581Wave": 5623, "\u2581eyes": 5624, "\u2581friend": 5625, "\u2581grant": 5626, "\u2581index": 5627, "\u2581kor": 5628, "\u2581lips": 5629, "\u2581mag": 5630, "\u2581pravila": 5631, "\u2581quest": 5632, "\u2581required": 5633, "\u2581template": 5634, "\u2581tyre": 5635, "\u2581\u041c\u0430\u0433": 5636, "\u2581\u041e\u0441\u043d\u043e\u0432\u043d\u043e": 5637, "\u2581\u0420\u043e\u0436": 5638, "\u2581\u0422\u0430": 5639, "\u2581\u0430\u043b\u043c\u0430": 5640, "\u2581\u0440": 5641, "!!!!": 5642, "469": 5643, "483": 5644, "598": 5645, "60": 5646, "649": 5647, "661": 5648, "668": 5649, "<": 5650, "Connect": 5651, "HO": 5652, "Lo": 5653, "Op": 5654, "Program": 5655, "Sa": 5656, "Sch": 5657, "Sen": 5658, "access": 5659, "af": 5660, "ap": 5661, "arri": 5662, "condi": 5663, "ds": 5664, "eld": 5665, "elektr": 5666, "itel": 5667, "kap": 5668, "kod": 5669, "lam": 5670, "lever": 5671, "modul": 5672, "national": 5673, "raw": 5674, "ski": 5675, "this": 5676, "tional": 5677, "trip": 5678, "yi": 5679, "\u0410\u0420": 5680, "\u0410\u0422\u0410": 5681, "\u041e\u041f": 5682, "\u0427\u0435\u0440": 5683, "\u0428\u0410": 5684, "\u0430\u0440": 5685, "\u0433\u0443\u0440": 5686, "\u0434\u043e\u0432": 5687, "\u0435\u043d\u043d\u044b\u0439": 5688, "\u0435\u0441\u0442": 5689, "\u0438\u0442\u0435\u043b\u044c\u043d\u043e": 5690, "\u043a\u0430\u0440\u0434": 5691, "\u043b\u0435\u043a\u0442\u0440": 5692, "\u043b\u0435\u043f": 5693, "\u043d\u0438\u043d\u0433": 5694, "\u043d\u0441\u043a\u0438": 5695, "\u043e\u0440\u0435": 5696, "\u0440\u044f": 5697, "\u0441\u043e\u0432": 5698, "\u0443\u0440\u0433": 5699, "\u044d": 5700, "\u044d\u043d\u0434": 5701, "\u258116": 5702, "\u2581Add": 5703, "\u2581Ch": 5704, "\u2581Eng": 5705, "\u2581Fax": 5706, "\u2581Q": 5707, "\u2581Special": 5708, "\u2581aid": 5709, "\u2581chi": 5710, "\u2581collection": 5711, "\u2581core": 5712, "\u2581disc": 5713, "\u2581economia": 5714, "\u2581firm": 5715, "\u2581format": 5716, "\u2581get": 5717, "\u2581level": 5718, "\u2581organisation": 5719, "\u2581round": 5720, "\u2581\u0414\u043e\u0441\u0442\u0430\u0432\u043a\u0430": 5721, "\u2581\u041e\u043b\u0438\u043c\u043f\u0438\u0430\u0434\u0430": 5722, "\u2581\u041e\u0445": 5723, "\u2581\u041f\u0440\u043e\u0433\u0440\u0430\u043c\u043c\u0430": 5724, "\u2581\u0420\u0430\u0441\u0441": 5725, "\u2581\u0425\u043e\u0442\u0435\u043b": 5726, "\u2581\u0434\u0435\u043b\u0430": 5727, "\u2581\u043a\u043e\u0440": 5728, "\u2581\u0442\u044b": 5729, "\u2581\u0443\u043b\u0438\u0446\u0430": 5730, "044": 5731, "666": 5732, "755": 5733, "768": 5734, "87": 5735, "EX": 5736, "Group": 5737, "Pan": 5738, "STRA": 5739, "ZA": 5740, "[28]": 5741, "and": 5742, "bber": 5743, "esti": 5744, "glas": 5745, "graph": 5746, "grip": 5747, "ja": 5748, "kli": 5749, "lector": 5750, "lenie": 5751, "liya": 5752, "nie": 5753, "rede": 5754, "school": 5755, "sel": 5756, "suit": 5757, "the": 5758, "west": 5759, "yy": 5760, "\u0411\u0438": 5761, "\u0420\u0418": 5762, "\u0422\u0435\u0440": 5763, "\u0431\u0440\u043e": 5764, "\u0434\u043d\u0435": 5765, "\u0435\u0432\u0440\u043e": 5766, "\u0435\u043a\u0441": 5767, "\u0438\u043d\u0430": 5768, "\u043a\u0435\u0439": 5769, "\u043b\u0435\u043c": 5770, "\u043d\u0438\u0446\u0438": 5771, "\u0441\u0442\u0440\u043e\u0438\u0442\u0435\u043b\u044c": 5772, "\u0441\u0443\u0434": 5773, "\u25812-": 5774, "\u25812.": 5775, "\u2581Account": 5776, "\u2581Kak": 5777, "\u2581Question": 5778, "\u2581Security": 5779, "\u2581com": 5780, "\u2581key": 5781, "\u2581privilege": 5782, "\u2581refuse": 5783, "\u2581represent": 5784, "\u2581trip": 5785, "\u2581voucher": 5786, "\u2581\u0418\u0432\u0430\u043d\u043e\u0432": 5787, "\u2581\u041f\u0440\u043e\u0435\u043a\u0442": 5788, "\u2581\u0421\u0430\u043c": 5789, "\u2581\u0422\u0435\u043b\u0435": 5790, "\u2581\u0423\u0447\u0435\u0431": 5791, "\u2581\u043e\u0434\u043e\u0431\u0440\u0435\u043d": 5792, "\u2581\u043e\u0442\u043a\u0440\u044b\u0442\u044b": 5793, "\u2581\u043f\u0440\u0435\u0434\u0441\u0442\u0430\u0432\u043b\u044f\u0435\u0442": 5794, "1-4": 5795, "53": 5796, "66": 5797, "889": 5798, "Cal": 5799, "EMENT": 5800, "Ga": 5801, "Photo": 5802, "REE": 5803, "Ver": 5804, "chte": 5805, "clo": 5806, "dar": 5807, "esh": 5808, "foot": 5809, "hen": 5810, "ia": 5811, "lls": 5812, "lt": 5813, "male": 5814, "mult": 5815, "old": 5816, "orientation": 5817, "pher": 5818, "ps": 5819, "quet": 5820, "rat": 5821, "raz": 5822, "schul": 5823, "system": 5824, "ungs": 5825, "\u00d7": 5826, "\u0411\u0443\u0434": 5827, "\u041f\u0438": 5828, "\u0426\u0418\u042f": 5829, "\u0430\u043d\u0434": 5830, "\u0436\u043e": 5831, "\u043a\u0442": 5832, "\u043b\u0430\u0432\u0430": 5833, "\u043b\u0443\u0436": 5834, "\u0440\u043d\u0430": 5835, "\u0442\u0435\u043b\u0438": 5836, "\u05d1\u05dc": 5837, "\u258100": 5838, "\u2581Acc": 5839, "\u2581Subscribe": 5840, "\u2581ab": 5841, "\u2581agro": 5842, "\u2581body": 5843, "\u2581https": 5844, "\u2581products": 5845, "\u2581registered": 5846, "\u2581session": 5847, "\u2581stro": 5848, "\u2581ulo": 5849, "\u2581za": 5850, "\u2581zakon": 5851, "\u2581\u041a\u043b\u0430\u0441": 5852, "\u2581\u041e\u043f\u0438\u0441\u0430\u043d\u0438\u0435": 5853, "\u2581\u042d": 5854, "\u2581\u043f\u0440\u0435\u0434\u0441\u0442\u0430\u0432\u0438\u0442\u0435\u043b\u044f": 5855, "\u2581\u0441\u0441\u044b\u043b\u043a\u0443": 5856, "520": 5857, "745": 5858, "836": 5859, "890": 5860, "ARE": 5861, "As": 5862, "BA": 5863, "Cho": 5864, "EED": 5865, "Et": 5866, "Free": 5867, "Job": 5868, "Ne": 5869, "RIP": 5870, "Student": 5871, "TIN": 5872, "UE": 5873, "UP": 5874, "VAL": 5875, "[17]": 5876, "call": 5877, "chet": 5878, "cons": 5879, "dig": 5880, "educa": 5881, "graf": 5882, "het": 5883, "ids": 5884, "im": 5885, "mn": 5886, "nye": 5887, "pur": 5888, "respons": 5889, "sett": 5890, "stra": 5891, "tax": 5892, "two": 5893, "unt": 5894, "van": 5895, "vka": 5896, "will": 5897, "ysta": 5898, "\u0412\u0438\u0434\u0435\u043e": 5899, "\u0421\u041a": 5900, "\u0421\u0430\u043c\u043e": 5901, "\u0422\u0440\u0430\u043d\u0441": 5902, "\u0422\u0443\u0440": 5903, "\u0431\u043e\u043b\u0435": 5904, "\u0437\u0434\u0430\u043d\u0438\u0435": 5905, "\u043a\u043e\u043b\u0438": 5906, "\u043b\u0438\u043d\u0430": 5907, "\u043b\u0443\u0448": 5908, "\u043d\u0441": 5909, "\u043e\u0432\u0438\u0447": 5910, "\u043e\u043b": 5911, "\u043e\u0447\u043d\u044b\u0435": 5912, "\u0440\u0430\u0436": 5913, "\u0442\u0440\u043e\u043b": 5914, "\u0443\u043c\u0430": 5915, "\u0446\u0435\u043d": 5916, "\u2581Department": 5917, "\u2581PAS": 5918, "\u2581Post": 5919, "\u2581Title": 5920, "\u2581Up": 5921, "\u2581additional": 5922, "\u2581content": 5923, "\u2581face": 5924, "\u2581fir": 5925, "\u2581indeks": 5926, "\u2581look": 5927, "\u2581mark": 5928, "\u2581market": 5929, "\u2581procure": 5930, "\u2581property": 5931, "\u2581sop": 5932, "\u2581up": 5933, "\u2581valid": 5934, "\u2581\u0414\u0440\u0443\u0433\u0438": 5935, "\u2581\u0420\u0430\u0434\u0438": 5936, "\u2581\u0422\u0440\u0435\u0431": 5937, "\u2581\u0431\u043e\u043a\u0441": 5938, "\u2581\u043c\u043e": 5939, "\u2581\u043f\u0440\u043e\u0438\u0437\u0432\u043e\u0434\u0438\u0442\u0435\u043b": 5940, "\u2581\u043f\u0443\u0431\u043b\u0438\u043a\u0430\u0446\u0438\u044f": 5941, "\u2581\u044d\u0442\u043e\u0433\u043e": 5942, "**": 5943, "-2": 5944, "1-1": 5945, "127": 5946, "141": 5947, "431": 5948, "437": 5949, "757": 5950, "966": 5951, "ATA": 5952, "BU": 5953, "DO": 5954, "Google": 5955, "ILDI": 5956, "INE": 5957, "ODY": 5958, "OST": 5959, "Ro": 5960, "SHOP": 5961, "Sal": 5962, "TRA": 5963, "Uni": 5964, "WN": 5965, "aci": 5966, "ase": 5967, "communication": 5968, "ctor": 5969, "drug": 5970, "ec": 5971, "edig": 5972, "graphic": 5973, "gs": 5974, "gue": 5975, "ih": 5976, "ings": 5977, "iy": 5978, "iyah": 5979, "jav": 5980, "jt": 5981, "om": 5982, "orna": 5983, "prac": 5984, "tation": 5985, "tice": 5986, "\u0414\u0436": 5987, "\u041c\u0435\u043d": 5988, "\u0422\u0423": 5989, "\u0430\u0431": 5990, "\u0432\u043e\u0434\u0438\u0442\u044c": 5991, "\u043a\u0430\u043a": 5992, "\u043b\u043e\u0432\u0435": 5993, "\u043e\u0444\u0438": 5994, "\u043f\u043e\u043b\u0430\u0433\u0430": 5995, "\u043f\u0443\u0441": 5996, "\u0440\u0438\u044f": 5997, "\u0441\u043a": 5998, "\u0442\u0435\u043b\u044c\u0441\u0442\u0432\u043e": 5999, "\u2581100": 6000, "\u2581AD": 6001, "\u2581Card": 6002, "\u2581Individual": 6003, "\u2581L": 6004, "\u2581Note": 6005, "\u2581Pas": 6006, "\u2581We": 6007, "\u2581bill": 6008, "\u2581exhibi": 6009, "\u2581foundation": 6010, "\u2581given": 6011, "\u2581has": 6012, "\u2581im": 6013, "\u2581itin": 6014, "\u2581ml": 6015, "\u2581parts": 6016, "\u2581pup": 6017, "\u2581race": 6018, "\u2581telefon": 6019, "\u2581ton": 6020, "\u2581train": 6021, "\u2581\u0410\u0440": 6022, "\u2581\u0414\u043e\u043c\u0430\u0448\u043d": 6023, "\u2581\u041c\u0418": 6024, "\u2581\u041d\u0430\u0446\u0438\u043e\u043d\u0430\u043b\u044c\u043d\u043e": 6025, "\u2581\u041e\u043d\u043b\u0430\u0439\u043d": 6026, "\u2581\u042e": 6027, "\u2581\u0430\u0440\u0431\u0438\u0442\u0440\u0430\u0436": 6028, "\u2581\u0437\u0430\u0432\u0435\u0434\u0435\u043d\u0438\u0439": 6029, "\u2581\u0438\u043d\u0432\u0435\u0441\u0442\u0438\u0446\u0438\u0438": 6030, "\u2581\u043c\u0430\u0433\u0438": 6031, "\u2581\u043e\u0431\u0437\u043e\u0440": 6032, "\u2581\u043f\u0438\u0442\u0430\u043d\u0438\u044f": 6033, "\u2581\u044e\u0440\u0438\u0434\u0438\u0447\u0435\u0441\u043a\u0438": 6034, "(2)": 6035, "135": 6036, "150": 6037, "2.": 6038, "338": 6039, "365": 6040, "594": 6041, "653": 6042, "683": 6043, "766": 6044, "787": 6045, "App": 6046, "Bal": 6047, "Click": 6048, "Prov": 6049, "ROP": 6050, "TARE": 6051, "TP": 6052, "Val": 6053, "WAR": 6054, "Ye": 6055, "[29]": 6056, "`": 6057, "ats": 6058, "biz": 6059, "curs": 6060, "ii": 6061, "ind": 6062, "ku": 6063, "let": 6064, "mir": 6065, "oni": 6066, "organ": 6067, "player": 6068, "plete": 6069, "prove": 6070, "ra": 6071, "shi": 6072, "var": 6073, "vin": 6074, "vite": 6075, "viv": 6076, "vo": 6077, "ze": 6078, "\u00a9": 6079, "\u041f\u0435\u0442\u0435\u0440\u0431\u0443\u0440\u0433": 6080, "\u0438\u0437\u0438\u0440\u043e\u0432\u0430\u0442\u044c": 6081, "\u0438\u0446\u0438": 6082, "\u0438\u0447\u0435\u0441\u043a\u0438": 6083, "\u043b\u0438\u043a\u043e\u0432\u0430": 6084, "\u043d\u0435\u0437": 6085, "\u043d\u0438\u0446\u0435": 6086, "\u043d\u044d": 6087, "\u043f\u0443\u0431": 6088, "\u0441\u043b\u0443\u0436\u0435\u0431\u043d": 6089, "\u0441\u0442\u0430\u0432\u043a\u0438": 6090, "\u0442\u0430\u0439": 6091, "\u0442\u043e\u0440\u0430": 6092, "\u0442\u0440\u0435\u0442\u044c\u0438\u0445": 6093, "\u0444\u043e": 6094, "\u0448\u0438\u0440\u0435\u043d": 6095, "\u044f\u0437": 6096, "\u0451\u0442\u0441\u044f": 6097, "\u2581About": 6098, "\u2581DO": 6099, "\u2581If": 6100, "\u2581Sh": 6101, "\u2581Yum": 6102, "\u2581apartment": 6103, "\u2581cittadinanza": 6104, "\u2581computer": 6105, "\u2581flat": 6106, "\u2581gid": 6107, "\u2581hear": 6108, "\u2581hidden": 6109, "\u2581house": 6110, "\u2581implant": 6111, "\u2581institution": 6112, "\u2581land": 6113, "\u2581persona": 6114, "\u2581pode": 6115, "\u2581score": 6116, "\u2581town": 6117, "\u2581vin": 6118, "\u2581\u0411\u0435\u0441\u043f\u043b\u0430\u0442": 6119, "\u2581\u0412\u0430\u043b": 6120, "\u2581\u0412\u043d\u0438\u043c\u0430\u043d\u0438\u0435": 6121, "\u2581\u0412\u0440\u0435\u043c\u0435": 6122, "\u2581\u0412\u0440\u0435\u043c\u044f": 6123, "\u2581\u0413\u0435\u0440": 6124, "\u2581\u041c\u0435": 6125, "\u2581\u041c\u043e\u0434\u0435\u043b": 6126, "\u2581\u041f\u043b\u0430\u043d": 6127, "\u2581\u041f\u0440\u0438\u043c\u0435\u0440": 6128, "\u2581\u041f\u0441\u0438\u0445\u043e\u043b\u043e\u0433\u0438\u044f": 6129, "\u2581\u0420\u0430\u0437\u043c\u0435\u0440": 6130, "\u2581\u0420\u0435\u043a\u043b\u0430\u043c\u0430": 6131, "\u2581\u0421\u0430\u043d\u043a\u0442": 6132, "\u2581\u0421\u043f\u043e\u0441\u043e\u0431": 6133, "\u2581\u0421\u0442\u0430\u043d\u0434\u0430\u0440\u0442": 6134, "\u2581\u0426\u0435\u043b\u044c": 6135, "\u2581\u0431\u0443\u0434\u0435\u0442\u0435": 6136, "\u2581\u0434\u043e\u043f": 6137, "\u2581\u0434\u043e\u0441\u0442\u0430\u0442\u043e\u0447\u043d\u043e": 6138, "\u2581\u043b\u0435\u043a\u0446\u0438\u0438": 6139, "\u2581\u043c\u0430\u0445\u0430": 6140, "\u2581\u043e\u0431\u0449\u0435": 6141, "\u2581\u0441\u043e\u0437\u0434\u0430": 6142, "\u2581\u0441\u0441\u044b\u043b\u043a\u043e\u0439": 6143, "****": 6144, "-23": 6145, "-26": 6146, "...]": 6147, "210": 6148, "800": 6149, "863": 6150, "Don": 6151, "MEN": 6152, "Man": 6153, "QUI": 6154, "RED": 6155, "Ran": 6156, "Run": 6157, "[37]": 6158, "ager": 6159, "as": 6160, "ay": 6161, "bar": 6162, "bul": 6163, "ccup": 6164, "chen": 6165, "dre": 6166, "ek": 6167, "isset": 6168, "ium": 6169, "mark": 6170, "mon": 6171, "null": 6172, "rna": 6173, "sok": 6174, "stin": 6175, "view": 6176, "\u041e\u0412\u0410": 6177, "\u0420\u041e\u0414": 6178, "\u0431\u043e\u0442\u0430": 6179, "\u0432\u0440\u0435\u043c\u0435": 6180, "\u0435\u0441": 6181, "\u0437\u0432\u043e\u043d": 6182, "\u0438\u0441\u043f\u043e\u043b": 6183, "\u043d\u043e\u043c\u0443": 6184, "\u043f\u0430\u0440": 6185, "\u0441\u0438\u0442\u0435": 6186, "\u0441\u0442\u0430\u043d": 6187, "\u0443\u043c": 6188, "\u0443\u0447\u0438\u0442\u044c": 6189, "\u2581%": 6190, "\u2581123": 6191, "\u258122.": 6192, "\u258199": 6193, "\u2581Agent": 6194, "\u2581Auditor": 6195, "\u2581CE": 6196, "\u2581Mess": 6197, "\u2581Passe": 6198, "\u2581Sales": 6199, "\u2581School": 6200, "\u2581United": 6201, "\u2581ada": 6202, "\u2581aluminium": 6203, "\u2581any": 6204, "\u2581contest": 6205, "\u2581display": 6206, "\u2581dr": 6207, "\u2581forum": 6208, "\u2581freg": 6209, "\u2581langs": 6210, "\u2581meal": 6211, "\u2581nav": 6212, "\u2581passen": 6213, "\u2581refer": 6214, "\u2581sector": 6215, "\u2581ship": 6216, "\u2581spet": 6217, "\u2581stock": 6218, "\u2581vi": 6219, "\u2581\u0410\u043b": 6220, "\u2581\u0414\u0435\u0432": 6221, "\u2581\u0414\u0438": 6222, "\u2581\u0415\u0441\u0442\u044c": 6223, "\u2581\u041a\u0430\u0434": 6224, "\u2581\u0421\u043e\u0437\u0434\u0430": 6225, "\u2581\u0430\u043d\u0433\u043b\u0438\u0439\u0441\u043a\u0438": 6226, "\u2581\u0431\u043b\u044e\u0434": 6227, "\u2581\u0432\u0435\u0442": 6228, "\u2581\u0432\u0437\u0438\u043c\u0430": 6229, "\u2581\u0435\u0432\u0440\u043e": 6230, "\u2581\u0438\u0433\u0440\u0435": 6231, "\u2581\u043b\u0438\u0447\u043d\u043e\u0441\u0442\u0438": 6232, "\u2581\u043f\u043b\u0430\u0442\u0430": 6233, "\u2581\u043f\u043b\u043e\u0449\u0430\u0434\u044c": 6234, "\u2581\u0440\u0430\u0437\u0440\u0430\u0431\u043e\u0442\u043a\u0430": 6235, "\u2581\u0440\u0443\u043a\u043e\u0432\u043e\u0434\u0438\u0442\u0435\u043b\u044c": 6236, "\u2581\u0441\u043c\u0435": 6237, "\u2581\u0444\u0430": 6238, "\u2581\u0447\u0430\u0441\u0442\u044c": 6239, "\u2581\u0447\u0435\u0440\u043d\u043e": 6240, "\u2581\u0448\u0430\u0431\u043b\u043e\u043d": 6241, "-30": 6242, ".10.": 6243, "122": 6244, "160": 6245, "1998": 6246, "2-0": 6247, "339": 6248, "344": 6249, "47": 6250, "496": 6251, "547": 6252, "549": 6253, "667": 6254, "720": 6255, "760": 6256, "805": 6257, "867": 6258, "870": 6259, "99)": 6260, "990": 6261, "Bud": 6262, "EGO": 6263, "ERE": 6264, "Event": 6265, "HY": 6266, "MS": 6267, "Ph": 6268, "TE": 6269, "[27]": 6270, "[30]": 6271, "[6]": 6272, "adresse": 6273, "bric": 6274, "cookies": 6275, "gl": 6276, "ident": 6277, "indu": 6278, "ju": 6279, "mali": 6280, "ning": 6281, "opinion": 6282, "ow": 6283, "pek": 6284, "pyt": 6285, "ram": 6286, "rase": 6287, "sort": 6288, "square": 6289, "stol": 6290, "tive": 6291, "tribution": 6292, "turing": 6293, "viz": 6294, "ware": 6295, "\u0410\u0428": 6296, "\u0415\u0421": 6297, "\u0418\u0427": 6298, "\u041b\u0410\u0421": 6299, "\u041d\u0414": 6300, "\u041d\u0415\u0422": 6301, "\u041d\u0418\u041a": 6302, "\u041d\u041e\u0413\u041e": 6303, "\u0422\u041e\u0420": 6304, "\u0422\u0420": 6305, "\u0430\u043a\u0442": 6306, "\u0432\u0430\u0439": 6307, "\u0432\u0438\u0436": 6308, "\u0433\u0440\u0430\u043d": 6309, "\u0436\u0438\u0432\u0430\u0435\u0442": 6310, "\u0437\u0438\u044f": 6311, "\u0438\u0439\u0441\u043a\u0438": 6312, "\u0438\u043c\u043e": 6313, "\u0438\u0442\u0435\u043b\u0435\u043d": 6314, "\u043a\u043e\u0440\u043e": 6315, "\u043a\u0443\u043b": 6316, "\u043a\u0443\u0440\u0441": 6317, "\u043c\u0430\u0439": 6318, "\u043d\u0435\u0441": 6319, "\u043e\u0442\u0430": 6320, "\u0441\u043a\u0438\u043c\u0438": 6321, "\u0442\u0432\u0438": 6322, "\u0443\u0448\u043a\u0430": 6323, "\u0447\u0442\u043e": 6324, "\u044c\u043d\u043e\u0435": 6325, "\u25811-": 6326, "\u258110000": 6327, "\u25811500": 6328, "\u258148": 6329, "\u25815-": 6330, "\u2581AN": 6331, "\u2581CAT": 6332, "\u2581Certifica": 6333, "\u2581Code": 6334, "\u2581Expert": 6335, "\u2581RFID": 6336, "\u2581Res": 6337, "\u2581Sale": 6338, "\u2581Send": 6339, "\u2581Thank": 6340, "\u2581WWW": 6341, "\u2581another": 6342, "\u2581art": 6343, "\u2581brief": 6344, "\u2581cid": 6345, "\u2581copy": 6346, "\u2581distribution": 6347, "\u2581documents": 6348, "\u2581dogovor": 6349, "\u2581ed": 6350, "\u2581employee": 6351, "\u2581expedi": 6352, "\u2581kod": 6353, "\u2581learned": 6354, "\u2581m": 6355, "\u2581marketing": 6356, "\u2581mikro": 6357, "\u2581mit": 6358, "\u2581monta": 6359, "\u2581national": 6360, "\u2581now": 6361, "\u2581option": 6362, "\u2581pos": 6363, "\u2581provide": 6364, "\u2581purpose": 6365, "\u2581ru": 6366, "\u2581sel": 6367, "\u2581sy": 6368, "\u2581tip": 6369, "\u2581}": 6370, "\u2581\u0412\u0430\u0440": 6371, "\u2581\u0413\u041e": 6372, "\u2581\u0418\u043d\u0441\u0442\u0430\u0433\u0440\u0430\u043c": 6373, "\u2581\u041a\u0430\u043b\u0435\u043d\u0434\u0430\u0440": 6374, "\u2581\u041c\u0435\u0440": 6375, "\u2581\u041c\u0438\u043d": 6376, "\u2581\u041c\u043e\u0439": 6377, "\u2581\u041e\u0410\u041e": 6378, "\u2581\u041f\u0443\u0431\u043b": 6379, "\u2581\u0420\u043e\u0441": 6380, "\u2581\u0421\u043e\u043b": 6381, "\u2581\u0430\u0434\u043c\u0438\u043d\u0438\u0441\u0442\u0440\u0430\u0446\u0438\u0438": 6382, "\u2581\u0430\u043f": 6383, "\u2581\u0432\u0430\u0448\u0435\u043c": 6384, "\u2581\u0432\u0430\u0448\u0438\u0445": 6385, "\u2581\u0432\u043c\u0435\u0441\u0442\u0435": 6386, "\u2581\u0432\u0441\u0435\u0433\u043e": 6387, "\u2581\u0433\u043b\u0430\u0432": 6388, "\u2581\u0434\u0430\u043b\u044c\u043d\u0435\u0439\u0448\u0435\u043c": 6389, "\u2581\u0434\u043e\u043b\u0436\u043d\u044b": 6390, "\u2581\u0437\u0430\u0431\u044b\u043b": 6391, "\u2581\u0437\u0430\u043a\u043e\u043d": 6392, "\u2581\u0437\u0430\u0449\u0438\u0442\u043d": 6393, "\u2581\u043a\u043e\u043d\u0446\u0435\u0440\u0442": 6394, "\u2581\u043a\u043e\u0442\u043e\u0440\u043e\u043c": 6395, "\u2581\u043c\u0435\u0441\u0442": 6396, "\u2581\u043d\u0430\u0441\u0442\u0430\u0432\u043d\u0438\u043a\u0430": 6397, "\u2581\u043d\u0438": 6398, "\u2581\u043e\u0431\u044a\u0435\u043a\u0442\u0430": 6399, "\u2581\u043e\u0434\u0438\u043d": 6400, "\u2581\u043e\u0440\u0433\u0430\u043d\u0438\u0437\u0430\u0446\u0438\u044e": 6401, "\u2581\u043f\u043e\u0436\u0430\u043b": 6402, "\u2581\u043f\u0440\u0430\u0432\u0438\u043b": 6403, "\u2581\u043f\u0441\u0435\u0432\u0434\u043e": 6404, "\u2581\u043f\u044f\u0442\u044c": 6405, "\u2581\u0440\u0435\u0433\u0438\u043e\u043d\u0430": 6406, "\u2581\u0440\u0435\u0433\u0438\u0441\u0442\u0440\u0430\u0446\u0438\u043e\u043d\u043d": 6407, "\u2581\u0440\u0435\u0441\u0442\u043e\u0440\u0430\u043d": 6408, "\u2581\u0440\u0443\u043a\u043e\u0432\u043e\u0434\u0438\u0442\u0435\u043b\u0435\u0439": 6409, "\u2581\u0441\u043e\u0441\u0442\u043e\u044f": 6410, "\u2581\u0441\u0442\u0430\u0442\u0438\u0441\u0442\u0438\u043a": 6411, "\u2581\u0441\u0442\u043e\u0438\u043c\u043e\u0441\u0442\u044c": 6412, "\u2581\u0442\u0443\u0440": 6413, "\u2581\u0444": 6414, "\u2581\u0445\u043e\u0440\u043e\u0448\u043e": 6415, "\u2581\u0627\u0644\u0628\u0631\u064a\u062f": 6416, "+)": 6417, "-03": 6418, "-100": 6419, "-17": 6420, "-18": 6421, ".....": 6422, ".05.": 6423, "1300": 6424, "140": 6425, "205": 6426, "25)": 6427, "456": 6428, "466": 6429, "471": 6430, "6-9": 6431, "672": 6432, "677": 6433, "895": 6434, "98": 6435, "AC": 6436, "Ch": 6437, "ECT": 6438, "ERS": 6439, "ES": 6440, "En": 6441, "FU": 6442, "Ka": 6443, "LES": 6444, "MES": 6445, "Rus": 6446, "TA": 6447, "TI": 6448, "TO": 6449, "Thi": 6450, "als": 6451, "bedingungen": 6452, "body": 6453, "bos": 6454, "col": 6455, "cs": 6456, "db": 6457, "del": 6458, "eli": 6459, "essen": 6460, "eto": 6461, "extra": 6462, "folio": 6463, "fum": 6464, "geme": 6465, "good": 6466, "ig": 6467, "inen": 6468, "ix": 6469, "kW": 6470, "kurs": 6471, "load": 6472, "lona": 6473, "ma": 6474, "mari": 6475, "master": 6476, "mix": 6477, "ner": 6478, "nice": 6479, "nik": 6480, "ord": 6481, "pou": 6482, "privat": 6483, "quart": 6484, "rad": 6485, "rd": 6486, "read": 6487, "rov": 6488, "some": 6489, "sor": 6490, "spe": 6491, "stance": 6492, "ster": 6493, "titel": 6494, "visible": 6495, "xes": 6496, "ye": 6497, "zy": 6498, "\u0411\u043b\u0430\u0433\u043e\u0434\u0430\u0440": 6499, "\u0415\u0419": 6500, "\u0418\u0418": 6501, "\u041f\u0422": 6502, "\u0420\u0410\u0411\u041e\u0422": 6503, "\u0432\u0448\u0438\u0441\u044c": 6504, "\u0433\u0430\u0440": 6505, "\u0434\u0430\u0447\u0443": 6506, "\u0434\u0436\u0435": 6507, "\u0434\u043e\u0436": 6508, "\u0434\u0451": 6509, "\u0436\u0438\u0442\u044c": 6510, "\u0436\u043d\u0438": 6511, "\u0439\u043d": 6512, "\u043a\u043e\u043c\u0435\u043d\u0434\u0443": 6513, "\u043a\u0440": 6514, "\u043a\u0440\u043e": 6515, "\u043d\u043d\u044b\u0445": 6516, "\u043e\u0432\u0430\u043d\u0438\u044f": 6517, "\u043e\u0432\u0441\u043a\u0438\u0439": 6518, "\u043f\u0430\u0434\u0430\u0435\u0442": 6519, "\u043f\u043b": 6520, "\u043f\u043b\u0430\u043d": 6521, "\u043f\u0441\u0438": 6522, "\u043f\u0443\u0442": 6523, "\u0440\u0435\u0433\u0443\u043b": 6524, "\u0440\u0438\u043d": 6525, "\u0440\u0443\u0441": 6526, "\u0441\u043a\u0435": 6527, "\u0442\u0435\u043b\u0435\u0444\u043e\u043d": 6528, "\u0442\u0435\u043b\u044c\u0441\u0442\u0432": 6529, "\u0442\u0435\u0440\u0430\u043f\u0435\u0432\u0442": 6530, "\u0442\u043e\u0440\u044b": 6531, "\u0442\u0441\u044f": 6532, "\u0443\u043c\u043d\u043e": 6533, "\u0443\u0448": 6534, "\u0445\u0438": 6535, "\u0447\u043a\u043e\u0439": 6536, "\u044a": 6537, "\u044b\u04a3\u044b\u0437": 6538, "\u044e\u0449\u0435\u0435": 6539, "\u044f\u0440": 6540, "\u201d": 6541, "\u25811000": 6542, "\u258110:00": 6543, "\u25813.": 6544, "\u25814-": 6545, "\u258150": 6546, "\u2581777": 6547, "\u2581Ab": 6548, "\u2581Child": 6549, "\u2581Compl": 6550, "\u2581Diplom": 6551, "\u2581Events": 6552, "\u2581Google": 6553, "\u2581Group": 6554, "\u2581Info": 6555, "\u2581Institution": 6556, "\u2581Mi": 6557, "\u2581Office": 6558, "\u2581Pen": 6559, "\u2581Personal": 6560, "\u2581Place": 6561, "\u2581Prime": 6562, "\u2581Russian": 6563, "\u2581SUB": 6564, "\u2581Str": 6565, "\u2581Vi": 6566, "\u2581ag": 6567, "\u2581bussen": 6568, "\u2581certi": 6569, "\u2581challenge": 6570, "\u2581citi": 6571, "\u2581co": 6572, "\u2581developer": 6573, "\u2581direct": 6574, "\u2581doctor": 6575, "\u2581each": 6576, "\u2581en": 6577, "\u2581find": 6578, "\u2581he": 6579, "\u2581interesting": 6580, "\u2581kompaniya": 6581, "\u2581list": 6582, "\u2581mob": 6583, "\u2581ms": 6584, "\u2581navigation": 6585, "\u2581nos": 6586, "\u2581notes": 6587, "\u2581operator": 6588, "\u2581persist": 6589, "\u2581please": 6590, "\u2581resa": 6591, "\u2581room": 6592, "\u2581sec": 6593, "\u2581studio": 6594, "\u2581tonn": 6595, "\u2581unsere": 6596, "\u2581vegan": 6597, "\u2581version": 6598, "\u2581x": 6599, "\u2581\u0412\u0435\u0441": 6600, "\u2581\u0412\u043e\u0437": 6601, "\u2581\u0413\u0435": 6602, "\u2581\u0413\u043e\u0441": 6603, "\u2581\u0413\u0443": 6604, "\u2581\u0414\u041e": 6605, "\u2581\u041a\u0438\u0435\u0432": 6606, "\u2581\u041a\u0443\u043f": 6607, "\u2581\u041d\u0438": 6608, "\u2581\u041e\u0433\u0440\u043e\u043c": 6609, "\u2581\u041f\u0435\u0442\u0440\u043e\u0432": 6610, "\u2581\u041f\u043e\u043b\u043e\u0436\u0435\u043d\u0438\u0435": 6611, "\u2581\u0420\u0423": 6612, "\u2581\u0421\u043e\u0442": 6613, "\u2581\u0422\u0435\u0437\u0438": 6614, "\u2581\u0423\u043a\u0430\u0437": 6615, "\u2581\u0426": 6616, "\u2581\u042d\u0442\u0438": 6617, "\u2581\u0430\u043d\u0442\u0438": 6618, "\u2581\u0431\u0435\u0441": 6619, "\u2581\u0431\u043b\u0438\u0436\u0430\u0439\u0448\u0435": 6620, "\u2581\u0431\u0443\u0445\u0433\u0430\u043b\u0442\u0435\u0440": 6621, "\u2581\u0431\u044b\u0441\u0442\u0440\u043e": 6622, "\u2581\u0432\u0435\u0440\u0438": 6623, "\u2581\u0432\u0435\u0442\u0435\u0440\u0438\u043d\u0430\u0440": 6624, "\u2581\u0432\u0441\u044f\u043a\u0438\u0439": 6625, "\u2581\u0434\u0430\u0439": 6626, "\u2581\u0434\u0435\u044f\u0442\u0435\u043b\u044c\u043d\u043e\u0441\u0442\u044c": 6627, "\u2581\u0434\u043e\u043a\u0443\u043c\u0435\u043d\u0442\u0430\u043c\u0438": 6628, "\u2581\u0434\u043e\u043b\u0436\u043d\u043e": 6629, "\u2581\u0434\u043e\u043f\u043e\u043b\u043d\u0438\u0442\u0435\u043b\u044c\u043d\u044b\u0435": 6630, "\u2581\u0437\u0430\u0432\u0435\u0440\u0448\u0435\u043d": 6631, "\u2581\u0437\u0430\u044f\u0432\u043b\u0435\u043d\u0438\u044f": 6632, "\u2581\u0437\u043e\u043b\u043e\u0442\u043e": 6633, "\u2581\u0438\u0437\u043c\u0435\u043d\u0438\u0442\u044c": 6634, "\u2581\u0438\u0437\u043e\u0431\u0440\u0430\u0436\u0435\u043d\u0438\u0435": 6635, "\u2581\u0438\u0441\u043f\u043e\u043b\u044c\u0437\u0443\u0435\u0442": 6636, "\u2581\u0438\u044e\u043d\u044f": 6637, "\u2581\u043a\u0430": 6638, "\u2581\u043a\u0430\u0436\u0434\u043e\u0433\u043e": 6639, "\u2581\u043a\u043e\u043c\u043f\u043b\u0435\u043a\u0441": 6640, "\u2581\u043a\u0443": 6641, "\u2581\u043a\u0443\u0440\u0441\u0435": 6642, "\u2581\u043b\u0435\u043a\u0430\u0440\u0441\u0442\u0432\u0435\u043d\u043d\u044b": 6643, "\u2581\u043b\u0438\u0446\u0435\u043d\u0437\u0438\u044f": 6644, "\u2581\u043b\u0443\u0447\u0448\u0438\u0435": 6645, "\u2581\u043b\u044e\u0431\u043e\u043c": 6646, "\u2581\u043c\u0430\u0441\u0441\u043e\u0432\u043e\u0439": 6647, "\u2581\u043c\u0435\u0431\u0435\u043b\u0438": 6648, "\u2581\u043c\u0435\u0434\u0438\u0446\u0438\u043d\u0441\u043a\u0430": 6649, "\u2581\u043c\u0435\u0442\u0440\u043e": 6650, "\u2581\u043d\u0430\u0448\u0438\u0445": 6651, "\u2581\u043e\u0431\u0440\u0430\u0442\u043d\u043e": 6652, "\u2581\u043e\u0431\u0449\u0435\u043d\u0438\u044f": 6653, "\u2581\u043e\u043a\u0440\u0443\u0433": 6654, "\u2581\u043e\u043f\u0440\u043e\u0441": 6655, "\u2581\u043e\u0441\u043d\u043e\u0432\u043d\u044b\u0435": 6656, "\u2581\u043e\u0442\u0441\u0443\u0442\u0441\u0442\u0432\u0443\u0435\u0442": 6657, "\u2581\u043e\u0444\u0438\u0441\u0430": 6658, "\u2581\u043f\u0430\u0434": 6659, "\u2581\u043f\u0430\u043f": 6660, "\u2581\u043f\u043e\u0437\u0434\u0440\u0430\u0432": 6661, "\u2581\u043f\u043e\u043b\u044c\u0437\u043e\u0432\u0430\u0442\u0435\u043b\u0438": 6662, "\u2581\u043f\u043e\u043c\u043e\u0449\u044c": 6663, "\u2581\u043f\u0440\u0435\u0434\u0441\u0442\u043e\u044f\u0449\u0438": 6664, "\u2581\u043f\u0440\u0435\u043f\u0430\u0440\u0430\u0442": 6665, "\u2581\u043f\u0443\u043d\u043a\u0442\u0443": 6666, "\u2581\u0440\u0435\u0430\u043a\u0446\u0438\u044f": 6667, "\u2581\u0440\u0438\u0441": 6668, "\u2581\u0440\u043e\u0434\u0438": 6669, "\u2581\u0441\u0432\u044f\u0437\u0430\u043d": 6670, "\u2581\u0441\u0435\u043c\u0435\u0439\u0441\u0442\u0432\u0430": 6671, "\u2581\u0441\u043a\u043e\u043b\u044c\u043a\u043e": 6672, "\u2581\u0441\u043e\u0434\u0435\u0440\u0436\u0438\u0442": 6673, "\u2581\u0441\u043e\u0442": 6674, "\u2581\u0441\u0442\u0430\u0440\u0448\u0435": 6675, "\u2581\u0441\u0443\u0431": 6676, "\u2581\u0442\u0430\u043a\u043e\u0439": 6677, "\u2581\u0442\u043e\u0447\u043d\u043e": 6678, "\u2581\u0443\u043a\u0430\u0437\u0430\u043d\u0438\u044f": 6679, "\u2581\u0443\u0447\u0435\u043d\u0438\u043a\u0430": 6680, "\u2581\u0446\u0438\u0444\u0440\u043e\u0432": 6681, "\u2581\u044d\u043a\u0441\u043f\u043b\u0443\u0430\u0442\u0430\u0446\u0438\u0438": 6682, "\u2581\u05dc": 6683, "\").": 6684, "%)": 6685, "-150": 6686, "-25": 6687, "-35": 6688, "-55": 6689, "/1": 6690, "/4": 6691, "/5": 6692, "0.00": 6693, "01)": 6694, "02.2017": 6695, "101": 6696, "102": 6697, "105": 6698, "106": 6699, "132": 6700, "146": 6701, "189": 6702, "2-3": 6703, "2.5": 6704, "2013": 6705, "2016": 6706, "2021": 6707, "220": 6708, "3-3": 6709, "3.1": 6710, "304": 6711, "31)": 6712, "342": 6713, "359": 6714, "384": 6715, "389": 6716, "440": 6717, "459": 6718, "463": 6719, "5,00": 6720, "556": 6721, "6%": 6722, "600": 6723, "642": 6724, "684": 6725, "702": 6726, "756": 6727, "767": 6728, "78)": 6729, "8)": 6730, "844": 6731, ":10": 6732, ":41": 6733, "></": 6734, "ACE": 6735, "AF": 6736, "ATS": 6737, "AUD": 6738, "BH": 6739, "BOOK": 6740, "Ba": 6741, "CV": 6742, "Chat": 6743, "Chi": 6744, "Consult": 6745, "EK": 6746, "ERIA": 6747, "File": 6748, "GR": 6749, "HF": 6750, "HH": 6751, "HU": 6752, "He": 6753, "IDEN": 6754, "IMO": 6755, "INFO": 6756, "IO": 6757, "IRMA": 6758, "JC": 6759, "KY": 6760, "KZ": 6761, "LER": 6762, "LIC": 6763, "LITE": 6764, "LM": 6765, "LN": 6766, "Le": 6767, "MBA": 6768, "Ma": 6769, "Med": 6770, "Met": 6771, "Mont": 6772, "NY": 6773, "NZ": 6774, "Nov": 6775, "OBI": 6776, "OSS": 6777, "PEN": 6778, "Player": 6779, "Port": 6780, "Pub": 6781, "QUA": 6782, "RES": 6783, "RID": 6784, "RT": 6785, "Report": 6786, "SPA": 6787, "STE": 6788, "SU": 6789, "SY": 6790, "TD": 6791, "TW": 6792, "Test": 6793, "VM": 6794, "VN": 6795, "Var": 6796, "WAL": 6797, "Wir": 6798, "YEN": 6799, "Yo": 6800, "[26]": 6801, "acak": 6802, "accord": 6803, "affi": 6804, "apte": 6805, "arts": 6806, "asu": 6807, "ave": 6808, "bri": 6809, "care": 6810, "change": 6811, "chat": 6812, "corr": 6813, "cp": 6814, "duction": 6815, "ell": 6816, "ence": 6817, "etto": 6818, "flam": 6819, "f\u00fcllen": 6820, "gg": 6821, "ggle": 6822, "gj": 6823, "gy": 6824, "ha": 6825, "happy": 6826, "ida": 6827, "igra": 6828, "imo": 6829, "instagram": 6830, "ior": 6831, "ir": 6832, "istic": 6833, "ive": 6834, "ji": 6835, "jor": 6836, "jpeg": 6837, "jpg": 6838, "kk": 6839, "kost": 6840, "kre": 6841, "kt": 6842, "lata": 6843, "ler": 6844, "llow": 6845, "long": 6846, "look": 6847, "lor": 6848, "low": 6849, "luk": 6850, "lux": 6851, "lv": 6852, "mad": 6853, "mall": 6854, "mba": 6855, "men": 6856, "metal": 6857, "microsoft": 6858, "milit": 6859, "multi": 6860, "ndung": 6861, "nging": 6862, "open": 6863, "osi": 6864, "oval": 6865, "ovi": 6866, "pa\u00f1": 6867, "peri": 6868, "phi": 6869, "platform": 6870, "png": 6871, "poly": 6872, "pt": 6873, "pul": 6874, "rach": 6875, "rating": 6876, "reise": 6877, "rier": 6878, "rius": 6879, "rwy": 6880, "semi": 6881, "sense": 6882, "serve": 6883, "she": 6884, "space": 6885, "sser": 6886, "stat": 6887, "stitui\u00e7\u00e3o": 6888, "sv": 6889, "thing": 6890, "tiere": 6891, "tok": 6892, "tr": 6893, "treb": 6894, "tter": 6895, "tures": 6896, "ud": 6897, "vat": 6898, "vc": 6899, "vet": 6900, "vost": 6901, "wo": 6902, "wp": 6903, "ww": 6904, "xt": 6905, "xu": 6906, "yv": 6907, "zen": 6908, "zep": 6909, "zo": 6910, "zogen": 6911, "\u00b7": 6912, "\u00bb)": 6913, "\u00bb-": 6914, "\u00bb:": 6915, "\u00e7": 6916, "\u0401": 6917, "\u0410\u0413": 6918, "\u0410\u041d\u0418\u042f": 6919, "\u0410\u0422": 6920, "\u0410\u0440": 6921, "\u0411\u0410": 6922, "\u0411\u041b": 6923, "\u0412\u0414": 6924, "\u0412\u041e": 6925, "\u0413\u041b": 6926, "\u0413\u041e\u0412\u041e\u0420": 6927, "\u0413\u041e\u0420": 6928, "\u0413\u0430\u0437": 6929, "\u0414\u0410\u041d": 6930, "\u0414\u042b": 6931, "\u0415\u0412": 6932, "\u0415\u0414": 6933, "\u0415\u041c": 6934, "\u0415\u041d": 6935, "\u0415\u041d\u0422": 6936, "\u0415\u0420\u0410": 6937, "\u0416\u0415": 6938, "\u0417\u0414": 6939, "\u0417\u0418": 6940, "\u0417\u0432\u0435\u0437\u0434": 6941, "\u0418\u0421\u0422": 6942, "\u041a\u041e\u041c": 6943, "\u041a\u0423": 6944, "\u041b\u0410": 6945, "\u041b\u0410\u041d": 6946, "\u041b\u041e": 6947, "\u041b\u0423": 6948, "\u041b\u042e": 6949, "\u041c\u0410": 6950, "\u041c\u0411": 6951,
[...]
