{"<unk>": 1, "<pad>": 0, "<s>": 2, "</s>": 3, "_": 4, "]": 5, "[": 6, ":": 7, "\u2581*": 8, "-": 9, "name": 10, "\u043e\u043b\u044c": 11, "\u2581\u041f\u0430\u0440": 12, ".": 13, "\u044f": 14, "\u2581password": 15, "\u2581": 16, "\u2581\u0418\u043c": 17, "word": 18, "I": 19, "\u2581email": 20, "\u2581REG": 21, "STER": 22, "pass": 23, "\u2581\u0424": 24, "\u0438\u043d": 25, "*": 26, ",": 27, "\u0438\u0442\u0435": 28, "\u2581\u043f\u0430\u0440\u043e\u043b\u044c": 29, "mail": 30, "\u0430\u043c\u0438": 31, "\u2581E": 32, "\u043b\u0438\u044f": 33, "\u2581\u041b\u043e\u0433": 34, "Form": 35, "\u2581Email": 36, "\u2581user": 37, "email": 38, "\u2581\u0412": 39, "\u2581data": 40, "\u2581User": 41, "\u0430": 42, "\u0432\u0435\u0434": 43, "\u2581\u0422\u0435\u043b\u0435\u0444\u043e\u043d": 44, ")": 45, "\u2581(": 46, "\u2581\u043d\u0430": 47, "\u2581\u041f\u043e\u0434": 48, "\u2581\u0438": 49, "s": 50, "\u2581login": 51, "\u0442\u0432\u0435\u0440": 52, "\u0435": 53, "\u2581\u0441": 54, "2": 55, "\u2581\u041e\u0442": 56, "1": 57, "\u2581\u041f\u043e": 58, "\u2581\u0432": 59, "in": 60, "\u2581\u0438\u043b\u0438": 61, "NAME": 62, "\u2581\u042f": 63, "\u0447\u0435\u0441\u0442\u0432\u043e": 64, "PAS": 65, "ORD": 66, "SW": 67, "\u0442\u044c": 68, "\u2581\u041f\u043e\u0432\u0442\u043e\u0440": 69, "\u2581\u0410\u0434\u0440\u0435\u0441": 70, "user": 71, "\u2581name": 72, "\u2581\u0417\u0430": 73, "\u2581phone": 74, "d": 75, "\u0436": 76, "$": 77, "\u2581\u043f\u043e\u0447\u0442\u0430": 78, "Name": 79, "\u2581\u0412\u0430\u0448": 80, "phone": 81, "t": 82, "\u043b\u044f": 83, "][": 84, "firm": 85, "form": 86, "\u0445": 87, "\u2581\u043f\u0430\u0440\u043e": 88, "st": 89, "\u2581f": 90, "\u2581Profile": 91, "e": 92, "\u2581\u043d\u0435": 93, "\u2581\u043f\u043e": 94, "\u043d\u0430\u044f": 95, "\u044e": 96, "\u2581pass": 97, "\u043f\u043e\u043c\u043d\u0438": 98, "MAIL": 99, "fir": 100, "up": 101, "\u0438\u0441\u043a": 102, "\u2581first": 103, "\u2581last": 104, "\u2581\u042d\u043b\u0435\u043a\u0442\u0440\u043e\u043d": 105, "\u2581\u043f\u043e\u0447": 106, "CON": 107, "last": 108, "Pass": 109, ";": 110, "\u2581j": 111, "\u2581\u0441\u0438\u043c\u0432\u043e\u043b": 112, "\u2581\u0430\u0434\u0440\u0435\u0441": 113, "\u0442\u044b": 114, "\u043e\u0432": 115, "\u2581Password": 116, "E": 117, "\u044b": 118, "con": 119, "\u0440\u043e\u0434": 120, "\u2581_": 121, "\u0434\u0435\u043d\u0438\u0435": 122, "\u2581\u043f\u043e\u043b\u044c\u0437\u043e\u0432\u0430\u0442\u0435\u043b\u044f": 123, "\u2581Sign": 124, "\u2581\u0413\u043e": 125, "\u2581\u0440\u043e\u0436\u0434\u0435\u043d\u0438\u044f": 126, "\u0434\u0438\u0442\u0435": 127, "\u2581\u0441\u043e\u0433\u043b\u0430\u0441\u0435\u043d": 128, "\u2581\u0442\u0435\u043b\u0435\u0444\u043e\u043d": 129, "\u2581\u0434\u0430\u043d\u043d\u044b\u0445": 130, "\u2581\u043a\u043e\u0434": 131, "\u043d\u044b\u0439": 132, "\u2581\u043f\u0435\u0440\u0441\u043e\u043d\u0430\u043b\u044c\u043d\u044b": 133, "cha": 134, "\u043a\u0443": 135, "\u2581\u0438\u043c\u044f": 136, "\u0438": 137, "/": 138, "\u2581\u043b\u043e\u0433": 139, "\u2581\u041d\u043e\u043c\u0435\u0440": 140, "\u043d\u0438\u0435": 141, "\u2581e": 142, "\u2581\u0414\u0430\u0442\u0430": 143, "\u2581field": 144, "\u2581Company": 145, "\u2581Login": 146, "\u2581\u043e\u0431": 147, "\u2581\u043c\u0435\u043d\u0435\u0435": 148, "\u0443": 149, "\u2581\u044d\u043b\u0435\u043a\u0442\u0440\u043e\u043d\u043d\u043e\u0439": 150, "\u0438\u0442\u044c": 151, "\u2581\u0421\u0442\u0440\u0430\u043d": 152, "a": 153, "\u2581form": 154, "\u2581\u0434\u043b\u044f": 155, "\u2581remember": 156, "\u2581\u0418": 157, "b": 158, "c": 159, "\u2581\u0421\u043e": 160, "\u25816": 161, "\u2581\u043d\u043e\u043c\u0435\u0440": 162, "RM": 163, "\u043c": 164, "l": 165, "?": 166, "FI": 167, "\u2581\u0442\u0435\u043b\u0435\u0444\u043e\u043d\u0430": 168, "\u2581registration": 169, "\u0440\u0430\u0431\u043e\u0442": 170, "\u0439": 171, "put": 172, "\u0438\u044f": 173, "\u2581\u0423": 174, "\u2581\u041d\u0430\u0437\u0432\u0430": 175, "\u2581\u043f\u0440\u0438": 176, "id": 177, "\u2581\u0412\u044b": 178, "txt": 179, "(": 180, "\u043e\u0439": 181, "\u2581\u043c\u0435\u043d\u044f": 182, "\u2581cap": 183, "log": 184, "\u2581\u0412\u0430\u0448\u0435": 185, "ad": 186, "Reg": 187, "___": 188, "IN": 189, "\u2581/": 190, "\u2581\u041d\u0430": 191, "\u2581\u041f\u0440\u0438": 192, "SER": 193, "\u0442\u0438": 194, "\u0442": 195, "LOG": 196, "ry": 197, "\u2581U": 198, "0": 199, "ation": 200, "r": 201, "\u2581search": 202, "\u2581\u0440\u0435\u0433\u0438\u0441\u0442\u0440\u0430\u0446\u0438\u0438": 203, "\u2581\u043e\u0442": 204, "y": 205, "com": 206, "ration": 207, "\u2581\u0432\u044b": 208, "\u2581\u0421": 209, "\u2581\u0443": 210, "\u2581reg": 211, "@": 212, "CK": 213, "dress": 214, "ist": 215, "S": 216, "Mail": 217, "px": 218, "BOX": 219, "D": 220, "\u2581CHE": 221, "text": 222, "\u2581\u0441\u043e\u0433\u043b\u0430\u0441\u0438": 223, "\u2581Registr": 224, "Con": 225, "00": 226, "\u043d\u043e\u0435": 227, "\u2581input": 228, "th": 229, "\u2581\u043e": 230, "\u2581u": 231, "\u043d\u043e\u0441\u0442\u044c": 232, "...": 233, "3": 234, "\u0442\u0435": 235, "\u2581(*)": 236, "\u041d\u041d": 237, "p": 238, "city": 239, "\u0418\u041e": 240, "UF": 241, "code": 242, "type": 243, "\u2581\u041e": 244, "f": 245, "\u043d\u0438\u043c\u0430": 246, "\u0438\u0435": 247, "LAST": 248, "):": 249, "\u0447": 250, "\u043e": 251, "\u2581\u0414\u043e\u043b": 252, "ker": 253, "\u2581\u0437\u0430": 254, "\u2581\u041a\u043e\u043d\u0442\u0430\u043a\u0442": 255, "\u2581ct": 256, "See": 257, "\u2581\u0434\u0430": 258, "\u2581\u0446\u0438\u0444\u0440": 259, "ONAL": 260, "PERS": 261, "\u2581\u0443\u0441\u043b\u043e\u0432\u0438\u044f": 262, "\u043c\u0438": 263, "\u044c": 264, "\u2581sex": 265, "\u2581address": 266, "lo": 267, "PHONE": 268, "\u0439\u0442\u0435": 269, "\u2581city": 270, "Emp": 271, "\u2581\u041f\u043e\u043b": 272, "Code": 273, "site": 274, "\u2581q": 275, "\u0441\u043a\u043e\u0439": 276, "w": 277, "yer": 278, "profil": 279, "\u2581\u041a\u043e\u0434": 280, "\u2581register": 281, "re": 282, "\u0434\u0443\u043c\u0430": 283, "\u2581\u0440\u0430\u0437": 284, "\u0431\u0435\u0440": 285, "\u2581\u043a\u043e\u043c\u043f\u0430\u043d\u0438\u0438": 286, "SE": 287, "field": 288, "\u2581+7": 289, "Email": 290, "date": 291, "me": 292, "\u2581\u00ab": 293, "\u0442\u0430": 294, "bc": 295, "\u2581s": 296, "wd": 297, "\u043e\u0432\u044b\u0439": 298, "\u2581+": 299, "\u2581\u0420\u0435\u0433\u0438\u0441\u0442\u0440\u0430\u0446\u0438\u044f": 300, "\u0420\u0435\u0433\u0438\u043e\u043d": 301, "U": 302, "x": 303, "\u25818": 304, "\u0438\u0434": 305, "n": 306, "at": 307, "\u2581text": 308, "\u0413": 309, "\u2581ID": 310, "\u0442\u0435\u043b\u044c": 311, "\u2581\u0432\u0430\u0448": 312, "P": 313, "RY": 314, "Log": 315, "\u0441\u043a\u0438\u0439": 316, "de": 317, "\u2581\u041c\u0435\u0441": 318, "day": 319, "\u0433\u043b\u0430\u0441\u0435\u043d": 320, "gor": 321, "CO": 322, "UNT": 323, "\u2581\u043b\u0438\u0446\u043e": 324, "2]": 325, "cate": 326, "\u2581country": 327, "\u25811": 328, "\u043a\u0441": 329, "\u2581\u043a": 330, "sub": 331, "\u2581a": 332, "C": 333, "\u0437\u043e\u0432\u0430": 334, "5": 335, "\u2581Name": 336, "scribe": 337, "er": 338, "\u2581\u044d\u043b": 339, "m": 340, "4": 341, "\u0438\u0439": 342, "\u043d\u044b\u0435": 343, "ing": 344, "\u044c\u043d\u044b\u0439": 345, "\u2581\u0440\u0430\u0431\u043e\u0442\u044b": 346, "ru": 347, "second": 348, "\u2581cookie": 349, "\u2581company": 350, "\u2581profile": 351, "\u0441\u044f": 352, "\u2581\u0412\u0430\u0448\u0430": 353, "box": 354, "\u043a\u0435": 355, "\u2581\u0414\u0430": 356, "\u2581\u043e\u0440\u0433\u0430\u043d\u0438\u0437\u0430\u0446\u0438\u0438": 357, "\u0437\u0430": 358, "\u2581\u041f\u043e\u043b\u0443": 359, "script": 360, "scription": 361, "__": 362, "\u2581\u043e\u0431\u044a\u044f\u0432\u043b\u0435\u043d": 363, "\u2581\u041f\u0430\u0440\u0442\u043d\u0435\u0440": 364, "ify": 365, "A": 366, "\u043b\u0438": 367, "\u2581\u043b\u0438\u0446\u0430": 368, "ER": 369, "num": 370, "\u2581RE": 371, "FER": 372, "o": 373, "\u2581\u0438\u0437": 374, "ac": 375, "\u043e\u043c": 376, "\u0441": 377, "\u2581\u0430\u043a\u043a\u0430\u0443\u043d\u0442": 378, "\u043a\u043e\u0434": 379, "____": 380, "\u2581{": 381, "\u2581\u042d\u043b": 382, "ser": 383, "\u0434": 384, "\u2581\u041f\u0440\u043e": 385, "h": 386, "\u2581\u0441\u0430\u0439\u0442\u0435": 387, "7": 388, "W": 389, "\u2581:": 390, "\u041c\u043e\u0431\u0438\u043b": 391, "\u2581Apple": 392, "\u043a\u0430": 393, "Me": 394, "ember": 395, "99": 396, "\u2581contact": 397, "mber": 398, "\u2581check": 399, "\u2581sur": 400, "tion": 401, "\u0442\u043e": 402, "\u2581in": 403, "\u2581\u043c\u043e\u0438\u0445": 404, "gre": 405, "\u2581\u0414\u0435\u043d\u044c": 406, "ed": 407, "\u043c\u0435\u043d": 408, "6": 409, "\u043d\u043e\u0441\u0442\u0438": 410, "\u2581\u041f\u043e\u043b\u044c": 411, "\u2581person": 412, "1]": 413, "Nu": 414, "cept": 415, "\u0430\u043b\u044c": 416, "\u2581\u041d\u0435": 417, "\u043e\u043a": 418, "\u043a\u0430\u0436\u0438\u0442\u0435": 419, "\u2581\u043d\u043e\u0432\u043e\u0441\u0442\u0438": 420, "\u2581\u043d\u0430\u0437\u0432\u0430\u043d\u0438\u0435": 421, "region": 422, "\u2581agree": 423, "\u2581\u0421\u0430\u0439\u0442": 424, "\u2581\u0438\u043d\u0434\u0435\u043a\u0441": 425, "pe": 426, "\u2581c": 427, "\u2581t": 428, "\u0435\u043d\u0446\u0438": 429, "bir": 430, "\u2581No": 431, "\u2581\u043a\u043e\u043d\u0444": 432, "\u0440\u0435\u0433": 433, "\u2581-": 434, "\u2581new": 435, "\u043b\u0438\u0446\u0430": 436, "\u2581\u043a\u0430\u0440\u0442\u0438\u043d\u043a\u0438": 437, "\u0447\u0430\u0442\u044c": 438, "\u041e": 439, "\u2581\u0434\u043e": 440, "\u2581birth": 441, "Phone": 442, "\u043f\u043e\u0447": 443, "Box": 444, "\u2581\u041a": 445, "\u00bb": 446, "\u2581\u0414\u043e": 447, "data": 448, "ection": 449, "_1": 450, "ce": 451, "\u2581\u0435\u0441\u0442\u044c": 452, "\u2581\u043f\u0443\u043d\u043a\u0442": 453, "\u2581\u043a\u0430\u0440\u0442\u0438\u043d": 454, "age": 455, "count": 456, "}": 457, "\u2581r": 458, "k": 459, "tent": 460, "\u0435\u0442\u0441\u044f": 461, "\u043a\u0438": 462, "\u2581birthday": 463, "\u2581\u041d\u043e\u0432\u044b\u0439": 464, "ber": 465, "\u0438\u0447\u0435\u0441\u043a\u043e\u0435": 466, "\u043e\u0431": 467, "\u2581\u0414\u043b\u044f": 468, "\u0434\u0430": 469, "i": 470, "sur": 471, "\u2581\u0411\u044b": 472, "ling": 473, "\u0438\u043c\u0435\u043d\u043e\u0432\u0430\u043d": 474, "\u043d\u0434\u0435": 475, "\u2581mail": 476, "8": 477, "\u0445\u043e\u0434": 478, "\u2581sign": 479, "\u2581sf": 480, "check": 481, "\u2581gender": 482, "\u2581\u0434\u0430\u043d\u043d\u044b\u0435": 483, "\u0412": 484, "\u2581Phone": 485, "\u2581\u0442\u043e\u0432\u0430\u0440\u0430": 486, "valu": 487, "\u044b\u0439": 488, "\u2581sub": 489, "!": 490, "Address": 491, "F": 492, "\u044b\u0435": 493, "al": 494, "\u043d": 495, "news": 496, "\u043f": 497, "\u2581confirm": 498, "z": 499, "\u2581\"": 500, "\u25813": 501, "rem": 502, "\u0442\u0443": 503, "\u0418": 504, "\u2581st": 505, "\u2581\u043f\u0440\u043e": 506, "\u0432": 507, "\u043e\u0435": 508, "\u2581\u043f\u043e\u043b\u0438\u0442\u0438\u043a": 509, "\u2581\u0444\u0430\u043c\u0438\u043b\u0438\u044f": 510, "Text": 511, "ification": 512, "le": 513, "\u2581\u0422\u0438\u043f": 514, "\u2581your": 515, "\u2581\u0441\u0432\u043e\u0435": 516, "\u2581\u043f\u043e\u043b\u044c\u0437\u043e\u0432\u0430\u0442\u0435\u043b\u044c": 517, "\u2581\u0441\u0430\u0439\u0442\u0443": 518, "\u043a": 519, "\u043d\u043e\u0439": 520, "\u2581fi": 521, "B": 522, "\u2581\u043f\u043e\u0436\u0430\u043b\u0443\u0439\u0441\u0442\u0430": 523, "\u2581\u0440\u0435\u0433\u0438\u0441\u0442\u0440": 524, "\u2581type": 525, "\u2581\u042e\u0440": 526, "\u2581#": 527, "\u2581\u0441\u043e\u043e\u0442\u0432\u0435\u0442\u0441\u0442\u0432\u0438\u0438": 528, "\u2581\u043c\u0443\u0436": 529, "\u043f\u0438\u0448\u0438\u0442\u0435": 530, "ity": 531, "\u043d\u043e\u0433\u043e": 532, "\u0442\u0435\u043b\u044c\u043d\u043e": 533, "\u2581\u041c": 534, "\u2581\u0436\u0435\u043d\u0441\u043a\u0438": 535, "\u2581\u0414\u043e\u0431\u0430\u0432": 536, "\u2581\u043f\u043e\u0434\u0442\u0432\u0435\u0440\u0436\u0434\u0435\u043d": 537, "\u041d\u0418": 538, "\u041c": 539, "\u043f\u043e\u043b\u043d\u0438": 540, "\u2581\u043e\u043f\u0438\u0441\u0430\u043d\u0438\u0435": 541, "\u043a\u043e\u0439": 542, "g": 543, "la": 544, "\u2581\u0432\u0445\u043e\u0434": 545, "ct": 546, "\u2581\u041e\u0440\u0433\u0430\u043d\u0438\u0437\u0430\u0446\u0438\u044f": 547, "In": 548, "\u044e\u0440": 549, "\u2581\u0431\u0443\u043a\u0432": 550, "\u2581i": 551, "\u2581\u043e\u0437\u043d\u0430\u043a\u043e\u043c": 552, "sex": 553, "inn": 554, "\u2581l": 555, "Re": 556, "\u043d\u0435": 557, "\u044e\u0441\u044c": 558, "\u0432\u0435\u0440": 559, "\u0433\u043e": 560, "\u2581\u044f": 561, "\u2581\u0441\u043b\u043e\u0432\u043e": 562, "prop": 563, "\u0431\u0438": 564, "\u2581P": 565, "\u2581exp": 566, "\u2581\u0441\u0430\u0439\u0442\u0430": 567, "ncy": 568, "\u2581\u041c\u043e": 569, "\u2581\u0435\u0449\u0435": 570, "\u0433": 571, "\u0441\u0442\u0440": 572, "\u2581\u0441\u043e": 573, "Count": 574, "ic": 575, "q": 576, "\u2581\u0441\u0435\u0440\u0432\u0438\u0441": 577, "\u2581\u043e\u0431\u044a\u0435\u043a\u0442": 578, "\u2581d": 579, "\u2581\u0432\u0430\u0441": 580, "year": 581, "\u2581\u0441\u0447\u0451\u0442": 582, "9": 583, "\u0438\u044e": 584, "\u2581Not": 585, "\u2581\u0442\u0435\u043a\u0441\u0442": 586, "\u2581\u041f\u0440\u0430\u0432\u0438\u043b\u0430": 587, "\u2581\u043c\u0438\u0440\u0430": 588, "\u2581\u0440\u0430\u0441\u0441\u044b\u043b\u043a": 589, "\u2581\u041d\u0435\u0442": 590, "position": 591, "\u2581code": 592, "\u2581\u0432\u0430\u0436\u043d\u044b": 593, "-16": 594, "\u2581\u0431\u0443\u0434\u0435\u0442": 595, "\u0417\u0430": 596, "term": 597, "\u2581\u0441\u043e\u0433\u043b\u0430\u0448\u0435\u043d\u0438\u044f": 598, "no": 599, "\u041b\u0421": 600, "\u0451": 601, "\u25810": 602, "ver": 603, "[1]": 604, "\u043b\u044c\u043d\u0438\u043a": 605, "\u0441\u044b\u043b": 606, "\u2581\u041d\u0430\u0439": 607, "url": 608, "|": 609, "\u043b": 610, "\u25812": 611, "Ad": 612, "to": 613, "\u2581re": 614, "\u2581\u0423\u0436\u0435": 615, "\u2581\u043c\u043e\u0431\u0438\u043b": 616, "\u2581to": 617, "\u0431\u044b": 618, "\u043d\u0430": 619, "\u2581Selle": 620, "40": 621, "ment": 622, "\u2581Address": 623, "der": 624, "post": 625, "\u043d\u044b": 626, "\u2581\u043e\u0440\u0433\u0430\u043d\u0438\u0437\u0430\u0446\u0438\u044f": 627, "\u043a\u043b\u044e\u0447": 628, "\u043d\u043e": 629, "\u2581pw": 630, "\u2581\u043f\u043e\u0438\u0441\u043a": 631, "\u0441\u043a\u043e\u0433\u043e": 632, "24": 633, "\u0414": 634, "\u043b\u0435\u043d": 635, "\u2581\u0433\u043e\u0440\u043e\u0434": 636, "sport": 637, "\u2581First": 638, "\u2581\u0414\u043e\u043c": 639, "v": 640, "\u2581\u041b\u0438": 641, "\u2581\u0430": 642, "company": 643, "es": 644, "\u2581Last": 645, "\u041e\u041a": 646, "\u2581middle": 647, "\u2581\u041a\u043e\u043c": 648, "\u2581\u0433\u043e\u0440\u043e\u0434\u0430": 649, "\u2581\u043f\u043e\u043b\u044f": 650, "\u2581\u0413\u043e\u0434": 651, "\u2581\u041a\u043e\u043c\u043f\u0430\u043d\u0438\u044f": 652, "dle": 653, "\u2581000": 654, "\u2581que": 655, "\u041f\u041f": 656, "\u0438\u0440\u043e\u0432\u0430\u0442\u044c\u0441\u044f": 657, "City": 658, "\u2581category": 659, "\u2581\u0432\u043e\u043f\u0440\u043e\u0441": 660, "58": 661, "Hol": 662, "ge": 663, "\u2581UN": 664, "\u2581\u0431\u044b\u0442\u044c": 665, "\u2581\u2014": 666, "\u0421": 667, "\u2581City": 668, "\u2581\u043f\u0430\u0441\u043f\u043e\u0440\u0442": 669, "\u2581\u0441\u043e\u043e\u0431\u0449\u0435\u043d\u0438\u044f": 670, "\u2581\u0443\u0437\u043d\u0430\u043b": 671, "\u0446": 672, "\u2581Country": 673, "\u2581\u041e\u0431\u0440\u0430\u0437\u043e\u0432\u0430": 674, "\u2581answer": 675, "999": 676, "Date": 677, "Type": 678, "cess": 679, "color": 680, "ice": 681, "\u0430\u043b\u044c\u043d\u044b\u0439": 682, "\u2581client": 683, "\u2581date": 684, "\u2581\u041c\u0443\u0436": 685, "\u2581\u041e\u0431": 686, "V": 687, "top": 688, "\u043d\u044b\u0445": 689, "\u0442\u0430\u0440": 690, "\u2581\u043a\u0430\u0440\u0442\u044b": 691, "\u2581\u043b\u0438": 692, "\u2581\u0441\u0447\u0435\u0442": 693, "\u2581\u0447\u0442\u043e": 694, "Q": 695, "[2]": 696, "\u0438\u043c": 697, "\u2581\u0441\u0432\u043e\u0439": 698, "elect": 699, "j": 700, "\u2581bil": 701, "class": 702, "mid": 703, "\u043d\u043d\u0430\u044f": 704, "\u043d\u044f\u0442\u044c": 705, "\u0447\u0430\u043d\u0438": 706, "\u044c\u043d\u043e\u0433\u043e": 707, "\u2581account": 708, "\u2581opt": 709, "\u2581\u0421\u0435\u0440": 710, "\u2581\u0442\u043e\u043b\u044c\u043a\u043e": 711, "\u2581\u044d\u043b\u0435\u043a\u0442\u0440\u043e": 712, "et": 713, "\u0432\u043e\u0439": 714, "\u2581op": 715, "\u2581\u0438\u0441\u043f\u043e\u043b\u044c\u0437\u043e\u0432\u0430\u0442\u044c": 716, "\u2581\u043a\u043e\u043c\u043f\u044c\u044e\u0442\u0435\u0440": 717, "cap": 718, "\u0446\u0438\u0438": 719, "\u2581is": 720, "ft": 721, "\u0432\u0435\u0434\u043e\u043c": 722, "\u043c\u043e\u043b": 723, "\u0441\u043a\u0430": 724, "\u2581organization": 725, "\u2581\u043f\u0440\u0438\u0433\u043b\u0430\u0448\u0435\u043d": 726, "ization": 727, "\u2581\u043f\u0443\u0431\u043b\u0438\u043a\u0443": 728, "35": 729, "contact": 730, "dd": 731, "\u0430\u043c": 732, "\u2581\u0418\u0441\u043a\u0430": 733, "M": 734, "\u2581p": 735, "\u2581\u043e\u0431\u0440\u0430\u0431\u043e\u0442\u043a\u0438": 736, "\u2581\u0441\u043e\u0433\u043b\u0430\u0448\u0430": 737, "mont": 738, "\u043d\u043d\u0443\u044e": 739, "\u2581Your": 740, "\u2581id": 741, "\u2581\u0415\u0441\u043b\u0438": 742, "Pro": 743, "ified": 744, "ph": 745, "\u0430\u043b\u044b": 746, "\u043d\u0438\u043a": 747, "\u2581\u043e\u0431\u044f\u0437\u0430\u0442\u0435\u043b\u044c\u043d": 748, "ID": 749, "ms": 750, "se": 751, "search": 752, "\u0441\u0442\u0440\u043e": 753, "\u0449\u0438\u0439": 754, "firma": 755, "\u0441\u0442\u0440\u0430": 756, "\u0444\u0435\u0440": 757, "width": 758, "\u0430\u044f": 759, "\u2581\u0434\u043e\u0441\u0442\u0443\u043f\u0430": 760, "ch": 761, "ement": 762, "\u0442\u044c\u0441\u044f": 763, "\u2581\u0438\u0437\u043e\u0431\u0440\u0430\u0436\u0435\u043d\u0438\u044f": 764, "Ru": 765, "les": 766, "\u2581\u0438\u043d\u0444\u043e\u0440\u043c\u0430\u0446\u0438\u044e": 767, "\u2581\u0441\u043e\u0433\u043b\u0430\u0448\u0435\u043d\u0438\u0435": 768, "\u0438\u0438": 769, "\u2581au": 770, "\u2581invite": 771, "\"": 772, "\u0441\u0435": 773, "\u2581\u0438\u0441\u043f\u043e\u043b\u044c\u0437\u043e\u0432\u0430\u043d\u0438\u044f": 774, "\u2581\u0442\u0430\u043a\u0436\u0435": 775, "\u2581\u041d\u0438\u043a": 776, "\u2581\u043d\u0430\u0441": 777, "\u2581\u043d\u043e\u0432\u044b\u0439": 778, "place": 779, "\u043c\u043e": 780, "\u2581Remember": 781, "ality": 782, "ly": 783, "on": 784, "verti": 785, "\u041e\u041b\u042c": 786, "\u2581mobile": 787, "\u2581rules": 788, "\u2581\u043b\u0430\u0442\u0438\u043d": 789, "-1": 790, "fio": 791, "\u0435\u0442": 792, "\u043c\u0438\u043d": 793, "\u2581\u041a\u0440\u0430": 794, "ro": 795, "wi": 796, "\u2581\u0412\u0441\u0435": 797, "\u2581\u0441\u0447\u0435\u0442\u0430": 798, "\u0442\u0435\u043b\u044f": 799, "\u0446\u0438\u044f": 800, "\u2581\u0432\u0430\u043c": 801, "92": 802, "\u0431": 803, "\u043f\u0438\u0441\u0430\u0442\u044c": 804, "\u2581nick": 805, "\u2581number": 806, "-00": 807, "Contact": 808, "\u2581log": 809, "\u2581region": 810, "\u2581\u043f\u043e\u043b\u0443\u0447\u0430\u0442\u044c": 811, "10": 812, "\u2581inn": 813, "\u2581\u0441\u0435\u0431\u0435": 814, "\u0442\u0435\u043b\u044c\u043d\u0430\u044f": 815, "\u2581b": 816, "\u2581\u0434\u0435\u044f\u0442\u0435\u043b\u044c\u043d\u043e\u0441\u0442\u0438": 817, "\u2581\u043f\u043e\u0434": 818, "tom": 819, "\u041f\u0410\u0420": 820, "\u043b\u044c": 821, "\u0442\u043a\u043e": 822, "\u2581full": 823, "\u043c\u0435\u0440": 824, "\u043d\u0435\u0439": 825, "\u2581A": 826, "\u2581Con": 827, "\u2581the": 828, "\u2581\u043d\u0430\u0438\u043c\u0435\u043d\u043e\u0432\u0430\u043d\u0438\u0435": 829, "La": 830, "Organ": 831, "\u043f\u0440\u0438": 832, "\u2581Select": 833, "\u2581}": 834, "\u2581\u0416\u0435": 835, "\u0447\u043d\u044b\u0439": 836, "\u2581\u0438\u043d\u0442\u0435\u0440\u043d\u0435\u0442": 837, "\u2581\u0441\u0432\u043e\u0451": 838, "\u042d\u043b\u0435\u043a\u0442\u0440": 839, "\u0435\u0439": 840, "\u043d\u0441\u043a\u0438\u0439": 841, "\u043f\u043e\u043b\u043d\u0435\u043d\u0438\u0435": 842, "\u2581\u0424\u0430": 843, "short": 844, "\u2581second": 845, "\u2581\u043d\u0435\u043e\u0431\u0445\u043e\u0434\u0438\u043c\u043e": 846, "\u2581\u0441\u0430\u0439\u0442": 847, "Fi": 848, "area": 849, "da": 850, "\u0418\u041f": 851, "\u0438\u0447\u0435\u0441\u043a\u0438\u0439": 852, "\u043a\u0430\u0437\u044b\u0432\u0430\u0442\u044c": 853, "\u2581\u043a\u043d\u043e\u043f\u043a\u0443": 854, "\u2581I": 855, "\u2581\u0422\u0435": 856, "16": 857, "\u2581999": 858, "\u2581and": 859, "\u2581\u043c\u043e\u0436\u0435\u0442\u0435": 860, "\u0441\u0435\u043b\u0435\u043d": 861, "\u2581border": 862, "\u2581sms": 863, "mit": 864, "\u041b": 865, "\u2581margin": 866, "\u2581\u041f\u0440\u0435\u0434": 867, "\u2581\u043d\u0430\u043c": 868, "info": 869, "\u2581\u043f\u043e\u043b\u0443\u0447\u0435\u043d\u0438\u044f": 870, "guard": 871, "\u2581\u043a\u043e\u0442\u043e\u0440\u044b\u0435": 872, "\u2581\u043c\u0435\u043d\u0435\u0434\u0436\u0435\u0440": 873, "EMBER": 874, "REM": 875, "mic": 876, "\u2581terms": 877, "\u2581\u041e\u0431\u043b\u0430\u0441\u0442": 878, "stre": 879, "\u0423": 880, "\u0441\u043a\u043e\u0435": 881, "\u2581\u0410": 882, "\u2581\u0430\u0433\u0435\u043d\u0442\u0441\u0442\u0432\u043e": 883, "30": 884, "\u0441\u0430\u0439\u0442": 885, "\u2581parent": 886, "\u2581you": 887, "\u2581\u0437\u0430\u043f\u0438\u0441\u0438": 888, "Main": 889, "N": 890, "T": 891, "ent": 892, "\u00bb,": 893, "\u043b\u043e\u0433\u0438": 894, "\u0444\u0438\u043a": 895, "\u2581Search": 896, "\u2581accept": 897, "\u2581ps": 898, "\u2581site": 899, "List": 900, "Y": 901, "ight": 902, "ile": 903, "\u041f\u043e": 904, "\u25815": 905, "\u2581or": 906, "\u2581\u0422\u043e\u0440\u0433\u043e\u0432": 907, "\u2581\u0430\u0432\u0438\u0430": 908, "\u2581\u0430\u043d\u043a\u0435\u0442": 909, "\u2581\u0434\u043e\u043c": 910, "\u2581\u0435\u0449\u0451": 911, "\u2581\u043f\u043e\u043b\u0435": 912, "K": 913, "Prof": 914, "ex": 915, "gende": 916, "\u2581promo": 917, "\u2581\u043f\u0440\u043e\u0436\u0438\u0432\u0430\u043d\u0438\u044f": 918, "\u2581\u0441\u0442\u0440\u0430\u043d\u0443": 919, "\u2581\u044d\u0442\u043e\u043c": 920, "ite": 921, "\u043f\u043e\u043b\u043e\u0436\u0435\u043d": 922, "\u2581\u0433\u0434\u0435": 923, "12": 924, "he": 925, "pp": 926, "qi": 927, "\u2581\u0442\u043e\u0432\u0430\u0440\u043e\u0432": 928, "18": 929, "\u043c\u0430\u0433\u0430\u0437\u0438\u043d": 930, "\u2581\u0424\u0438\u043b": 931, "\u0436\u0438\u043c": 932, "\u0438\u043e\u043d": 933, "\u043e\u0447\u043d\u044b\u0439": 934, "\u2581Order": 935, "\u2581repas": 936, "\u2581tel": 937, "\u2581\u0434\u043e\u0441\u0442\u0443\u043f": 938, "\u2581\u043d\u0430\u0437\u0432\u0430": 939, "\u2581\u043f\u0440\u0430\u0432\u0438\u043b\u0430\u043c\u0438": 940, "\u2581\u0440\u0435\u043a\u043b\u0430\u043c": 941, "patr": 942, "\u0440\u043e\u0431": 943, "\u2581comment": 944, "\u0433\u043b\u0430": 945, "\u0433\u043b\u0430\u0441\u0438": 946, "\u2581zip": 947, "\u2581\u0430\u0432\u0442\u043e\u043c\u0430\u0442\u0438\u0447\u0435\u0441\u043a\u0438": 948, "\u2581\u043a\u043e\u043d\u0442\u0430\u043a\u0442": 949, "\u2581\u043f\u0440\u043e\u043c\u043e": 950, "stan": 951, "\u0435\u043c": 952, "\u2581\u043f\u0440\u044f\u043c\u043e": 953, "\u2581\u0440\u0430\u0439\u043e\u043d": 954, "#": 955, "100": 956, "Mo": 957, "cho": 958, "onym": 959, "spa": 960, "\u041f\u0430\u0440": 961, "\u0424\u0417": 962, "\u043d\u0443\u044e": 963, "\u2581\u0432\u0430\u0448\u0435\u0433\u043e": 964, "Z": 965, "legal": 966, "\u041d": 967, "\u0437\u044b": 968, "\u043d\u0438\u044e": 969, "\u2581agreement": 970, "\u2581w": 971, "\u2581\u0434\u043e\u043b\u0436\u0435\u043d": 972, "\u2581\u043a\u0430\u0431\u0438\u043d\u0435\u0442": 973, "RK": 974, "children": 975, "\u0413\u0420": 976, "\u0420": 977, "\u0441\u0442\u0432": 978, "\u2581custom": 979, "\u2581position": 980, "\u2581telephone": 981, "\u2581\u0438\u0437\u043c\u0435\u043d\u0435": 982, "\u2581\u0444\u043e\u0440\u043c\u0430": 983, "11": 984, "G": 985, "\u0438\u0437\u0430\u0446\u0438\u044f": 986, "\u043c\u0430": 987, "\u2581of": 988, "\u2581patron": 989, "\u2581pere": 990, "\u2581\u0418\u0432\u0430\u043d": 991, "69": 992, "INN": 993, "mp": 994, "ty": 995, "\u0441\u0442\u0430\u0432\u044c\u0442\u0435": 996, "\u2581Enter": 997, "\u2581__": 998, "\u2581\u041f\u043e\u043b\u0438": 999, "\u2581\u0430\u0440\u0442\u0438\u043a\u0443\u043b": 1000, "\u2581\u0437\u043d\u0430\u043a\u043e\u0432": 1001, "\u2581\u043a\u0430\u043a": 1002, "\u2581\u0447\u0442\u043e\u0431\u044b": 1003, "WO": 1004, "new": 1005, "\u041d\u0430": 1006, "\u043f\u0440\u0430\u0432": 1007, "\u0447\u0438": 1008, "\u2581[": 1009, "\u2581\u0438\u0445": 1010, "Model": 1011, "un": 1012, "us": 1013, "\u0440\u0443": 1014, "\u2581!": 1015, "\u2581newsletter": 1016, "\u2581\u0421\u0440\u043e\u043a": 1017, "\u2581\u0432\u0430\u0448\u0435\u0439": 1018, "\u2581\u0434": 1019, "\u2581\u0435\u0441\u043b\u0438": 1020, "1234": 1021, "152": 1022, "\u0440\u0430\u0431\u043e\u0442\u043e\u0434\u0430\u0442\u0435\u043b": 1023, "\u0449\u0435": 1024, "\u258110": 1025, "\u25814": 1026, "\u2581submitted": 1027, "O": 1028, "pas": 1029, "\u2581100": 1030, "\u2581pas": 1031, "\u2581\u0411": 1032, "\u2581\u0434\u043e\u0441\u0442\u0430\u0432\u043a\u0438": 1033, "\u2581\u0436\u0438\u0432": 1034, "Dia": 1035, "Info": 1036, "mple": 1037, "ting": 1038, "\u2581M": 1039, "\u2581privacy": 1040, "\u2581title": 1041, "-0": 1042, "ITY": 1043, "index": 1044, "\u0433\u0438\u043d": 1045, "\u043a\u0430\u0437\u0430\u0442\u044c": 1046, "\u043d\u0438\u0446\u0438": 1047, "\u2581\u043f\u0438\u0441\u044c\u043c\u043e": 1048, "\u2581\u0440\u0430\u0441": 1049, "\u2581\u0442": 1050, "2022": 1051, "Up": 1052, "title": 1053, "zone": 1054, "\u2581sci": 1055, "\u2581\u041a\u0430\u043a": 1056, "\u2581\u0434\u0435\u0439\u0441\u0442\u0432\u0438\u044f": 1057, "\u2581\u043f\u0440\u043e\u0431\u043b\u0435\u043c\u044b": 1058, "Cap": 1059, "ance": 1060, "reg": 1061, "\u043c\u0435\u0447\u0430": 1062, "\u043e\u0432\u043e\u0439": 1063, "\u0447\u0435": 1064, "\u2581Province": 1065, "\u2581supplier": 1066, "14": 1067, "ot": 1068, "\u258100": 1069, "\u2581Form": 1070, "\u2581height": 1071, "\u2581order": 1072, "\u2581post": 1073, "\u2581\u0432\u043e\u0437\u043d\u0438\u043a": 1074, "\u2581\u043a\u043e": 1075, "fre": 1076, "\u0432\u043e\u0437": 1077, "\u0444\u0438": 1078, "\u2581\u041e\u041e\u041e": 1079, "\u2581\u0432\u0438\u0434\u0438\u0442\u0435": 1080, "\u2581\u043a\u043e\u0442\u043e\u0440\u044b\u0439": 1081, "\u2581\u043e\u043f\u0435\u0440\u0430\u0442\u043e\u0440": 1082, "\u2581\u0440\u0435\u0433\u0438\u043e\u043d": 1083, "TH": 1084, "bot": 1085, "fo": 1086, "\u2581personal": 1087, "\u2581real": 1088, "\u2581\u043f\u0440\u043e\u0447\u0438\u0442\u0430": 1089, "\u0430\u0446\u0438\u0435\u0439": 1090, "\u0438\u0442\u0435\u043b\u044c\u043d\u044b\u0439": 1091, "\u043e\u0433\u0440\u0430\u0444\u0438\u044f": 1092, "\u0441\u043a\u0438\u0435": 1093, "\u258127.": 1094, "\u2581display": 1095, "\u2581n": 1096, "\u2581\u0414\u043e\u043f\u043e\u043b\u043d\u0438\u0442\u0435\u043b\u044c\u043d": 1097, "\u2581\u041a\u043e\u0440": 1098, "Post": 1099, "\u2581customer": 1100, "\u2581org": 1101, "\u2581\u043a\u0430\u0434\u0440\u043e\u0432": 1102, "PE": 1103, "X": 1104, "vik": 1105, "\u043b\u0435\u043d\u0438\u044f": 1106, "\u0441\u0442\u0430": 1107, "\u2581background": 1108, "\u2581term": 1109, "cc": 1110, "\u2581auto": 1111, "\u2581\u0431\u0435\u0441\u043f\u043b\u0430\u0442\u043d\u043e": 1112, "\u2581\u0434\u0430\u0442\u0443": 1113, "\u2581\u0443\u043a\u0430\u0437\u0430\u043d": 1114, "29": 1115, "TION": 1116, "u": 1117, "\u041e\u041d": 1118, "\u043c\u043e\u0436\u0435": 1119, "\u2581OK": 1120, "\u2581left": 1121, "\u2581message": 1122, "\u2581ver": 1123, "\u2581\u0430\u0433\u0435\u043d\u0442\u0441\u0442\u0432\u0430": 1124, "\u2581\u0434\u043e\u0433\u043e\u0432\u043e\u0440\u0430": 1125, "\u2581\u043f\u043e\u0434\u0442\u0432\u0435\u0440\u0436\u0434\u0430\u044e": 1126, "\u2581\u043f\u043e\u043b": 1127, "net": 1128, "\u041e\u041e": 1129, "\u043a\u043e": 1130, "\u0441\u0442\u0440\u044b": 1131, "\u2581street": 1132, "\u2581tag": 1133, "\u2581\u0438\u043d\u0444\u043e\u0440\u043c\u0430\u0446\u0438\u044f": 1134, "eld": 1135, "policy": 1136, "sent": 1137, "{": 1138, "\u043d\u0438\u0439": 1139, "\u043f\u043e": 1140, "\u2581\u0414": 1141, "\u2581\u0430\u0432\u0442\u043e\u0440": 1142, "\u2581\u0437\u0430\u043f\u043e\u043b\u043d\u0435\u043d": 1143, "\u2581\u043d\u0430\u043b\u0438\u0447\u0438\u0438": 1144, "\u2581\u043e\u043a\u0440\u0443\u0433": 1145, "\u2581\u043f\u0435\u0440\u0435\u0434\u0430\u0447\u0443": 1146, "\u2581\u0444\u0430\u043c\u0438\u043b": 1147, "\u2581\u044d\u043b\u0435\u043a\u0442\u0440\u043e\u043d\u043d\u044b": 1148, "://": 1149, "alue": 1150, "ant": 1151, "ar": 1152, "be": 1153, "org": 1154, "strict": 1155, "\u043c\u0438\u043d\u0430": 1156, "\u043d\u0438\u043c": 1157, "\u2581?": 1158, "'": 1159, "07.": 1160, "TY": 1161, "find": 1162, "group": 1163, "holder": 1164, "ne": 1165, "\u042f\u043d\u0434\u0435\u043a\u0441": 1166, "\u0437\u0443": 1167, "\u2581z": 1168, "\u2581\u0430\u0434\u0440\u0435\u0441\u0430": 1169, "\u2581\u0435\u0433\u043e": 1170, "\u2581\u043d\u043e\u0432\u043e": 1171, "\u2581\u043f\u0440\u0430\u0432\u0438\u043b\u0430": 1172, "size": 1173, "\u0412\u041a\u043e\u043d\u0442\u0430\u043a\u0442\u0435": 1174, "\u0434\u043e": 1175, "\u2581Skype": 1176, "\u2581add": 1177, "\u2581allow": 1178, "\u2581pa": 1179, "\u2581\u0432\u044b\u0434\u0430": 1180, "\u2581\u0437\u0430\u043a\u0430\u0437": 1181, "\u2581\u0437\u0430\u043f\u0438\u0441": 1182, "cy": 1183, "que": 1184, "\u0442\u043e\u0440": 1185, "\u0446\u0438\u043e\u043d\u043d\u044b\u0439": 1186, "\u2581send": 1187, "\u2581\u0410\u0432\u0442\u043e\u043c\u0430\u0442": 1188, "\u2581\u0437\u0430\u043f\u043e": 1189, "2006": 1190, "auto": 1191, "em": 1192, "is": 1193, "per": 1194, "\u0431\u0440\u0430\u0442\u044c": 1195, "\u0437\u0434\u0430\u043d\u0438\u0435": 1196, "\u0447\u0430\u0441\u0442\u0438": 1197, "\u258124": 1198, "\u2581Cap": 1199, "\u2581S": 1200, "\u2581mat": 1201, "\u2581\u0413": 1202, "\u2581\u0422\u0435\u043a\u0441\u0442": 1203, "\u2581\u0430\u0432\u0442\u043e\u043c\u0430\u0442": 1204, "\u2581\u0440\u0435\u0433\u0438\u0441\u0442\u0440\u0430\u0446\u0438\u044f": 1205, "dr": 1206, "dy": 1207, "student": 1208, "te": 1209, "\u2581guest": 1210, "\u2581payment": 1211, "\u2581\u042e": 1212, "\u2581\u0432\u0440\u0435\u043c\u044f": 1213, "\u2581\u043f\u043e\u0438\u0441\u043a\u0430": 1214, "\u2581\u0441\u0438\u0441\u0442\u0435\u043c\u0435": 1215, "H": 1216, "ho": 1217, "\u043b\u0451\u043d": 1218, "\u043d\u043d\u044b\u0435": 1219, "\u2581delivery": 1220, "\u2581\u0410\u0432\u0442\u043e\u0440": 1221, "\u2581\u0432\u0435\u0431": 1222, "\u2581\u0437\u0430\u043a\u043e\u043d\u043e\u043c": 1223, "\u2581\u043f\u0430\u0440\u0442\u043d\u0435\u0440": 1224, "\u2581\u0441\u0432\u044f\u0437\u0438": 1225, "\u2581\u0447\u0430\u0441\u0442": 1226, "ers": 1227, "line": 1228, "\u0435\u043d": 1229, "\u2581time": 1230, "\u2581\u0420\u0435": 1231, "\u2581\u0432\u0441\u0435\u043c": 1232, "\u2581\u043c\u043d\u0435": 1233, "\u2581\u043e\u0431\u044f\u0437\u0430\u0442\u0435\u043b\u044c\u043d\u043e": 1234, "\u2581\u0445\u043e\u0447\u0443": 1235, "+": 1236, "tar": 1237, "tel": 1238, "\u00bb.": 1239, "\u041a": 1240, "\u0447\u0435\u0442": 1241, "\u2581Fill": 1242, "\u2581IC": 1243, "\u2581Magic": 1244, "\u2581flo": 1245, "\u2581\u0415": 1246, "\u2581\u041d\u0443": 1247, "\u2581\u0431\u0435\u0437": 1248, "\u2581\u0437\u0430\u043a\u0430\u0437\u0430": 1249, "\u2581\u043f\u0440\u0435\u0434\u043f\u0440\u0438\u044f\u0442\u0438\u044f": 1250, "000": 1251, "Bir": 1252, "PC": 1253, "import": 1254, "\u0432\u0430\u0440": 1255, "\u043d\u043e\u043c": 1256, "\u0440\u0430\u0436\u0430": 1257, "\u2581C": 1258, "\u2581Stri": 1259, "\u2581Un": 1260, "\u2581necessary": 1261, "Bo": 1262, "XX": 1263, "dl": 1264, "mer": 1265, "su": 1266, "\u041f": 1267, "\u0424": 1268, "\u0434\u0435\u0440\u0436\u0430\u0442\u044c": 1269, "\u043f\u043e\u043b\u043d\u044f\u0442\u044c": 1270, "\u0448\u0435": 1271, "\u2581filter": 1272, "\u2581\u041a\u043e\u043b\u0438\u0447\u0435\u0441\u0442\u0432\u043e": 1273, "\u2581\u0420\u0435\u0433\u0438\u0441\u0442\u0440": 1274, "\u2581\u0425\u043e\u0447\u0443": 1275, "32": 1276, "function": 1277, "identifi": 1278, "\u0434\u044b": 1279, "\u0442\u0435\u043b\u044c\u043d\u043e\u0435": 1280, "\u0443\u044e": 1281, "\u0445\u043e\u0434\u0438\u0442\u044c": 1282, "\u0447\u0443": 1283, "\u2581F": 1284, "\u2581PAS": 1285, "\u2581Performance": 1286, "\u2581role": 1287, "\u2581\u015ei": 1288, "\u2581\u041c\u0443": 1289, "\u2581\u0431\u0430\u043d\u043a\u043e\u0432": 1290, "\u2581\u0434\u043e\u043a\u0443\u043c\u0435\u043d\u0442\u0430": 1291, "\u2581\u043d\u0435\u0442": 1292, "\u2581\u0441\u043e\u043e\u0431\u0449\u0435\u043d\u0438\u0435": 1293, "\u2581\u0442\u0440\u0435\u0442\u044c": 1294, "Fa": 1295, "Search": 1296, "\u2581SMS": 1297, "\u2581Target": 1298, "\u2581\u0410\u043d\u0442\u0438": 1299, "\u2581\u043d\u0430\u0441\u0435\u043b\u0435\u043d": 1300, "\u2581\u043f\u0440\u0435\u0434\u043b\u043e\u0436\u0435\u043d\u0438\u044f": 1301, "\u2581\u043f\u0440\u043e\u0434\u043e\u043b\u0436\u0435\u043d": 1302, "298": 1303, "ction": 1304, "part": 1305, "\u0434\u0430\u043d": 1306, "\u0441\u043f\u0430": 1307, "\u0445\u0440\u0430\u043d\u0438": 1308, "\u25819": 1309, "\u2581domain": 1310, "\u2581lang": 1311, "\u2581not": 1312, "\u2581\u0423\u0441\u043b\u043e\u0432\u0438\u044f": 1313, "\u2581\u0437\u0430\u043f\u0440\u043e\u0441": 1314, "\u2581\u043f\u043e\u044f\u0441": 1315, "\u2581\u0443\u0447\u0435\u0442": 1316, "\u2581\u0445\u043e\u0440": 1317, "\u2581\u0447\u0438\u0441\u043b\u043e": 1318, "31": 1319, "accepte": 1320, "dob": 1321, "registra": 1322, "spec": 1323, "\u043d\u0438\u044f": 1324, "\u043e\u0432\u043e\u0435": 1325, "\u0441\u044c": 1326, "\u0449\u0438": 1327, "\u2581\u00a9": 1328, "\u2581\u041e\u0434": 1329, "\u2581\u043f\u043b\u0430\u0442\u0435\u0436": 1330, "\u2581\u043f\u043e\u043b\u0443\u0447\u0435\u043d\u0438\u0435": 1331, "\u2581\u044e\u0440\u0438\u0434\u0438\u0447\u0435\u0441\u043a\u043e": 1332, "15": 1333, "To": 1334, "bd": 1335, "dding": 1336, "rul": 1337, "\u0438\u0440\u043e\u0432\u0430\u0442\u044c": 1338, "\u0441\u0442\u0432\u043e": 1339, "\u2581Fun": 1340, "\u2581SE": 1341, "\u2581card": 1342, "\u2581\u0420\u0430\u0439\u043e\u043d": 1343, "\u2581\u043f\u043e\u0440\u0442\u0430\u043b": 1344, "about": 1345, "privacy": 1346, "\u043b\u043e": 1347, "\u0441\u0442\u043e": 1348, "\u0442\u0438\u0440\u0430": 1349, "\u0448\u0430": 1350, "\u2581\u0410\u043d": 1351, "\u2581\u0412\u043e": 1352, "\u2581\u0432\u0430\u0448\u0443": 1353, "\u2581\u0434\u043e\u0441\u0442\u0430\u0442\u043e\u0447\u043d\u043e": 1354, "\u2581\u0438\u043d\u0444\u043e\u0440\u043c\u0430\u0446\u0438\u0438": 1355, "\u2581\u0440\u0443\u0431": 1356, "567": 1357, "DR": 1358, "mobile": 1359, "or": 1360, "pid": 1361, "plate": 1362, "web": 1363, "\u0425": 1364, "\u0433\u0438": 1365, "\u2581users": 1366, "\u2581\u041d\u0430\u043f\u0440\u0438\u043c\u0435\u0440": 1367, "\u2581\u0423\u0447\u0430\u0441\u0442\u043d\u0438\u043a": 1368, "\u2581\u043f\u0440\u043e\u0434\u0443\u043a\u0442\u0430": 1369, "IR": 1370, "Sign": 1371, "heel": 1372, "not": 1373, "vo": 1374, "\u0413\u0418": 1375, "\u0438\u0437\u0430\u0446\u0438\u0438": 1376, "\u0442\u0430\u043d": 1377, "\u2581h": 1378, "\u2581mp": 1379, "\u2581product": 1380, "\u2581\u043b\u0435\u0442": 1381, "\u2581\u043c\u044b": 1382, "27": 1383, "AD": 1384, "face": 1385, "gin": 1386, "und": 1387, "\u0420\u0435": 1388, "\u0435\u0442\u0435\u0441\u044c": 1389, "\u0439\u0442\u0435\u0441\u044c": 1390, "\u2581200": 1391, "\u25812001": 1392, "\u2581T": 1393, "R": 1394, "lik": 1395, "of": 1396, "ront": 1397, "\u0431\u0443\u0434": 1398, "\u0438\u043a\u0438": 1399, "\u043e\u0433\u043e": 1400, "\u25817": 1401, "\u2581ch": 1402, "\u2581vip": 1403, "\u2581\u0427\u0430\u0441": 1404, "\u2581\u0431\u0430\u043d\u043a\u0430": 1405, "\u2581\u043a\u0443\u0440": 1406, "\u2581\u043c\u0435\u0441\u044f\u0446": 1407, "\u2581\u0441\u0432\u043e\u0438\u0445": 1408, "\u2581\u0441\u043a\u0430\u0447\u0430\u0442\u044c": 1409, "64": 1410, "PER": 1411, "cus": 1412, "\u0438\u0437": 1413, "\u043a\u0432\u0438": 1414, "\u0441\u043e\u043d": 1415, "\u2581var": 1416, "\u2581\u0420\u0424": 1417, "\u2581\u0421\u0422\u0420": 1418, "\u2581\u044f\u0437\u044b\u043a": 1419, "COM": 1420, "Ex": 1421, "\u0418\u041d": 1422, "\u043b\u0430": 1423, "\u2581...": 1424, "\u2581for": 1425, "\u2581\u0412\u0430\u0448\u0438": 1426, "\u2581\u0418\u0432\u0430\u043d\u043e\u0432": 1427, "\u2581\u041a\u043b\u044e\u0447": 1428, "\u2581\u043a\u0432\u0430\u0440\u0442\u0438\u0440\u0430": 1429, "\u2581\u043d\u043e\u043c\u0435\u0440\u0430": 1430, "\u2581\u0441\u043f\u0435\u0446\u0438\u0430\u043b\u0438\u0441\u0442": 1431, "\u2581\u0443\u0441\u043b\u0443\u0433": 1432, "000000": 1433, "26": 1434, ":0": 1435, "Forum": 1436, "J": 1437, "ert": 1438, "ion": 1439, "nick": 1440, "ship": 1441, "\u0410\u041d\u0410": 1442, "\u0438\u043d\u0444\u043e\u0440\u043c\u0430\u0446\u0438\u043e\u043d\u043d\u044b": 1443, "\u043b\u0435\u043d\u0438\u0435": 1444, "\u043b\u044b": 1445, "\u2581Bir": 1446, "\u2581cur": 1447, "\u2581fl": 1448, "\u2581\u0420\u043e\u0434\u0438": 1449, "\u2581\u0437\u0430\u0440\u0435\u0433\u0438\u0441\u0442\u0440\u0438\u0440\u043e\u0432\u0430": 1450, "\u2581\u043a\u0430\u0442\u0430\u043b\u043e\u0433": 1451, "19": 1452, "20": 1453, "VIN": 1454, "full": 1455, "ger": 1456, "tribute": 1457, "\u0418\u041a": 1458, "\u042f": 1459, "\u0435\u043b\u044c": 1460, "\u0436\u043d\u0430": 1461, "\u043f\u0438\u0441": 1462, "\u0449\u0443": 1463, "\u258125": 1464, "\u258132": 1465, "\u2581ur": 1466, "\u2581\u0412\u0438": 1467, "\u2581\u0420\u0430\u0441": 1468, "\u2581\u0424\u043e\u0440\u043c\u0430": 1469, "\u2581\u0434\u043e\u043c\u0430": 1470, "\u2581\u0437\u0430\u043f": 1471, "building": 1472, "red": 1473, "usto": 1474, "\u041d\u0435": 1475, "\u0420\u0415": 1476, "\u0438\u0447\u0435\u0441\u043a\u0430\u044f": 1477, "\u043d\u0438": 1478, "\u043e\u0431\u0449\u0435\u043d\u0438\u0435": 1479, "\u043e\u0434": 1480, "\u2581x": 1481, "\u2581\u0420\u0430\u0437": 1482, "\u2581\u0422\u0435\u043c\u0430": 1483, "\u2581\u0431\u043e\u043b\u0435\u0435": 1484, "\u2581\u043f\u043e\u0434\u043f\u0438\u0441": 1485, "13": 1486, "56": 1487, "Ac": 1488, "Data": 1489, "ESS": 1490, "Of": 1491, "account": 1492, "ject": 1493, "\u0430\u0445": 1494, "\u0441\u0442\u0440\u0438": 1495, "\u0446\u0438\u044e": 1496, "\u258116": 1497, "\u2581old": 1498, "\u2581sen": 1499, "\u2581work": 1500, "\u2581\u041a\u0435\u043c": 1501, "\u2581\u041e\u0442\u0432\u0435\u0442": 1502, "\u2581\u041f\u043e\u0436\u0430\u043b\u0443\u0439": 1503, "\u2581\u041f\u0440\u043e\u0444": 1504, "\u2581\u0440\u0430\u0437\u0434\u0435\u043b\u0435": 1505, "\u2581\u0440\u0443\u043a\u043e\u0432\u043e\u0434\u0438\u0442\u0435\u043b\u044f": 1506, "22": 1507, "ANY": 1508, "Ye": 1509, "im": 1510, "ll": 1511, "website": 1512, "\u041f\u0440\u0438": 1513, "\u043b\u0435": 1514, "\u043f\u043b\u0430\u0442\u0430": 1515, "\u0441\u0438\u044f": 1516, "\u0441\u0442": 1517, "\u0441\u0442\u0430\u043d\u043e\u0432": 1518, "\u0448": 1519, "\u2581g": 1520, "\u2581keyword": 1521, "\u2581\u0421\u0442\u0430\u0440": 1522, "\u2581\u043e\u0441\u0442\u0430\u043d\u0435\u0442\u0441\u044f": 1523, "\u2581\u043f\u043e\u0447\u0442\u043e\u0432": 1524, "-4": 1525, "De": 1526, "align": 1527, "tele": 1528, "\u0435\u043d\u044c": 1529, "\u043c\u0438\u0442\u0435": 1530, "\u043e\u043b\u043e\u0433\u0438\u044f": 1531, "\u0440\u043e\u0432": 1532, "\u2581Individual": 1533, "\u2581Partner": 1534, "\u2581Step": 1535, "\u2581Technologie": 1536, "\u2581news": 1537, "\u2581\u0442\u043e\u0440\u0433\u043e\u0432": 1538, "\u2581\u0448\u0442": 1539, "-9": 1540, "21": 1541, "93": 1542, "DAY": 1543, "PRO": 1544, "chair": 1545, "conf": 1546, "po": 1547, "sing": 1548, "\u041c\u0421": 1549, "\u0432\u0430\u0448": 1550, "\u0432\u043e\u0434": 1551, "\u0432\u043e\u043b": 1552, "\u044f\u043c\u0438": 1553, "\u25810.5": 1554, "\u258115": 1555, "\u2581Aval": 1556, "\u2581TY": 1557, "\u2581about": 1558, "\u2581language": 1559, "\u2581\u041e\u0441\u0442\u0430": 1560, "\u2581\u0420\u0443\u0441": 1561, "\u2581\u0421\u0442\u0440\u043e": 1562, "\u2581\u0431\u0440\u0435\u043d\u0434": 1563, "\u2581\u0433": 1564, "\u2581\u043f\u043e\u0432\u0442\u043e\u0440\u043d\u043e": 1565, "01": 1566, "65": 1567, "Check": 1568, "No": 1569, "direct": 1570, "hau": 1571, "pla": 1572, "rec": 1573, "\u0434\u0430\u0442\u044c": 1574, "\u0440": 1575, "\u2581me": 1576, "\u2581us": 1577, "\u2581\u0412\u0430\u0441": 1578, "\u2581\u0416": 1579, "\u2581\u0420\u0430": 1580, "\u2581\u0421\u0442\u0430": 1581, "\u2581\u0422": 1582, "\u2581\u043a\u0430\u0440\u0442": 1583, "\u2581\u043f\u0440\u043e\u0447": 1584, "\u2581\u0441\u0438\u0441\u0442\u0435\u043c\u0443": 1585, "\u2581\u0443\u0447\u0430\u0441\u0442\u0438\u044f": 1586, "\u2581\u0447\u0435\u0440\u0435\u0437": 1587, "\")": 1588, "from": 1589, "level": 1590, "ok": 1591, "status": 1592, "string": 1593, "ya": 1594, "yes": 1595, "\u0412\u0430": 1596, "\u0434\u043e\u043b\u0436": 1597, "\u2581Customer": 1598, "\u2581ad": 1599, "\u2581k": 1600, "\u2581repeat": 1601, "\u2581sec": 1602, "\u2581secret": 1603, "\u2581\u0412\u0435\u0431": 1604, "\u2581\u0412\u0435\u0440": 1605, "\u2581\u0413\u0440\u0430": 1606, "\u2581\u0423\u0447\u0435\u043d\u0438": 1607, "\u2581\u0432\u0441\u0435": 1608, "\u2581\u043f\u043e\u0441\u043b\u0435": 1609, "165": 1610, "33": 1611, "75": 1612, "VID": 1613, "ck": 1614, "gen": 1615, "key": 1616, "office": 1617, "qui": 1618, "\u041e\u0431": 1619, "\u0435\u043d\u0438\u0435": 1620, "\u0436\u0434\u0430": 1621, "\u043c\u0435": 1622, "\u043f\u043b\u0430\u0442\u0435": 1623, "\u2581author": 1624, "\u2581\u043a\u0430\u043a\u043e\u0439": 1625, "09": 1626, "46": 1627, "52": 1628, "81": 1629, ":1": 1630, "Bas": 1631, "aga": 1632, "main": 1633, "tos": 1634, "zip": 1635, "\u043c\u0435\u0442": 1636, "\u2581current": 1637, "\u2581em": 1638, "\u2581\u041f\u0435\u0440": 1639, "\u2581\u0421\u0443\u043c": 1640, "\u2581\u042d": 1641, "\u2581\u0432\u043e\u0437": 1642, "\u2581\u043f\u0435\u0440\u0435": 1643, "\u2581\u044f\u0449\u0438\u043a": 1644, "-3": 1645, "25": 1646, "Person": 1647, "ip": 1648, "ts": 1649, "\u0430\u0442\u043e\u0440": 1650, "\u0432\u0430": 1651, "\u0432\u044b": 1652, "\u0433\u043e\u043b\u043e\u0432": 1653, "\u043b\u0451\u043a": 1654, "\u0441\u0442\u0440\u043e\u0439": 1655, "\u0444\u043e\u043d": 1656, "\u258120": 1657, "\u2581\u041a\u043e\u0448": 1658, "\u2581\u0431\u0443\u0434\u0443\u0442": 1659, "\u2581\u0432\u044b\u0431\u0440\u0430\u043d": 1660, "\u2581\u0437\u0434\u0435\u0441\u044c": 1661, "\u2581\u043d\u043e\u0432\u043e\u0433\u043e": 1662, "\u2581\u043f\u0435\u0440\u0435\u0434\u0430\u0447\u0438": 1663, "\u2581\u0444\u043e\u0440\u043c\u0443": 1664, "Day": 1665, "en": 1666, "ff": 1667, "personal": 1668, "radio": 1669, "\u0413\u0423": 1670, "\u0431\u0435\u0437": 1671, "\u043d\u0430\u0436": 1672, "\u2581Check": 1673, "\u2581URL": 1674, "\u2581https": 1675, "\u2581line": 1676, "\u2581tovar": 1677, "\u2581\u043a\u043d\u0438\u0433\u0430": 1678, "\u2581\u043e\u043a\u043e\u043d\u0447\u0430\u043d\u0438\u044f": 1679, "NUM": 1680, "New": 1681, "UB": 1682, "adres": 1683, "show": 1684, "\u0431\u043e\u0440": 1685, "\u0437": 1686, "\u043c\u044f": 1687, "\u0443\u0447\u0438\u0442\u044c": 1688, "\u2581123": 1689, "\u2581FIR": 1690, "\u2581Feedback": 1691, "\u2581Kim": 1692, "\u2581Sur": 1693, "\u2581year": 1694, "\u2581\u0430\u043a\u0442\u043e\u0432": 1695, "\u2581\u0430\u043a\u0446\u0438\u0438": 1696, "\u2581\u043f\u043e\u043b\u0438\u0442\u0438\u043a\u0438": 1697, "\u2581\u043f\u0440\u0438\u0435\u043c": 1698, "-6": 1699, "80": 1700, "95": 1701, "ARCH": 1702, "Comp": 1703, "First": 1704, "Par": 1705, "SC": 1706, "ams": 1707, "book": 1708, "doc": 1709, "label": 1710, "ref": 1711, "\u0414\u043e": 1712, "\u0432\u0435\u0434\u0435\u043d\u0438\u044f": 1713, "\u0434\u0443": 1714, "\u043d\u0438\u0438": 1715, "\u0441\u043a\u0430\u044f": 1716, "\u0449\u0430\u044f": 1717, "\u2581Board": 1718, "\u2581Web": 1719, "\u2581dat": 1720, "\u2581show": 1721, "\u2581skype": 1722, "\u2581\u0433\u043e\u0434\u0430": 1723, "\u2581\u0441\u043b\u043e\u0432\u0430": 1724, "\u2581\u0443\u043b": 1725, "\u2581\u0444\u0430\u043a\u0442": 1726, "Mont": 1727, "held": 1728, "ized": 1729, "out": 1730, "ule": 1731, "wer": 1732, "\u0430\u0442": 1733, "\u043f\u043e\u0432": 1734, "\u0446\u0438": 1735, "\u2581av": 1736, "\u2581day": 1737, "\u2581solid": 1738, "\u2581\u0412\u0438\u0434": 1739, "\u2581\u041c\u043e\u0441\u043a\u0432\u0430": 1740, "\u2581\u041f": 1741, "17": 1742, "54": 1743, "bord": 1744, "ney": 1745, "\u0413\u043e": 1746, "\u041a\u0430\u043a": 1747, "\u0430\u043d\u0430": 1748, "\u0438\u043b\u0441\u044f": 1749, "\u0441\u0442\u044c": 1750, "\u0449": 1751, "\u0451\u043d": 1752, "\u2581Code": 1753, "\u2581by": 1754, "\u2581\u0417\u0410": 1755, "\u2581\u0433\u043e\u0434": 1756, "\u2581\u0437\u0432\u043e\u043d": 1757, "\u2581\u043a\u043e\u0448": 1758, "\u2581\u043d\u0435\u0433\u043e": 1759, "\u2581\u0443\u043f\u0440\u0430\u0432\u043b\u0435\u043d\u0438\u044f": 1760, "ENDER": 1761, "for": 1762, "ur": 1763, "\u0410": 1764, "\u0437\u0440\u0430\u0441\u0442": 1765, "\u043e\u0432\u0430\u043d\u0438\u0435": 1766, "\u0440\u0442": 1767, "\u2581G": 1768, "\u2581Re": 1769, "\u2581example": 1770, "\u2581\u043f\u0438\u0441\u044c\u043c\u0430": 1771, "\u2581\u0440\u0443\u0431\u043b\u0435\u0439": 1772, "45": 1773, "96": 1774, "ans": 1775, "bb": 1776, "cf": 1777, "client": 1778, "content": 1779, "fa": 1780, "it": 1781, "play": 1782, "pri": 1783, "start": 1784, "\u0421\u0442\u0440": 1785, "\u0430\u043b\u044c\u043d\u044b\u0435": 1786, "\u0432\u043e": 1787, "\u0435\u0441\u043b\u0438": 1788, "\u0435\u0442\u0435": 1789, "\u0436\u0435\u043d": 1790, "\u043b\u0435\u043d\u0438\u0439": 1791, "\u043b\u044f\u0442\u044c": 1792, "\u043e\u0432\u0438\u0447": 1793, "\u0440\u0435\u043d\u0434": 1794, "\u0441\u0430": 1795, "\u044f\u0432": 1796, "\u2581color": 1797, "\u2581description": 1798, "\u2581\u0417\u0430\u0449\u0438\u0442\u0430": 1799, "\u2581\u041f\u0430": 1800, "\u2581\u042d\u0442\u043e": 1801, "\u2581\u0434\u0435\u043d\u044c": 1802, "\u2581\u0434\u0440\u0443\u0433\u0438\u0445": 1803, "Note": 1804, "ba": 1805, "doma": 1806, "est": 1807, "exp": 1808, "li": 1809, "time": 1810, "um": 1811, "\u041d\u043e": 1812, "\u0421\u043f\u0435\u0446\u0438\u0430\u043b": 1813, "\u0437\u043d\u0430": 1814, "\u258118": 1815, "\u2581Data": 1816, "\u2581clinic": 1817, "\u2581info": 1818, "\u2581store": 1819, "\u2581\u0437\u0430\u043a\u043b\u0430\u0434": 1820, "\u2581\u043a\u043b\u0438\u043d": 1821, "\u2581\u043f\u0440\u0435\u0437\u0435\u043d\u0442\u0430": 1822, "\u2581\u0441\u0432": 1823, "\u2581\u0441\u043a\u0438": 1824, "\u2581\u0443\u0447\u0430\u0441\u0442\u043d\u0438\u043a": 1825, "\u2581\u0445\u043e\u0442\u0438\u0442\u0435": 1826, "\",": 1827, "-45": 1828, "BER": 1829, "CR": 1830, "DE": 1831, "Sub": 1832, "UD": 1833, "any": 1834, "ef": 1835, "fam": 1836, "option": 1837, "person": 1838, "sh": 1839, "state": 1840, "\u0414\u0430": 1841, "\u0430\u0434\u0440\u0435\u0441": 1842, "\u0431\u0435\u043b": 1843, "\u0431\u043b\u0438": 1844, "\u0432\u0438\u0434": 1845, "\u0438\u043d\u0430": 1846, "\u0447\u0451\u0442": 1847, "\u2581my": 1848, "\u2581radio": 1849, "\u2581v": 1850, "\u2581\u041b\u044e\u0431": 1851, "\u2581\u0421\u0435": 1852, "\u2581\u0421\u0442\u0430\u0432": 1853, "\u2581\u0424\u0430\u043a\u0442": 1854, "\u2581\u043b\u0438\u0446\u0435": 1855, "\u2581\u043d\u0438\u0436\u0435": 1856, "\u2581\u0443\u0436\u0435": 1857, "-5": 1858, "02": 1859, "23": 1860, "28": 1861, "letter": 1862, "\u043f\u0430": 1863, "\u043f\u043e\u043b\u043d\u0438\u0442\u044c": 1864, "\u0441\u043a\u0438\u0445": 1865, "\u0446\u0435": 1866, "\u2581In": 1867, "\u2581O": 1868, "\u2581Register": 1869, "\u2581\u0412\u0430\u043c": 1870, "\u2581\u0414\u0435": 1871, "\u2581\u0418\u0437": 1872, "\u2581\u0434\u0435\u0442\u0430\u043b\u0438": 1873, "\u2581\u043f\u043e\u043c\u043e\u0449\u044c\u044e": 1874, "\u2581\u0441\u043e\u0433\u043b\u0430\u0441\u043d\u043e": 1875, "\u2581\u0443\u0441\u043b\u0443\u0433\u0438": 1876, "38": 1877, "EET": 1878, "ab": 1879, "na": 1880, "right": 1881, "\u0422\u0435": 1882, "\u0432\u0435\u0446": 1883, "\u043d\u044b\u043c": 1884, "\u043e\u0431\u043d\u043e\u0432\u043b\u0435\u043d": 1885, "\u0441\u043f\u043e\u0440\u0442": 1886, "\u0441\u0442\u0432\u0443": 1887, "\u0442\u0435\u043b\u0435\u0444\u043e\u043d": 1888, "\u044b\u0445": 1889, "\u2581ember": 1890, "\u2581m": 1891, "\u2581no": 1892, "\u2581security": 1893, "\u2581\u0418\u043d": 1894, "\u2581\u041e\u0440\u0433\u0430\u043d\u0438\u0437\u0430\u0446\u0438": 1895, "\u2581\u0433\u0440\u0443\u043f\u043f\u044b": 1896, "\u2581\u043a\u043b\u0438\u0435\u043d\u0442": 1897, "\u2581\u043f\u043e\u043b\u0443\u0447\u0438\u0442\u044c": 1898, "\u2581\u0441\u043e\u0432": 1899, "Page": 1900, "STR": 1901, "able": 1902, "house": 1903, "pre": 1904, "\u0436\u0435": 1905, "\u0438\u043b\u0438": 1906, "\u044c\u043d\u0430\u044f": 1907, "\u2581CO": 1908, "\u2581Kullan\u0131c\u0131": 1909, "\u2581New": 1910, "\u2581Pay": 1911, "\u2581individual": 1912, "\u2581website": 1913, "\u2581\u041e\u0440\u0433\u0430\u043d": 1914, "\u2581\u0420": 1915, "\u2581\u0420\u0435\u043a\u043b\u0430\u043c": 1916, "\u2581\u0437\u0430\u0449\u0438\u0442\u044b": 1917, "\u2581\u043a\u043e\u043c\u043c\u0435\u043d\u0442\u0430\u0440\u0438\u0439": 1918, "\u2581\u043a\u0443\u0440\u0441": 1919, "\u2581\u043d\u0430\u0448": 1920, "\u2581\u043f\u043e\u043a\u0430\u0437\u0430\u0442\u044c": 1921, "\u2581\u043f\u043e\u043b\u044c\u0437\u043e\u0432\u0430\u0442\u0435\u043b\u0435\u0439": 1922, "\u2581\u043f\u0440\u043e\u0444\u0438\u043b": 1923, "\u2581\u0440\u0435\u043a\u043e\u043c\u0435\u043d\u0434\u0430\u0446\u0438\u0438": 1924, "03": 1925, "240": 1926, "Pri": 1927, "organiz": 1928, "\u0430\u0442\u044c": 1929, "\u0431\u0440\u0430": 1930, "\u0433\u0440\u0443\u0437": 1931, "\u043b\u044e": 1932, "\u043f\u0443\u0441": 1933, "\u0440\u0435\u0441": 1934, "\u0441\u0441\u044b\u043b\u043a\u0430": 1935, "\u0447\u043d\u0438\u0442\u0435": 1936, "\u0447\u043d\u044b\u0435": 1937, "\u2581Client": 1938, "\u2581freg": 1939, "\u2581month": 1940, "\u2581postal": 1941, "\u2581save": 1942, "\u2581\u0437\u0430\u044f\u0432": 1943, "\u2581\u0438\u0437\u043e\u0431\u0440\u0430\u0436\u0435\u043d": 1944, "\u2581\u043a\u0443": 1945, "\u2581\u043c\u0438\u043d\u0438\u043c\u0443\u043c": 1946, "\u2581\u0442\u0438\u043f": 1947, "\u2581\u0442\u043e": 1948, "-2": 1949, "359": 1950, "41": 1951, "890": 1952, "Co": 1953, "XXX": 1954, "YY": 1955, "op": 1956, "sk": 1957, "\u0438\u0434\u0435\u043d\u0442": 1958, "\u0438\u0441\u0442": 1959, "\u043e\u0447\u043a\u0438": 1960, "\u043f\u043e\u043b": 1961, "\u0441\u043a\u0438\u043c": 1962, "\u044c\u0435": 1963, "\u044f\u0437": 1964, "\u2581100%": 1965, "\u258111": 1966, "\u2581B": 1967, "\u2581advert": 1968, "\u2581area": 1969, "\u2581con": 1970, "\u2581\u0411\u0443\u0434": 1971, "\u2581\u0416\u0435\u043b": 1972, "\u2581\u0427\u0442\u043e": 1973, "\u2581\u043e\u0431\u0443\u0447\u0435\u043d\u0438\u044f": 1974, "\u2581\u043f\u0440\u043e\u0433\u0440\u0430\u043c\u043c\u0443": 1975, "\u2581\u0441\u0442\u0440\u0430\u043d\u0438\u0446\u0430": 1976, "CP": 1977, "cri": 1978, "dis": 1979, "fill": 1980, "nt": 1981, "ory": 1982, "pf": 1983, "si": 1984, "wn": 1985, "\u0413\u0440\u0430\u0436\u0434\u0430\u043d": 1986, "\u0432\u043e\u0433\u043e": 1987, "\u0433\u0435": 1988, "\u0447\u043d\u044b\u0445": 1989, "\u2581XXX": 1990, "\u2581block": 1991, "\u2581location": 1992, "\u2581right": 1993, "\u2581ts": 1994, "\u2581web": 1995, "\u2581with": 1996, "\u2581\u0418\u043d\u0434\u0438": 1997, "\u2581\u041a\u0430\u0442\u0435\u0433\u043e\u0440\u0438\u044f": 1998, "\u2581\u041e\u0441\u043d\u043e\u0432\u043d\u043e": 1999, "\u2581\u0430\u043a\u0446\u0438\u044f": 2000, "\u2581\u0432\u0430\u0440\u0438\u0430\u043d\u0442": 2001, "\u2581\u0438\u0441\u043f\u043e\u043b\u044c\u0437\u043e\u0432\u0430\u043d\u0438\u0435": 2002, "\u2581\u043c\u043e\u0436\u0435\u0442": 2003, "\u2581\u043d\u0430\u043f\u0440\u0438\u043c\u0435\u0440": 2004, "\u2581\u043f\u0440\u043e\u0433\u0440\u0430\u043c\u043c\u044b": 2005, "\u2581\u0440\u0435\u0433\u0438\u0441\u0442\u0440\u0430\u0446\u0438\u044e": 2006, "\u2581\u044d\u0442\u043e\u0442": 2007, "Com": 2008, "\\": 2009, "cell": 2010, "language": 2011, "ngu": 2012, "rc": 2013, "\u041d\u041f": 2014, "\u0434\u043b\u044f": 2015, "\u043b\u0438\u0446": 2016, "\u043f\u0440\u0435\u0434": 2017, "\u0441\u0430\u043c": 2018, "\u0447\u0430\u0439": 2019, "\u0448\u043b\u0435": 2020, "\u258130": 2021, "\u2581Post": 2022, "\u2581cl": 2023, "\u2581main": 2024, "\u2581start": 2025, "\u2581town": 2026, "\u2581\u0414\u043e\u0441\u0442\u0430\u0432\u043a\u0430": 2027, "\u2581\u0431\u043e\u043b\u044c\u0448\u0435": 2028, "\u2581\u043e\u0442\u0432\u0435\u0442": 2029, "\u2581\u0444\u043e\u0440\u0443\u043c\u0430": 2030, "\u2581\u0445\u0440\u0430\u043d\u0435": 2031, "GIN": 2032, "Ob": 2033, "Ver": 2034, "bank": 2035, "ca": 2036, "pay": 2037, "\u0412\u044b": 2038, "\u041f\u0440\u043e": 2039, "\u0422\u043e": 2040, "\u0432\u043b\u0435": 2041, "\u0435\u0440\u0430\u0440\u0445": 2042, "\u0438\u043d\u0441\u0442\u0440\u0443\u043a\u0446\u0438": 2043, "\u0438\u0440\u0443\u0435\u0442\u0441\u044f": 2044, "\u0438\u0442\u0435\u043b\u044c\u043d\u043e": 2045, "\u043b\u0438\u043d\u0430": 2046, "\u043c\u0435\u043d\u0430": 2047, "\u043e\u043d": 2048, "\u043f\u043e\u0434": 2049, "\u0446\u0438\u0439": 2050, "\u0447\u0430": 2051, "\u2581Mobile": 2052, "\u2581center": 2053, "\u2581enter": 2054, "\u2581pin": 2055, "\u2581policy": 2056, "\u2581\u0413\u043b\u0430\u0432\u043d\u0430\u044f": 2057, "\u2581\u041b\u043e": 2058, "\u2581\u041c\u043e\u0439": 2059, "\u2581\u041d\u0414\u0421": 2060, "\u2581\u0432\u043e\u0441\u0441\u0442\u0430\u043d\u043e\u0432\u043b\u0435\u043d": 2061, "\u2581\u0432\u044b\u0441": 2062, "\u2581\u043b\u0438\u0446": 2063, "\u2581\u043e\u0442\u043f\u0440\u0430\u0432\u0438": 2064, "\u2581\u0441\u0435\u0442\u0438": 2065, "\u2581\u0444\u043e\u0440\u043c\u044b": 2066, "42": 2067, "7-1": 2068, "777": 2069, "Auto": 2070, "IS": 2071, "family": 2072, "favor": 2073, "register": 2074, "\u041f\u041e": 2075, "\u041f\u043e\u0434": 2076, "\u0430\u0446\u0438\u0438": 2077, "\u0435\u0440\u0443": 2078, "\u0435\u0441\u0441": 2079, "\u0438\u0442\u0435\u043b\u0435\u043d": 2080, "\u043a\u0430\u0437\u0430\u043b\u0438": 2081, "\u043c\u0443": 2082, "\u0440\u0435\u043a": 2083, "\u0442\u0430\u0440\u0438": 2084, "\u2581LO": 2085, "\u2581NEW": 2086, "\u2581PRO": 2087, "\u2581have": 2088, "\u2581im": 2089, "\u2581member": 2090, "\u2581price": 2091, "\u2581ulo": 2092, "\u2581\u0414\u043e\u0433\u043e\u0432\u043e\u0440": 2093, "\u2581\u0414\u0440\u0443\u0433\u043e": 2094, "\u2581\u0418\u0441": 2095, "\u2581\u041c\u043e\u0436\u043d\u043e": 2096, "\u2581\u0421\u043e\u0437\u0434\u0430": 2097, "\u2581\u0431\u0438\u043b\u0435\u0442": 2098, "\u2581\u0432\u0430\u0448\u0438": 2099, "\u2581\u0434\u043e\u043a\u0443\u043c\u0435\u043d\u0442": 2100, "\u2581\u043a\u043e\u043c\u043f\u0430\u043d\u0438\u0439": 2101, "\u2581\u043d\u043e\u0432\u044b\u0445": 2102, "\u2581\u043d\u0443\u0436\u043d\u043e": 2103, "\u2581\u043e\u043f\u043b\u0430\u0442\u044b": 2104, "\u2581\u043f\u043e\u043b\u044c\u0437\u043e\u0432\u0430\u043d\u0438\u044f": 2105, "\u2581\u044d\u0442\u043e": 2106, "67": 2107, "76": 2108, "AL": 2109, "bl": 2110, "gmail": 2111, "messa": 2112, "poli": 2113, "so": 2114, "social": 2115, "tor": 2116, "xxx": 2117, "\u0432\u0430\u0439\u0442\u0435": 2118, "\u0432\u0430\u0442\u044c\u0441\u044f": 2119, "\u0435\u0432": 2120, "\u0438\u0447\u0435\u0441\u043a\u0438": 2121, "\u043a\u043e\u0432": 2122, "\u043e\u0432\u0430\u0442\u044c": 2123, "\u2581(9": 2124, "\u2581de": 2125, "\u2581legal": 2126, "\u2581o": 2127, "\u2581subject": 2128, "\u2581\u041a\u043e\u043d\u0442\u0440\u043e\u043b\u044c": 2129, "\u2581\u0424\u0435\u0434\u0435\u0440\u0430\u043b\u044c\u043d\u044b\u043c": 2130, "\u2581\u0427\u0430\u0441\u0442": 2131, "\u2581\u0432\u0438\u0434\u0430": 2132, "\u2581\u043d\u0430\u0436\u043c\u0438\u0442\u0435": 2133, "\u2581\u043d\u043e\u0432\u043e\u043c": 2134, "\u2581\u043f\u0435\u0440\u0441\u043e\u043d\u0430\u0436": 2135, "\u2581\u044f\u0437\u044b\u043a\u0435": 2136, "-7": 2137, "43": 2138, "MOBIL": 2139, "QUE": 2140, "back": 2141, "par": 2142, "ques": 2143, "\u041e\u0442": 2144, "\u043a\u0440\u0435\u0442": 2145, "\u043d\u043d\u044b\u0439": 2146, "\u043e\u0434\u0430": 2147, "\u0442\u043e\u0439": 2148, "\u0444\u0430": 2149, "\u0446\u0438\u043e\u043d": 2150, "\u0447\u0435\u043d\u0438\u044f": 2151, "\u0449\u0435\u043d": 2152, "\u044a\u0435\u0437\u0434": 2153, "\u2581L": 2154, "\u2581age": 2155, "\u2581currency": 2156, "\u2581dob": 2157, "\u2581font": 2158, "\u2581trade": 2159, "\u2581\u0411\u0438": 2160, "\u2581\u041d\u043e\u0432\u043e": 2161, "\u2581\u041e\u043f\u0438\u0441\u0430\u043d\u0438\u0435": 2162, "\u2581\u0421\u0438\u043c": 2163, "\u2581\u0432\u0430\u0448\u0435": 2164, "\u2581\u043a\u043b\u0438\u0435\u043d\u0442\u0430": 2165, "\u2581\u043e\u0431\u0440\u0430\u0449\u0435\u043d\u0438\u0435": 2166, "\u2581\u043f\u043e\u043a\u0443\u043f\u0430\u0442\u0435\u043b\u044f": 2167, "\u2581\u043f\u043e\u043b\u043d\u043e\u0441\u0442\u044c\u044e": 2168, "\u2581\u0441\u0432\u043e\u044e": 2169, "333": 2170, "548": 2171, "57": 2172, "72": 2173, "L": 2174, "Lo": 2175, "MENT": 2176, "NO": 2177, "PLE": 2178, "SPORT": 2179, "Sur": 2180, "card": 2181, "che": 2182, "ender": 2183, "ter": 2184, "\u0431\u043e": 2185, "\u0433\u0435\u043d": 2186, "\u0436\u0430\u0442\u044c": 2187, "\u043e\u043c\u0443": 2188, "\u0442\u0435\u043b\u044c\u043d\u044b\u0439": 2189, "\u0447\u0435\u043d\u043e": 2190, "\u258112": 2191, "\u258121": 2192, "\u2581Terms": 2193, "\u2581num": 2194, "\u2581quanti": 2195, "\u2581story": 2196, "\u2581teacher": 2197, "\u2581valyuta": 2198, "\u2581\u0411\u0435\u0437": 2199, "\u2581\u041f\u0435\u0440\u0435": 2200, "\u2581\u0438\u043d\u0442\u0435\u0440\u0432\u0430\u043b": 2201, "\u2581\u043c\u0435\u0440\u043e\u043f\u0440\u0438\u044f\u0442\u0438\u044f": 2202, "\u2581\u043e\u043d\u043b\u0430\u0439\u043d": 2203, "\u2581\u043f\u0440\u0438\u043d\u0438\u043c\u0430\u0435\u0442": 2204, "\u2581\u043f\u0443\u0431\u043b\u0438\u0447\u043d": 2205, "\u2581\u0441\u043f\u0435\u0446": 2206, "\u2581\u0442\u0435\u043b\u0435": 2207, "39": 2208, "48": 2209, "655": 2210, "82": 2211, "Or": 2212, "bf": 2213, "dex": 2214, "if": 2215, "ister": 2216, "kli": 2217, "mi": 2218, "model": 2219, "page": 2220, "quest": 2221, "tions": 2222, "ve": 2223, "work": 2224, "\u0438\u043c\u0430": 2225, "\u0438\u043d\u0433": 2226, "\u043c\u0430\u0442": 2227, "\u043c\u043c": 2228, "\u043d\u043e\u0432": 2229, "\u043e\u0442\u0432\u0435\u0442": 2230, "\u043f\u043e\u043b\u044c": 2231, "\u0440\u0430\u0437": 2232, "\u0441\u044b": 2233, "\u0444\u0440\u0430": 2234, "\u0447\u043d\u044b\u043c\u0438": 2235, "\u2581Number": 2236, "\u2581WHO": 2237, "\u2581X": 2238, "\u2581contract": 2239, "\u2581house": 2240, "\u2581index": 2241, "\u2581read": 2242, "\u2581social": 2243, "\u2581wp": 2244, "\u2581\u041a\u0440\u0435\u0434\u0438\u0442": 2245, "\u2581\u041f\u0440\u0438\u043c\u0435\u0440": 2246, "\u2581\u0421\u041f": 2247, "\u2581\u0426\u0435\u043d\u0430": 2248, "\u2581\u0432\u044b\u0431\u043e\u0440": 2249, "\u2581\u0437\u0430\u043f\u0440\u0435\u0449\u0435\u043d": 2250, "\u2581\u0438\u0437\u043c\u0435\u043d\u0438\u0442\u044c": 2251, "\u2581\u0438\u0441\u043f\u043e": 2252, "\u2581\u043a\u043b\u044e\u0447": 2253, "\u2581\u043f\u043e\u0434\u0442\u0432\u0435\u0440\u0436\u0434\u0430\u0435\u0442": 2254, "\u2581\u043f\u0440\u043e\u0435\u043a\u0442": 2255, "\u2581\u0441\u043f\u043e\u0441\u043e\u0431": 2256, "\u2581\u0444\u0438\u043b\u044c\u043c": 2257, "04": 2258, "Line": 2259, "MARK": 2260, "Pas": 2261, "SIM": 2262, "cies": 2263, "default": 2264, "end": 2265, "error": 2266, "font": 2267, "il": 2268, "nc": 2269, "ps": 2270, "pu": 2271, "public": 2272, "qual": 2273, "team": 2274, "the": 2275, "\u0430\u043b\u044c\u043d\u0430\u044f": 2276, "\u0435\u0432\u043e": 2277, "\u0441\u0438\u043c": 2278, "\u044d\u043b": 2279, "\u2581Date": 2280, "\u2581Nick": 2281, "\u2581comments": 2282, "\u2581destination": 2283, "\u2581do": 2284, "\u2581fax": 2285, "\u2581hi": 2286, "\u2581nik": 2287, "\u2581select": 2288, "\u2581sort": 2289, "\u2581this": 2290, "\u2581\u0414\u043e\u043c\u0430\u0448\u043d": 2291, "\u2581\u0432\u044b\u0440\u0430\u0436\u0430": 2292, "\u2581\u0434\u0440\u0443\u0433\u043e\u0439": 2293, "\u2581\u043a\u0443\u043f\u0438\u0442\u044c": 2294, "\u2581\u043f\u0440\u0435\u0434\u043f\u0440\u0438\u043d\u0438\u043c\u0430\u0442\u0435\u043b\u044c": 2295, "\u2581\u0440\u0443\u0441\u0441\u043a\u043e\u043c": 2296, "\u2581\u0442\u0435\u043b": 2297, "),": 2298, "44": 2299, "51": 2300, "62": 2301, "83": 2302, ":00": 2303, "DER": 2304, "Mobile": 2305, "active": 2306, "an": 2307, "co": 2308, "root": 2309, "send": 2310, "xx": 2311, "\u0431\u043e\u0440\u0443": 2312, "\u0432\u0435": 2313, "\u0432\u0435\u043d": 2314, "\u043a\u0430\u0442": 2315, "\u043d\u044b\u043c\u0438": 2316, "\u043e\u0431\u0445\u043e\u0434\u0438\u043c": 2317, "\u043e\u0442": 2318, "\u043f\u0430\u0440": 2319, "\u0440\u0438\u0445": 2320, "\u0441\u043b\u043e": 2321, "\u0444\u0440": 2322, "\u0448\u043e": 2323, "\u044b\u0432\u0430\u0435\u043c": 2324, "\u2581(+": 2325, "\u2581Facebook": 2326, "\u2581IP": 2327, "\u2581OR": 2328, "\u2581Text": 2329, "\u2581article": 2330, "\u2581driver": 2331, "\u2581job": 2332, "\u2581know": 2333, "\u2581root": 2334, "\u2581station": 2335, "\u2581\u0413\u0440\u0443\u0437": 2336, "\u2581\u0418\u043d\u0442\u0435\u0440\u0435\u0441": 2337, "\u2581\u041a\u043b\u0430\u0441": 2338, "\u2581\u0421\u043a\u043e\u043b\u044c\u043a\u043e": 2339, "\u2581\u0430\u043a\u0442\u0438\u0432": 2340, "\u2581\u0434\u0430\u0442\u0430": 2341, "\u2581\u0434\u0435\u0439\u0441\u0442\u0432\u0443": 2342, "\u2581\u0437\u0430\u043a\u0430\u0437\u0447\u0438\u043a": 2343, "\u2581\u043f\u043e\u0434\u0445\u043e\u0434\u044f\u0449\u0438": 2344, "\u2581\u043f\u0440\u0435\u0434\u043b\u043e\u0436\u0435\u043d\u0438\u0435": 2345, "\u2581\u043f\u0440\u0435\u0434\u043e\u0441\u0442\u0430\u0432\u043b\u0435\u043d\u0438\u044f": 2346, "\u2581\u043f\u0440\u043e\u0435\u043a\u0442\u0430": 2347, "\u2581\u0441\u043f\u0435\u0446\u0438\u0430\u043b\u044c\u043d\u044b\u0435": 2348, "\u2581\u044f\u0432\u043b\u044f": 2349, "BE": 2350, "DD": 2351, "El": 2352, "ION": 2353, "Le": 2354, "Se": 2355, "URL": 2356, "Un": 2357, "d\u0131": 2358, "got": 2359, "kod": 2360, "occupation": 2361, "stvo": 2362, "ture": 2363, "zh": 2364, "\u0423\u0447": 2365, "\u0435\u0432\u044b\u0435": 2366, "\u0437\u043d\u0430\u043a\u043e\u043c": 2367, "\u043b\u0435\u0437": 2368, "\u043d\u0430\u043f\u0440\u0438\u043c\u0435\u0440": 2369, "\u043d\u0442\u0438": 2370, "\u043e\u0431\u0449\u0435": 2371, "\u0440\u0430\u0431\u043e\u0442\u0430": 2372, "\u0442\u0438\u043a\u0438": 2373, "\u0447\u0438\u043d\u0430": 2374, "\u044e\u0449\u0435\u0433\u043e": 2375, "\u25811:": 2376, "\u2581=": 2377, "\u2581R": 2378, "\u2581bi": 2379, "\u2581og": 2380, "\u2581program": 2381, "\u2581si": 2382, "\u2581\u0413\u0440\u0443\u043f\u043f": 2383, "\u2581\u0418\u0434\u0435": 2384, "\u2581\u0418\u0441\u043f\u043e\u043b\u044c\u0437\u0443": 2385, "\u2581\u041c\u0430\u043b": 2386, "\u2581\u0421\u043f\u043e\u0441\u043e\u0431": 2387, "\u2581\u0421\u0443": 2388, "\u2581\u0430\u0432\u0442\u043e": 2389, "\u2581\u0432\u043b\u0430\u0434\u0435\u043b\u044c\u0446\u0430": 2390, "\u2581\u043c\u043e": 2391, "\u2581\u043f\u0440\u043e\u0433\u0440\u0430\u043c\u043c\u0435": 2392, "\u2581\u0443\u0447\u0440\u0435\u0436\u0434\u0435\u043d\u0438\u044f": 2393, ");": 2394, "0000": 2395, "06": 2396, "428": 2397, "60": 2398, "68": 2399, "84": 2400, ":25": 2401, "ATE": 2402, "BOOK": 2403, "INE": 2404, "POS": 2405, "RU": 2406, "SMS": 2407, "comp": 2408, "cp": 2409, "fix": 2410, "fiz": 2411, "iska": 2412, "location": 2413, "margin": 2414, "nd": 2415, "ovanie": 2416, "shoot": 2417, "sign": 2418, "trac": 2419, "variant": 2420, "\u0434\u0435\u043d": 2421, "\u0434\u043e\u0441\u0442\u043e\u0432\u0435\u0440\u0435\u043d": 2422, "\u0435\u043c\u043e": 2423, "\u0435\u0440\u0430": 2424, "\u043d\u0435\u0440": 2425, "\u043f\u0435\u0440\u0435": 2426, "\u043f\u0440\u043e": 2427, "\u20bd": 2428, "\u2581125": 2429, "\u258122": 2430, "\u2581Eng": 2431, "\u2581Year": 2432, "\u2581business": 2433, "\u2581car": 2434, "\u2581pes": 2435, "\u2581table": 2436, "\u2581tags": 2437, "\u2581view": 2438, "\u2581\u041a\u0430\u043a\u043e": 2439, "\u2581\u041d\u0438\u0447\u0435\u0433\u043e": 2440, "\u2581\u0420\u0435\u043c\u043e\u043d\u0442": 2441, "\u2581\u0431\u0440\u0430\u0443\u0437\u0435\u0440": 2442, "\u2581\u0431\u0443\u0434\u0435\u0442\u0435": 2443, "\u2581\u043a\u0430\u0440\u0442\u0443": 2444, "\u2581\u043a\u043e\u043c\u0430\u043d\u0434\u044b": 2445, "\u2581\u043c\u0435\u0441\u0442\u043e": 2446, "\u2581\u043d\u0435\u043b\u044c\u0437\u044f": 2447, "\u2581\u043e\u0431\u0440\u0430\u0437\u043e\u0432\u0430\u043d\u0438\u0435": 2448, "\u2581\u043e\u0442\u043e\u0431\u0440\u0430\u0436\u0430": 2449, "\u2581\u043f\u043e\u043b\u043d\u043e": 2450, "\u2581\u0441\u0435": 2451, "\u2581\u0441\u043b\u043e\u0432": 2452, "\u2581\u0443\u0441\u043b\u043e\u0432\u0438\u044f\u0445": 2453, "\u2581\u0443\u0441\u043b\u0443\u0433\u0430": 2454, "\u2581\u2022": 2455, "400": 2456, "5-1": 2457, "90": 2458, "Do": 2459, "RI": 2460, "Settings": 2461, "Val": 2462, "XXXX": 2463, "`": 2464, "cl": 2465, "do": 2466, "int": 2467, "pl": 2468, "posta": 2469, "shi": 2470, "tre": 2471, "www": 2472, "\u0415": 2473, "\u0434\u0435\u0440\u0436": 2474, "\u0435\u043a\u0442": 2475, "\u043a\u0443\u043f": 2476, "\u043b\u0435\u043c": 2477, "\u043b\u0436": 2478, "\u043c\u0430\u0439": 2479, "\u0440\u0435\u0436": 2480, "\u0441\u0442\u0432\u0430": 2481, "\u044e\u0442": 2482, "\u258113": 2483, "\u2581AU": 2484, "\u2581Numa": 2485, "\u2581adres": 2486, "\u2581bank": 2487, "\u2581fir": 2488, "\u2581image": 2489, "\u2581key": 2490, "\u2581os": 2491, "\u2581relative": 2492, "\u2581\u041c\u0438\u043d\u0438\u043c\u0430\u043b": 2493, "\u2581\u0421\u043e\u0442": 2494, "\u2581\u0422\u0435\u0445\u043d\u0438\u043a": 2495, "\u2581\u0422\u0440\u0435\u0431": 2496, "\u2581\u0431\u0443\u0434\u0443": 2497, "\u2581\u0434\u0432\u0430": 2498, "\u2581\u043a\u0430\u0441": 2499, "\u2581\u043f\u043e\u0432\u0442\u043e\u0440\u0438": 2500, "\u2581\u043f\u043e\u043b\u0443\u0447\u0438\u0442\u0435": 2501, "\u2581\u0440\u0435": 2502, "\u2581\u0440\u0435\u043a\u043b\u0430\u043c\u044b": 2503, "\u2581\u0441\u0438\u0441\u0442\u0435\u043c\u044b": 2504, "\u2581\u0441\u0442\u0430\u0442\u0443\u0441": 2505, "\u2581\u0442\u0430\u043d\u0446": 2506, "\u2581\u0442\u0435\u043d\u0434\u0435\u0440": 2507, "07": 2508, "255": 2509, "36": 2510, "66": 2511, "91": 2512, "ATA": 2513, "Partner": 2514, "cd": 2515, "gram": 2516, "iwa": 2517, "lement": 2518, "lic": 2519, "messen": 2520, "mo": 2521, "moz": 2522, "nn": 2523, "wr": 2524, "\u00ad": 2525, "\u0410\u0432\u0442\u043e": 2526, "\u0410\u0434": 2527, "\u0424\u043e\u0440": 2528, "\u0430\u0446\u0438\u044f": 2529, "\u0431\u0443": 2530, "\u0432\u0440\u0435\u043c\u0435\u043d\u043d\u0430": 2531, "\u0434\u0435": 2532, "\u0434\u0435\u043d\u0438\u044f": 2533, "\u0437\u0432\u0430\u043d": 2534, "\u043b\u043e\u0441\u044c": 2535, "\u043f\u0430\u0434\u0430\u0435\u0442": 2536, "\u0441\u043e": 2537, "\u0441\u0442\u0435\u0439": 2538, "\u0446\u0435\u043d\u0437": 2539, "\u0449\u0438\u043d\u0430": 2540, "\u044e\u0449\u0435\u043c\u0443": 2541, "\u25812:": 2542, "\u2581Account": 2543, "\u2581Is": 2544, "\u2581Lang": 2545, "\u2581Telegram": 2546, "\u2581Use": 2547, "\u2581V": 2548, "\u2581http": 2549, "\u2581offer": 2550, "\u2581return": 2551, "\u2581source": 2552, "\u2581state": 2553, "\u2581want": 2554, "\u2581\u0410\u043a": 2555, "\u2581\u0418\u043b\u0438": 2556, "\u2581\u041d\u043e\u0432\u043e\u0441\u0442\u0438": 2557, "\u2581\u042d\u0442\u043e\u0442": 2558, "\u2581\u0432\u043a\u043b\u044e\u0447\u0435\u043d\u0438": 2559, "\u2581\u0437\u0430\u044f\u0432\u043a\u0443": 2560, "\u2581\u0438\u043d\u0442\u0435\u0440\u0435\u0441\u0443\u0435\u0442": 2561, "\u2581\u043c\u0430\u0433\u0430\u0437\u0438\u043d": 2562, "\u2581\u043c\u043e\u0436\u043d\u043e": 2563, "\u2581\u043f\u0438\u0441": 2564, "\u2581\u043f\u043b\u0430\u043d": 2565, "\u2581\u043f\u043b\u0430\u0442": 2566, "\u2581\u043f\u043e\u0434\u0440\u0430\u0437\u0434\u0435\u043b\u0435\u043d\u0438\u044f": 2567, "\u2581\u043f\u043e\u043b\u0443\u0447\u0430": 2568, "\u2581\u043f\u0440\u043e\u0433\u0440\u0430\u043c\u043c": 2569, "\u2581\u0440\u043e\u0431\u043e\u0442": 2570, "\u2581\u0441\u0430\u043c\u043e\u0441\u0442\u043e\u044f\u0442\u0435\u043b\u044c\u043d\u043e": 2571, "\u2581\u0441\u0430\u043d": 2572, "\u2581\u0443\u043b\u0438\u0446\u0430": 2573, "\u2581\u0444\u043e\u0440\u0443\u043c": 2574, "08": 2575, "ACT": 2576, "DEF": 2577, "Ha": 2578, "IC": 2579, "IP": 2580, "Siz": 2581, "Stat": 2582, "Web": 2583, "all": 2584, "au": 2585, "by": 2586, "dan": 2587, "ga": 2588, "inter": 2589, "ips": 2590, "ken": 2591, "kit": 2592, "ns": 2593, "og": 2594, "rf": 2595, "ted": 2596, "\u0413\u0421": 2597, "\u0426": 2598, "\u0431\u0438\u0440\u0430": 2599, "\u0431\u044a": 2600, "\u0432\u043e\u0434\u0438\u0442\u044c": 2601, "\u0434\u0435\u043b": 2602, "\u0435\u043c\u044b\u0439": 2603, "\u0436\u0430\u0432": 2604, "\u043a\u0440\u044b\u0432\u0430\u0442\u044c": 2605, "\u043b\u0438\u0437": 2606, "\u043b\u043e\u0436\u0435\u043d\u0438": 2607, "\u043e\u0441": 2608, "\u043f\u043b\u0430\u0442": 2609, "\u0441\u043a\u043e\u043c": 2610, "\u0442\u0443\u0441": 2611, "\u0443\u0437": 2612, "\u0444\u043e\u0440\u043c": 2613, "\u0447\u0435\u043d": 2614, "\u0448\u0435\u043d\u0438\u0435": 2615, "\u044e\u0449\u0438\u0439": 2616, "\u2581Pass": 2617, "\u2581Privacy": 2618, "\u2581Site": 2619, "\u2581be": 2620, "\u2581fr": 2621, "\u2581interval": 2622, "\u2581kurs": 2623, "\u2581special": 2624, "\u2581target": 2625, "\u2581un": 2626, "\u2581values": 2627, "\u2581vin": 2628, "\u2581y": 2629, "\u2581\u0414\u043e\u0441\u0442\u0443\u043f": 2630, "\u2581\u041c\u0430\u0433\u0430\u0437\u0438\u043d": 2631, "\u2581\u0421\u0442\u0443\u0434\u0435\u043d\u0442": 2632, "\u2581\u0430\u0432\u0442\u043e\u043c\u043e\u0431\u0438\u043b\u044f": 2633, "\u2581\u0432\u0430\u043c\u0438": 2634, "\u2581\u0432\u043e": 2635, "\u2581\u0435": 2636, "\u2581\u043f\u0440\u0438\u043b\u043e\u0436\u0435\u043d\u0438\u044f": 2637, "\u2581\u0441\u043e\u0433\u043b\u0430\u0441": 2638, "\u2581\u0441\u0442\u0435\u043f\u0435\u043d\u044c": 2639, "\u2581\u0444\u043e\u0442\u043e": 2640, "\u2581\u0446\u0435\u043b\u044f\u0445": 2641, "-10": 2642, "380": 2643, "53": 2644, "78": 2645, "On": 2646, "PP": 2647, "Pre": 2648, "RES": 2649, "av": 2650, "ng": 2651, "nil": 2652, "ras\u0131": 2653, "uc": 2654, "use": 2655, "\u0418\u0437": 2656, "\u042e": 2657, "\u0430\u043b\u044c\u043d\u043e\u0435": 2658, "\u0433\u043e\u0440\u043e\u0434": 2659, "\u0433\u0440\u0430\u0434": 2660, "\u0435\u043c\u0430\u044f": 2661, "\u0437\u0435\u0440": 2662, "\u0438\u0440\u043e\u0432\u0430\u043d\u0438\u044f": 2663, "\u043a\u043e\u043c": 2664, "\u043a\u0440\u044b\u0442\u044c": 2665, "\u043d\u0438\u0446\u0430": 2666, "\u043d\u043e\u0441\u0442\u044c\u044e": 2667, "\u043f\u0440\u0430\u0432\u043b\u0435\u043d": 2668, "\u0441\u0442\u0430\u0432": 2669, "\u0441\u0442\u0435\u0440": 2670, "\u0442\u0440\u0435": 2671, "\u0443\u043c": 2672, "\u044c\u0442\u0435": 2673, "\u044e\u0449\u0438\u0435": 2674, "\u044f\u0436": 2675, "\u2581$": 2676, "\u2581Condi": 2677, "\u2581Demo": 2678, "\u2581Please": 2679, "\u2581Security": 2680, "\u2581amount": 2681, "\u2581arg": 2682, "\u2581at": 2683, "\u2581document": 2684, "\u2581top": 2685, "\u2581\u0411\u0430\u043d\u043a": 2686, "\u2581\u0414\u043e\u0431\u0440\u043e": 2687, "\u2581\u041c\u0430\u0440\u043a": 2688, "\u2581\u041c\u043d\u0435": 2689, "\u2581\u041e\u043b\u0438\u043c\u043f\u0438\u0430\u0434\u0430": 2690, "\u2581\u041e\u043d\u043b\u0430\u0439\u043d": 2691, "\u2581\u0421\u0442\u043e\u0438\u043c\u043e\u0441\u0442\u044c": 2692, "\u2581\u0426\u0432\u0435\u0442": 2693, "\u2581\u0427\u0438": 2694, "\u2581\u0431\u044b": 2695, "\u2581\u0432\u043e\u0437\u043c\u043e\u0436\u043d\u043e\u0441\u0442\u044c": 2696, "\u2581\u0432\u044b\u0445\u043e\u0434": 2697, "\u2581\u0434\u043d\u0435\u0439": 2698, "\u2581\u0438\u0441\u043f\u043e\u043b\u043d\u0438": 2699, "\u2581\u043a\u043e\u0440\u043f\u0443\u0441": 2700, "\u2581\u043a\u0440\u0430\u0439": 2701, "\u2581\u043b\u044e\u0431\u043e\u0435": 2702, "\u2581\u043d\u0430\u0447\u0438\u043d\u0430": 2703, "\u2581\u043f\u043e\u0436\u0430\u043b": 2704, "\u2581\u043f\u043e\u043a\u0430\u0437": 2705, "\u2581\u043f\u043e\u043b\u0438\u0442\u0438\u043a\u0435": 2706, "\u2581\u0441\u043c\u0435": 2707, "\u2581\u0441\u043f\u0438\u0441\u043a\u0430": 2708, "\u2581\u2013": 2709, "177": 2710, "790": 2711, "97": 2712, "=": 2713, "Po": 2714, "TIONS": 2715, "Ter": 2716, "adress": 2717, "bar": 2718, "curr": 2719, "deli": 2720, "hod": 2721, "ico": 2722, "min": 2723, "pa": 2724, "pper": 2725, "ra": 2726, "sky": 2727, "very": 2728, "\u0432\u0448\u0435\u0433\u043e": 2729, "\u0438\u0437\u0438\u0440\u043e\u0432\u0430\u0442\u044c": 2730, "\u0438\u0440\u043e\u0432\u0430\u043d\u0438\u0435": 2731, "\u0438\u0446\u0430": 2732, "\u043b\u0438\u0447\u043d\u044b\u0435": 2733, "\u043c\u043e\u0436": 2734, "\u043d\u0443": 2735, "\u043e\u0432\u0430\u044f": 2736, "\u0442\u0435\u0440": 2737, "\u044e\u0442\u0441\u044f": 2738, "\u2581@": 2739, "\u2581For": 2740, "\u2581Google": 2741, "\u2581MM": 2742, "\u2581Sex": 2743, "\u2581Ver": 2744, "\u2581from": 2745, "\u2581persist": 2746, "\u2581schools": 2747, "\u2581tui": 2748, "\u2581variant": 2749, "\u2581\u041a\u0430\u043a\u0438\u0435": 2750, "\u2581\u0431\u0430\u0437\u0435": 2751, "\u2581\u0434\u043e\u043b\u0436\u043d\u043e\u0441\u0442\u044c": 2752, "\u2581\u043a\u0430\u0442\u0435\u0433\u043e\u0440\u0438\u0438": 2753, "\u2581\u043a\u043e\u043d\u0442\u0435\u043d\u0442": 2754, "\u2581\u043b\u0438\u0447\u043d\u043e": 2755, "\u2581\u043c\u043e\u0434\u0435\u043b\u0438": 2756, "\u2581\u043d\u0435\u0441\u043a\u043e\u043b\u044c\u043a\u043e": 2757, "\u2581\u043e\u0444\u0438\u0446\u0438\u0430\u043b\u044c\u043d\u043e": 2758, "\u2581\u043f\u0430\u0440\u0442\u043d\u0435\u0440\u0430": 2759, "\u2581\u043f\u043e\u0434\u0440\u044f\u0434": 2760, "\u2581\u043f\u0440\u0435\u0434\u043e": 2761, "\u2581\u043f\u0440\u0435\u0434\u043f\u0440\u0438\u043d\u0438\u043c\u0430": 2762, "\u2581\u0440\u0430\u0441\u0441": 2763, "\u2581\u0440\u0430\u0441\u0447\u0435\u0442": 2764, "\u2581\u0441\u043e\u0446": 2765, "\u2581\u0441\u0442\u0440\u0430\u043d\u0430": 2766, "\u2581\u0441\u0442\u0440\u0430\u043d\u0438\u0446\u044b": 2767, "111": 2768, "126": 2769, ":20": 2770, "END": 2771, "Sel": 2772, "TO": 2773, "Ti": 2774, "detail": 2775, "down": 2776, "el": 2777, "issue": 2778, "ka": 2779, "local": 2780, "manager": 2781, "mn": 2782, "my": 2783, "note": 2784, "old": 2785, "pi": 2786, "tail": 2787, "we": 2788, "\u0421\u043e": 2789, "\u0432\u0430\u043d\u0438\u0435": 2790, "\u0438\u043b\u044c": 2791, "\u0438\u0442\u0435\u0441\u044c": 2792, "\u0438\u0442\u044c\u0441\u044f": 2793, "\u043f\u0430\u0434\u0430": 2794, "\u0440\u0435\u0448": 2795, "\u0441\u0435\u0440": 2796, "\u0441\u043f\u0435": 2797, "\u0447\u0438\u0439": 2798, "\u044e\u0449\u0443\u044e": 2799, "\u258190": 2800, "\u2581Language": 2801, "\u2581Perfect": 2802, "\u2581Z": 2803, "\u2581count": 2804, "\u2581education": 2805, "\u2581expira": 2806, "\u2581geo": 2807, "\u2581interest": 2808, "\u2581issue": 2809, "\u2581non": 2810, "\u2581www": 2811, "\u2581\u041a\u0430\u0440": 2812, "\u2581\u041c\u044b": 2813, "\u2581\u0420\u043e\u0441\u0441\u0438\u044f": 2814, "\u2581\u0432\u0438\u0434": 2815, "\u2581\u0434\u043e\u043b\u0436\u043d\u044b": 2816, "\u2581\u0434\u043e\u0445\u043e\u0434": 2817, "\u2581\u0434\u0440\u0443\u0433\u043e\u0435": 2818, "\u2581\u0435\u0434\u0438\u043d": 2819, "\u2581\u0438\u0441\u043f\u043e\u043b\u044c\u0437\u043e\u0432\u0430\u043d": 2820, "\u2581\u043d\u0430\u043b\u043e\u0433\u043e\u043e\u0431\u043b\u043e\u0436\u0435\u043d\u0438\u044f": 2821, "\u2581\u043e\u0441\u043d\u043e\u0432\u043d\u043e\u0439": 2822, "\u2581\u043f\u043e\u043b\u0438": 2823, "\u2581\u043f\u0440\u043e\u0446\u0435\u0434\u0443\u0440\u044b": 2824, "\u2581\u0444\u043e\u0440\u043c\u0435": 2825, "-20": 2826, "-8": 2827, "635": 2828, "74": 2829, "Bank": 2830, "CE": 2831, "CONT": 2832, "Edit": 2833, "Full": 2834, "LY": 2835, "REG": 2836, "UE": 2837, "[24]": 2838, "af": 2839, "am": 2840, "close": 2841, "come": 2842, "cre": 2843, "dir": 2844, "flat": 2845, "fn": 2846, "here": 2847, "home": 2848, "job": 2849, "link": 2850, "nost": 2851, "ov": 2852, "politic": 2853, "serie": 2854, "succes": 2855, "van": 2856, "video": 2857, "\u041c\u043e\u0441\u043a\u0432\u0430": 2858, "\u041d\u0430\u0441\u0442\u043e\u044f\u0449\u0438": 2859, "\u0420\u041e": 2860, "\u0421\u041f": 2861, "\u0424\u0418": 2862, "\u0428": 2863, "\u0438\u043b\u0438\u0441\u044c": 2864, "\u043d\u0435\u043c": 2865, "\u0440\u0430\u0431\u0430\u0442": 2866, "\u0441\u043b\u043e\u0432\u0438": 2867, "\u0443\u043d": 2868, "\u0444\u0438\u0437": 2869, "\u0447\u043d\u0430\u044f": 2870, "\u2581Day": 2871, "\u2581Kids": 2872, "\u2581Middle": 2873, "\u2581Policy": 2874, "\u2581Return": 2875, "\u2581Subscribe": 2876, "\u2581Theme": 2877, "\u2581control": 2878, "\u2581department": 2879, "\u2581down": 2880, "\u2581en": 2881, "\u2581es": 2882, "\u2581license": 2883, "\u2581participant": 2884, "\u2581request": 2885, "\u2581use": 2886, "\u2581\u0415\u0449\u0435": 2887, "\u2581\u0418\u043d\u0442\u0435\u0440\u043d\u0435\u0442": 2888, "\u2581\u0418\u043d\u0444\u043e\u0440\u043c\u0430\u0446\u0438\u044f": 2889, "\u2581\u041a\u043b\u0443\u0431": 2890, "\u2581\u0421\u0440\u0435\u0434": 2891, "\u2581\u0431\u0435\u0437\u043e\u043f\u0430\u0441\u043d\u043e\u0441\u0442\u0438": 2892, "\u2581\u0437\u0430\u043a\u0430\u043d\u0447\u0438\u0432\u0430": 2893, "\u2581\u043a\u043e\u0440": 2894, "\u2581\u043a\u0440\u0435\u0434\u0438\u0442\u0430": 2895, "\u2581\u043c\u043d\u043e\u0439": 2896, "\u2581\u043c\u043e\u0438": 2897, "\u2581\u043c\u043e\u0439": 2898, "\u2581\u043c\u043e\u043c\u0435\u043d\u0442": 2899, "\u2581\u043e\u0431\u0440\u0430\u0437\u043e\u0432\u0430\u0442\u0435\u043b\u044c\u043d": 2900, "\u2581\u043e\u0434\u0438\u043d\u0430\u043a\u043e\u0432\u044b": 2901, "\u2581\u043e\u043d": 2902, "\u2581\u043f\u043e\u043b\u0443\u0447\u0435\u043d\u0438\u0438": 2903, "\u2581\u043f\u043e\u0441\u0442\u0430\u0432\u0449\u0438\u043a\u0430": 2904, "\u2581\u043f\u0441\u0435\u0432\u0434\u043e": 2905, "\u2581\u043f\u0443\u0431\u043b\u0438\u043a\u0430\u0446\u0438\u0438": 2906, "\u2581\u0440\u0430\u0431\u043e\u0442\u0430\u0435\u0442": 2907, "\u2581\u0440\u043e\u0434\u0438\u0442\u0435\u043b": 2908, "\u2581\u0441\u043b\u0435\u0434\u0443\u044e\u0449\u0438\u0435": 2909, "\u2581\u0441\u043f\u0435\u0446\u0438\u0430\u043b\u044c\u043d\u043e": 2910, "\u2581\u0441\u0442\u0440\u0430\u043d\u044b": 2911, "\u2581\u0442\u0435\u043a\u0443\u0449\u0438": 2912, "\u2581\u0443\u0447\u0430\u0441\u0442\u0438\u0435": 2913, "\u2581\u044d\u043a\u0441": 2914, "49": 2915, "79": 2916, "86": 2917, "PUBL": 2918, "Si": 2919, "TR": 2920, "[25]": 2921, "activ": 2922, "fax": 2923, "interes": 2924, "lat": 2925, "list": 2926, "ments": 2927, "mes": 2928, "offer": 2929, "parent": 2930, "pr": 2931, "rb": 2932, "rop": 2933, "sem": 2934, "sum": 2935, "witch": 2936, "\u0422\u0421": 2937, "\u0427": 2938, "\u0431\u0440\u043e\u043d": 2939, "\u0432\u0430\u0442\u044c": 2940, "\u0434\u0435\u0442": 2941, "\u043a\u0430\u0437\u0430\u043d": 2942, "\u043a\u0440\u0430": 2943, "\u043b\u044c\u043d\u043e\u0441\u0442\u044c": 2944, "\u043c\u0435\u0439\u043b": 2945, "\u043e\u0432\u044b\u0435": 2946, "\u043e\u0447\u043a\u0443": 2947, "\u0442\u0438\u043d": 2948, "\u0448\u0435\u0435": 2949, "\u2581Ad": 2950, "\u2581Birthday": 2951, "\u2581PERSONAL": 2952, "\u2581School": 2953, "\u2581ed": 2954, "\u2581home": 2955, "\u2581it": 2956, "\u2581mobil": 2957, "\u2581out": 2958, "\u2581rs": 2959, "\u2581sch": 2960, "\u2581topic": 2961, "\u2581trust": 2962, "\u2581\u041a\u043e\u043d": 2963, "\u2581\u041a\u0443": 2964, "\u2581\u041d\u0410": 2965, "\u2581\u041f\u041e": 2966, "\u2581\u041f\u043e\u0441\u043b\u0435": 2967, "\u2581\u0421\u0430\u043c\u043e": 2968, "\u2581\u0432\u043b\u0430\u0434\u0435": 2969, "\u2581\u0436\u0438\u0442\u0435\u043b\u044c\u0441\u0442\u0432\u0430": 2970, "\u2581\u0437\u0430\u043a\u0443\u043f": 2971, "\u2581\u043a\u0430\u0442\u0435\u0433\u043e\u0440\u0438\u044f": 2972, "\u2581\u043a\u0430\u0447\u0435\u0441\u0442\u0432\u0435": 2973, "\u2581\u043a\u043e\u043c": 2974, "\u2581\u043a\u043e\u043c\u043f\u0430\u043d\u0438\u044f": 2975, "\u2581\u043a\u043e\u043d\u0444\u0435\u0440\u0435\u043d\u0446\u0438\u0438": 2976, "\u2581\u043c": 2977, "\u2581\u043c\u043d\u043e\u0433\u043e": 2978, "\u2581\u043c\u0443\u0437\u044b\u043a\u0430": 2979, "\u2581\u043d\u0435\u0434\u0435\u043b\u044e": 2980, "\u2581\u043d\u0435\u043f\u0440\u0438": 2981, "\u2581\u043e\u043b\u0438\u043c\u043f\u0438\u0430\u0434\u0430": 2982, "\u2581\u043f\u043e\u0434\u043f\u0438\u0441\u0430\u043d": 2983, "\u2581\u043f\u0440\u043e\u0434\u0430\u0436": 2984, "\u2581\u043f\u0443\u0431\u043b\u0438\u0447\u043d\u043e": 2985, "\u2581\u0440\u0430\u0437\u0440\u0435\u0448": 2986, "\u2581\u0441\u0430\u043b\u043e\u043d": 2987, "\u2581\u0441\u0435\u0440\u0442\u0438\u0444\u0438\u043a\u0430\u0442": 2988, "\u2581\u0441\u0438\u0441\u0442\u0435\u043c": 2989, "\u2581\u0441\u043e\u0437\u0434\u0430": 2990, "\u2581\u0441\u043f\u0438\u0441\u043e\u043a": 2991, "\u2581\u0441\u0442\u0443\u0434\u0435\u043d\u0442\u043e\u0432": 2992, "\u2581\u0443\u0441\u0442\u0440\u043e\u0439\u0441\u0442\u0432": 2993, ").": 2994, "-21": 2995, "001": 2996, "05": 2997, "114": 2998, "345": 2999, "71": 3000, "792": 3001, "87": 3002, "94": 3003, "AT": 3004, "By": 3005, "Chan": 3006, "Dis": 3007, "House": 3008, "Information": 3009, "NA": 3010, "SET": 3011, "Ta": 3012, "VAL": 3013, "ZI": 3014, "cons": 3015, "current": 3016, "den": 3017, "fer": 3018, "ke": 3019, "lector": 3020, "nom": 3021, "port": 3022, "rg": 3023, "telefon": 3024, "upa": 3025, "\u0416\u0414": 3026, "\u041c\u044b": 3027, "\u0422": 3028, "\u0431\u044b\u0442": 3029, "\u0432\u0435\u0440\u0441": 3030, "\u0432\u0438\u0437\u0438": 3031, "\u0434\u044e": 3032, "\u0437\u0438": 3033, "\u0437\u043e\u0432": 3034, "\u0438\u0444": 3035, "\u043a\u0430\u0445": 3036, "\u043a\u043e\u043d": 3037, "\u043b\u0438\u0441\u0442": 3038, "\u043c\u044b\u0441\u043b\u043e\u0432": 3039, "\u043e\u0440\u044b": 3040, "\u043e\u0447\u043d\u044b\u0435": 3041, "\u0440\u0430\u0441": 3042, "\u0440\u043e\u0441": 3043, "\u0444": 3044, "\u0447\u0438\u043a": 3045, "\u044d": 3046, "\u258160": 3047, "\u2581Category": 3048, "\u2581Create": 3049, "\u2581D": 3050, "\u2581Med": 3051, "\u2581N": 3052, "\u2581Nice": 3053, "\u2581Open": 3054, "\u2581Organization": 3055, "\u2581Region": 3056, "\u2581Second": 3057, "\u2581Up": 3058, "\u2581attribut": 3059, "\u2581ci": 3060, "\u2581confirmation": 3061, "\u2581model": 3062, "\u2581obraz": 3063, "\u2581option": 3064, "\u2581para": 3065, "\u2581pok": 3066, "\u2581pol": 3067, "\u2581properties": 3068, "\u2581service": 3069, "\u2581will": 3070, "\u2581\u0414\u0440\u0443\u0433\u0438": 3071, "\u2581\u041c\u043e\u0434\u0435\u043b": 3072, "\u2581\u0421\u0443\u0434": 3073, "\u2581\u0424\u0435\u0434\u0435\u0440\u0430\u0446\u0438\u0438": 3074, "\u2581\u0427\u0443": 3075, "\u2581\u042d\u0442\u0430": 3076, "\u2581\u0431\u043e\u043d\u0443\u0441": 3077, "\u2581\u0431\u0443\u0434\u0435\u043c": 3078, "\u2581\u0432\u043e\u043f\u0440\u043e\u0441\u044b": 3079, "\u2581\u0432\u044b\u0431\u043e\u0440\u0430": 3080, "\u2581\u0434\u043e\u0433\u043e\u0432\u043e\u0440": 3081, "\u2581\u0438\u043d\u0442\u0435\u0440\u0435\u0441": 3082, "\u2581\u043a\u0430\u0440\u0442\u0430": 3083, "\u2581\u043c\u0430\u0433\u0430\u0437\u0438\u043d\u0430": 3084, "\u2581\u043c\u0430\u0440": 3085, "\u2581\u043e\u0431\u0440\u0430\u0449\u0435\u043d\u0438\u044f": 3086, "\u2581\u043e\u0431\u0449\u0435": 3087, "\u2581\u043e\u0444\u0438\u0441": 3088, "\u2581\u043f\u0440\u043e\u0434\u0443\u043a\u0446\u0438\u0438": 3089, "\u2581\u043f\u0443\u0442": 3090, "\u2581\u0441\u0431\u043e\u0440": 3091, "\u2581\u0441\u0432\u043e\u0438": 3092, "\u2581\u0441\u0435\u043c\u0438\u043d\u0430\u0440": 3093, "\u2581\u0441\u043e\u0442\u0440\u0443\u0434\u043d\u0438\u043a\u043e\u0432": 3094, "\u2581\u0441\u0443\u043f\u0440\u0443\u0433": 3095, "\u2581\u0442\u0430\u0440\u0438\u0444": 3096, "\u2581\u044f\u0432\u043b\u044f\u0435\u0442\u0441\u044f": 3097, ".01.": 3098, "1.3": 3099, "154": 3100, "372": 3101, "542": 3102, "549": 3103, "61": 3104, "73": 3105, "9-1": 3106, "App": 3107, "Book": 3108, "Card": 3109, "Control": 3110, "DO": 3111, "EAD": 3112, "ICA": 3113, "Pa": 3114, "Pay": 3115, "Ri": 3116, "[3]": 3117, "app": 3118, "ary": 3119, "ate": 3120, "bel": 3121, "ddi": 3122, "di": 3123, "dol": 3124, "general": 3125, "go": 3126, "ground": 3127, "ks": 3128, "mount": 3129, "tle": 3130, "wed": 3131, "\u0411": 3132, "\u0420\u0430\u0441": 3133, "\u0430\u0435\u0442": 3134, "\u0432\u0430\u044f": 3135, "\u0434\u0435\u043b\u0435\u043d\u0438\u0435": 3136, "\u0435\u0440\u043e\u043c": 3137, "\u0435\u0446": 3138, "\u0437\u0438\u0432": 3139, "\u0439\u0441": 3140, "\u043a\u0430\u043a": 3141, "\u043a\u043b\u044e": 3142, "\u043b\u0435\u0432\u0430": 3143, "\u043b\u0435\u043a": 3144, "\u043d\u0434": 3145, "\u043d\u0438\u043c\u0430\u0442\u044c": 3146, "\u043e\u044e": 3147, "\u043f\u043e\u043b\u043d": 3148, "\u043f\u0440\u043e\u0441": 3149, "\u0440\u0435\u0434\u043d\u0435": 3150, "\u0440\u0435\u043b\u0438": 3151, "\u0440\u043e\u0447": 3152, "\u0441\u0438\u0441\u0442\u0435\u043c": 3153, "\u0441\u043a": 3154, "\u0441\u043a\u0438\u043c\u0438": 3155, "\u0441\u0442\u0443\u043f\u0438\u0442\u044c": 3156, "\u0445\u043e\u0436": 3157, "\u0448\u0435\u043d\u0438\u044f": 3158, "\u0449\u0435\u0435": 3159, "\u044c\u043d\u044b\u0445": 3160, "\u2581(3)": 3161, "\u2581)": 3162, "\u2581Paro": 3163, "\u2581Service": 3164, "\u2581State": 3165, "\u2581Vali": 3166, "\u2581WORK": 3167, "\u2581ar": 3168, "\u2581cod": 3169, "\u2581employee": 3170, "\u2581mm": 3171, "\u2581on": 3172, "\u2581receive": 3173, "\u2581school": 3174, "\u2581value": 3175, "\u2581\u0411\u0430": 3176, "\u2581\u0415\u0441\u0442\u044c": 3177, "\u2581\u0417": 3178, "\u2581\u041a\u0430\u0440\u0442\u0430": 3179, "\u2581\u0421\u041e": 3180, "\u2581\u0421\u0430\u043c": 3181, "\u2581\u0421\u043f\u0430\u0441\u0438\u0431\u043e": 3182, "\u2581\u0432\u043e\u0437\u0440\u0430\u0441\u0442": 3183, "\u2581\u0432\u044b\u0448\u0435": 3184, "\u2581\u0433\u0430\u043b": 3185, "\u2581\u0437\u043d\u0430\u0447\u0435\u043d\u0438\u0435": 3186, "\u2581\u0438\u043c\u0435\u043d\u0438": 3187, "\u2581\u043b\u044e\u0431\u0438\u0442\u0435": 3188, "\u2581\u043c\u0435\u0441\u0442\u0430": 3189, "\u2581\u043d\u0430\u0439\u0442\u0438": 3190, "\u2581\u0441\u0430\u043c\u043e": 3191, "\u2581\u0441\u0440\u043e\u043a\u0430": 3192, "\u2581\u0442\u0435\u043a\u0441\u0442\u0430": 3193, "\u2581\u0442\u043e\u0432\u0430\u0440\u044b": 3194, "\u2581\u0442\u043e\u043c": 3195, "\u2581\u0443\u043a\u0430\u0437\u0430\u0442\u044c": 3196, "\u2581\u0444\u0430\u043a\u0443\u043b\u044c\u0442\u0435\u0442": 3197, "\u2581\u0447\u0438\u0441\u043b\u0435": 3198, "\u2581\u0448\u043a\u043e\u043b\u044b": 3199, "\u2581\u044d\u0442\u0430\u0436": 3200, "123": 3201, "128": 3202, "290": 3203, "375": 3204, "495": 3205, "63": 3206, "89": 3207, "GV": 3208, "IO": 3209, "NX": 3210, "RF": 3211, "SON": 3212, "TIF": 3213, "[4]": 3214, "ash": 3215, "bo": 3216, "cense": 3217, "ding": 3218, "eer": 3219, "fe": 3220, "hotel": 3221, "pt": 3222, "row": 3223, "sa": 3224, "ssu": 3225, "ti": 3226, "tional": 3227, "ye": 3228, "\u0411\u0430": 3229, "\u0415\u041d\u0418\u042f": 3230, "\u041a\u0412": 3231, "\u041c\u041e": 3232, "\u0422\u0440\u0435": 3233, "\u042d": 3234, "\u0433\u043b\u0430\u0432": 3235, "\u0434\u043e\u0441\u0442\u0443\u043f": 3236, "\u0438\u0437\u043e\u0432\u0430\u043d": 3237, "\u0438\u043a\u0430": 3238, "\u0438\u0446\u0438": 3239, "\u043b\u0435\u0439": 3240, "\u043b\u043b": 3241, "\u043c\u043e\u0432": 3242, "\u043c\u044b": 3243, "\u043d\u0438\u043a\u0430": 3244, "\u043d\u0441\u0443\u043b\u044c\u0442": 3245, "\u043e\u0432\u0443\u044e": 3246, "\u043e\u0433\u0440\u0430\u0444": 3247, "\u0441\u0442\u0430\u0432\u043b\u0435\u043d": 3248, "\u0442\u0430\u043a": 3249, "\u0442\u043e\u043b\u043e\u0433\u0438\u044f": 3250, "\u0442\u043e\u043b\u044c\u043a\u043e": 3251, "\u0442\u0440\u0435\u0442\u044c\u0438\u0445": 3252, "\u0444\u0444": 3253, "\u0449\u0435\u043d\u0438\u044f": 3254, "\u044b\u0441": 3255, "\u0451\u0442\u0441\u044f": 3256, "\u258119": 3257, "\u25812021": 3258, "\u258140": 3259, "\u2581Current": 3260, "\u2581Mess": 3261, "\u2581Mont": 3262, "\u2581RU": 3263, "\u2581Science": 3264, "\u2581Telefon": 3265, "\u2581Yum": 3266, "\u2581avatar": 3267, "\u2581details": 3268, "\u2581doc": 3269, "\u2581global": 3270, "\u2581object": 3271, "\u2581pedi": 3272, "\u2581pod": 3273, "\u2581se": 3274, "\u2581sig": 3275, "\u2581su": 3276, "\u2581true": 3277, "\u2581vid": 3278, "\u2581\u0412\u043e\u043f\u0440\u043e\u0441": 3279, "\u2581\u041a\u043e\u043b": 3280, "\u2581\u041d\u0430\u0440\u043e\u0434\u043d\u043e": 3281, "\u2581\u041f\u043e\u043b\u0438\u0442\u0438\u043a\u0430": 3282, "\u2581\u0425\u043e": 3283, "\u2581\u0431\u0438\u0437\u043d\u0435\u0441\u0430": 3284, "\u2581\u0432\u0435\u0440\u043d\u043e": 3285, "\u2581\u0432\u043e\u0441\u0441\u0442\u0430\u043d\u043e\u0432\u043b\u0435\u043d\u0438\u044f": 3286, "\u2581\u0432\u044b\u0431\u0440\u0430\u0442\u044c": 3287, "\u2581\u0436\u0443\u0440\u043d\u0430\u043b\u0438\u0441\u0442": 3288, "\u2581\u0437\u0430\u0431": 3289, "\u2581\u0437\u0430\u0432\u0435\u0434\u0435\u043d\u0438\u044f": 3290, "\u2581\u043b\u0438\u0447\u043d\u043e\u0441\u0442\u0438": 3291, "\u2581\u043c\u043d\u043e\u0433\u043e\u0435": 3292, "\u2581\u043e\u0431\u0435\u0441\u043f\u0435\u0447\u0435\u043d": 3293, "\u2581\u043e\u0442\u043d\u043e\u0448\u0435\u043d\u0438\u0438": 3294, "\u2581\u043f\u043b\u0430\u0442\u0430": 3295, "\u2581\u043f\u043e\u0441\u0435\u0442\u0438": 3296, "\u2581\u043f\u0440": 3297, "\u2581\u0443\u0447\u0435": 3298, "\u2581\u0444\u0438\u0440\u043c\u044b": 3299, "\u2581\u044e\u0440\u0438\u0434\u0438\u0447\u0435\u0441\u043a\u0438": 3300, "010": 3301, "104": 3302, "37": 3303, "4-1": 3304, "59": 3305, "85": 3306, "CHA": 3307, "EX": 3308, "GO": 3309, "IEL": 3310, "PK": 3311, "RA": 3312, "Ra": 3313, "STRA": 3314, "allo": 3315, "bib": 3316, "cer": 3317, "cm": 3318, "des": 3319, "ego": 3320, "fter": 3321, "gr": 3322, "lt": 3323, "mg": 3324, "mone": 3325, "nin": 3326, "ol": 3327, "pir": 3328, "point": 3329, "pon": 3330, "pro": 3331, "reference": 3332, "service": 3333, "sv": 3334, "ul": 3335, "\u041a\u043e\u043d": 3336, "\u0430\u043d\u0442": 3337, "\u0430\u0442\u0438\u0432": 3338, "\u0431\u044e": 3339, "\u0432\u043c\u0435": 3340, "\u0435\u0447\u0435\u043d": 3341, "\u0438\u043b": 3342, "\u0438\u043c\u0441\u044f": 3343, "\u0438\u0440\u0443\u0435\u043c": 3344, "\u043b\u0430\u0442\u0438": 3345, "\u043d\u044f\u0442": 3346, "\u043f\u043e\u0440": 3347, "\u0440\u0435": 3348, "\u0440\u0444": 3349, "\u0440\u044b\u0439": 3350, "\u0441\u0442\u0430\u043d": 3351, "\u0441\u0442\u0438\u043b": 3352, "\u0441\u0442\u044f\u043c\u0438": 3353, "\u0442\u043e\u0432": 3354, "\u0447\u043a\u0430": 3355, "\u0447\u043a\u043e\u0439": 3356, "\u258117": 3357, "\u2581900": 3358, "\u2581Adres": 3359, "\u2581Contact": 3360, "\u2581Home": 3361, "\u2581Me": 3362, "\u2581M\u00fc\u015fteri": 3363, "\u2581Russia": 3364, "\u2581Steam": 3365, "\u2581Yes": 3366, "\u2581brand": 3367, "\u2581citizen": 3368, "\u2581edit": 3369, "\u2581facebook": 3370, "\u2581ok": 3371, "\u2581other": 3372, "\u2581question": 3373, "\u2581selected": 3374, "\u2581transparent": 3375, "\u2581\u041b": 3376, "\u2581\u041e\u0442\u0434\u0435\u043b": 3377, "\u2581\u0420\u0430\u0441\u0441": 3378, "\u2581\u0431\u0435\u0437\u043e\u043f\u0430\u0441\u043d": 3379, "\u2581\u0432\u044b\u043f\u0443\u0441\u043a\u0430": 3380, "\u2581\u0434\u0435\u043b": 3381, "\u2581\u0434\u0440\u0443\u0433\u043e\u043c\u0443": 3382, "\u2581\u0437": 3383, "\u2581\u0438\u043c\u0435": 3384, "\u2581\u0438\u043d\u0442\u0435\u0440\u0435\u0441\u043d\u043e": 3385, "\u2581\u043a\u043e\u0442\u043e\u0440\u0430\u044f": 3386, "\u2581\u043c\u0443\u0437": 3387, "\u2581\u043e\u0431\u043c\u0435\u043d": 3388, "\u2581\u043e\u0442\u0447\u0435\u0442": 3389, "\u2581\u043e\u0448\u0438\u0431": 3390, "\u2581\u043f\u043e\u043c": 3391, "\u2581\u043f\u043e\u0441\u0442\u0430\u0432": 3392, "\u2581\u043f\u0443\u043d\u043a\u0442\u0430": 3393, "\u2581\u0440\u0430\u0431\u043e\u0442\u0443": 3394, "\u2581\u0440\u0435\u0433\u0438\u0441\u0442\u0440\u0430\u0446\u0438\u043e\u043d\u043d": 3395, "\u2581\u0441\u0435\u0440\u0438\u044f": 3396, "\u2581\u0441\u043e\u0431\u0438\u0440\u0430": 3397, "\u2581\u0441\u043f\u0438": 3398, "\u2581\u0441\u0441\u044b\u043b\u043a\u0435": 3399, "\u2581\u0441\u0442\u0440\u043e\u043a": 3400, "\u2581\u0443\u0447\u0435\u043d\u0438\u043a\u0430": 3401, "\u2581\u0447\u0435\u043a": 3402, "&": 3403, "-90": 3404, "1-1": 3405, "34": 3406, "3]": 3407, "561": 3408, "597": 3409, "608": 3410, "634": 3411, "77": 3412, "ACTIV": 3413, "All": 3414, "At": 3415, "ELE": 3416, "FZ": 3417, "IND": 3418, "Medic": 3419, "OD": 3420, "PO": 3421, "ROD": 3422, "SPEC": 3423, "UAL": 3424, "ZZ": 3425, "cat": 3426, "cation": 3427, "cker": 3428, "cycle": 3429, "event": 3430, "fr": 3431, "iniz": 3432, "ner": 3433, "nes": 3434, "nici": 3435, "online": 3436, "plete": 3437, "privat": 3438, "promo": 3439, "rod": 3440, "ta": 3441, "tal": 3442, "ten": 3443, "tro": 3444, "ui": 3445, "val": 3446, "\u0415\u0420\u0418": 3447, "\u041a\u0430": 3448, "\u041d\u0410": 3449, "\u041d\u0438": 3450, "\u042d\u0414": 3451, "\u0430\u044e": 3452, "\u0432\u0435\u0441\u0442\u0438": 3453, "\u0432\u0440\u0435\u043c\u0435": 3454, "\u0432\u0442\u043e\u0440": 3455, "\u0433\u0440": 3456, "\u0434\u0436\u0435\u0440": 3457, "\u0434\u043a\u0438": 3458, "\u0434\u043e\u0431": 3459, "\u0436\u0430": 3460, "\u0438\u0432\u0430\u043d\u0438\u0435": 3461, "\u0438\u0442\u0435\u043b\u044c": 3462, "\u043a\u0430\u043c\u0438": 3463, "\u043a\u0430\u0441": 3464, "\u043a\u043e\u0442\u043e": 3465, "\u043b\u0430\u043d": 3466, "\u043e\u0441\u0442": 3467, "\u043f\u0440\u043e\u0431\u0443\u0439\u0442\u0435": 3468, "\u0440\u0430\u0439\u043e\u043d": 3469, "\u0440\u044f\u0434": 3470, "\u0443\u0441": 3471, "\u0447\u0438\u043a\u0430": 3472, "\u0448\u0438\u0440\u0435\u043d": 3473, "\u0449\u0430": 3474, "\u0449\u0435\u043d\u0438\u0435": 3475, "\u2581%": 3476, "\u2581App": 3477, "\u2581Application": 3478, "\u2581Card": 3479, "\u2581Ethereum": 3480, "\u2581Full": 3481, "\u2581PA": 3482, "\u2581access": 3483, "\u2581cat": 3484, "\u2581core": 3485, "\u2581corp": 3486, "\u2581industry": 3487, "\u2581itu": 3488, "\u2581owner": 3489, "\u2581signature": 3490, "\u2581up": 3491, "\u2581vs": 3492, "\u2581\u0410\u0432\u0442\u043e": 3493, "\u2581\u0412\u0430\u043b": 3494, "\u2581\u041b\u0430": 3495, "\u2581\u041c\u0430": 3496, "\u2581\u041d\u0435\u0441\u043a\u043e\u043b\u044c\u043a\u043e": 3497, "\u2581\u0420\u0430\u0431\u043e\u0442\u0430": 3498, "\u2581\u0421\u043f\u0438\u0441\u043e\u043a": 3499, "\u2581\u0422\u043e\u043b\u044c\u043a\u043e": 3500, "\u2581\u0430\u043d\u043e\u043d\u0441": 3501, "\u2581\u0432\u0430\u0448\u0430": 3502, "\u2581\u0432\u0432\u0435\u0434\u0435\u043d": 3503, "\u2581\u0432\u0437\u0438\u043c\u0430": 3504, "\u2581\u0433\u0440\u0443\u043f\u043f": 3505, "\u2581\u0437\u0430\u044f\u0432\u043a\u0438": 3506, "\u2581\u0437\u043d\u0430\u043a": 3507, "\u2581\u043a\u0432\u0430\u0440\u0442\u0438\u0440\u044b": 3508, "\u2581\u043a\u043b\u0438\u0435\u043d\u0442\u043e\u0432": 3509, "\u2581\u043a\u043e\u0442\u043e\u0440\u044b\u043c": 3510, "\u2581\u043d\u0430\u043c\u0438": 3511, "\u2581\u043d\u0430\u0447\u0430\u0442\u044c": 3512, "\u2581\u043d\u0430\u0448\u0435\u043c": 3513, "\u2581\u043e\u043a\u043e\u043d\u0447\u0430": 3514, "\u2581\u043e\u0442\u0437\u044b\u0432": 3515, "\u2581\u043f\u0435\u0440\u0435\u0432\u043e\u0434": 3516, "\u2581\u043f\u043e\u0434\u0430\u0447\u0438": 3517, "\u2581\u043f\u043e\u043a\u0443\u043f": 3518, "\u2581\u043f\u043e\u0442\u0435\u043d\u0446\u0438\u0430\u043b": 3519, "\u2581\u043f\u0440\u0438\u043c\u0435\u0440": 3520, "\u2581\u043f\u0440\u043e\u0441\u0442": 3521, "\u2581\u0440\u0430\u0431\u043e\u0442": 3522, "\u2581\u0440\u0430\u0431\u043e\u0442\u0435": 3523, "\u2581\u0440\u0430\u0441\u0441\u043a\u0430\u0437": 3524, "\u2581\u0441\u0435\u0439\u0447\u0430\u0441": 3525, "\u2581\u0441\u043e\u0431\u044b\u0442\u0438\u044f": 3526, "\u2581\u0442\u0435\u043a\u0443\u0449": 3527, "\u2581\u0442\u0435\u043b\u0435\u0444\u043e\u043d\u0438": 3528, "\u2581\u0442\u0435\u043c\u0430": 3529, "\u2581\u0443\u0447\u0430\u0441\u0442\u043a\u0430": 3530, "\u2581\u0447\u0430\u0441\u0430": 3531, "!)": 3532, "\".": 3533, "-28": 3534, "120": 3535, "ES": 3536, "En": 3537, "Gene": 3538, "Is": 3539, "LIVE": 3540, "OUR": 3541, "Om": 3542, "Quan": 3543, "ST": 3544, "Str": 3545, "Tra": 3546, "aci": 3547, "action": 3548, "block": 3549, "cid": 3550, "document": 3551, "ec": 3552, "format": 3553, "ko": 3554, "let": 3555, "liver": 3556, "liya": 3557, "man": 3558, "mas": 3559, "max": 3560, "met": 3561, "ndo": 3562, "ob": 3563, "od": 3564, "plata": 3565, "pping": 3566, "rate": 3567, "rl": 3568, "rs": 3569, "rus": 3570, "school": 3571, "secret": 3572, "trans": 3573, "ua": 3574, "\u00ab": 3575, "\u041a\u0422": 3576, "\u0423\u0417": 3577, "\u0430\u043b": 3578, "\u0431\u043e\u0442\u0430": 3579, "\u0432\u0440\u0438": 3580, "\u0438\u0440\u0443\u0435\u0442": 3581, "\u0439\u0434": 3582, "\u043c\u0430\u0445": 3583, "\u043e\u043d\u0430": 3584, "\u0440\u0430": 3585, "\u0441\u0438": 3586, "\u0441\u0443": 3587, "\u0442\u0438\u043a\u0435": 3588, "\u0442\u0440\u0438\u043a": 3589, "\u0447\u0430\u0441\u0442": 3590, "\u0447\u0435\u0441\u0442\u0432\u0430": 3591, "\u0447\u0443\u044e": 3592, "\u044b\u043c\u0438": 3593, "\u044c\u044e": 3594, "\u044d\u0442\u044b": 3595, "\u044f\u0437\u0430\u043d": 3596, "\u2581(1)": 3597, "\u258199": 3598, "\u2581Add": 3599, "\u2581Au": 3600, "\u2581CON": 3601, "\u2581DE": 3602, "\u2581Street": 3603, "\u2581TC": 3604, "\u2581Type": 3605, "\u2581actual": 3606, "\u2581an": 3607, "\u2581building": 3608, "\u2581cm": 3609, "\u2581comp": 3610, "\u2581coup": 3611, "\u2581family": 3612, "\u2581group": 3613, "\u2581manufacture": 3614, "\u2581map": 3615, "\u2581passen": 3616, "\u2581push": 3617, "\u2581recap": 3618, "\u2581short": 3619, "\u2581telefon": 3620, "\u2581vote": 3621, "\u2581yes": 3622, "\u2581\u0411\u0430\u043b": 3623, "\u2581\u0411\u0435\u0441\u043f\u043b\u0430\u0442": 3624, "\u2581\u0412\u0430\u043c\u0438": 3625, "\u2581\u0412\u0440\u0435\u043c\u044f": 3626, "\u2581\u0414\u0435\u0432": 3627, "\u2581\u0414\u0443": 3628, "\u2581\u041a\u0440\u044b": 3629, "\u2581\u041d\u0435\u043e\u0431\u0445\u043e\u0434\u0438\u043c\u043e": 3630, "\u2581\u041e\u0434\u043d\u043e": 3631, "\u2581\u0420\u043e\u0441\u0441\u0438\u0438": 3632, "\u2581\u0421\u0435\u043c\u0438\u043d\u0430\u0440": 3633, "\u2581\u0424\u0438\u0440\u043c\u0430": 3634, "\u2581\u0427\u0435\u043c": 3635, "\u2581\u042d\u0442\u0438": 3636, "\u2581\u0430\u043d\u0433\u043b\u0438\u0439\u0441\u043a\u0438": 3637, "\u2581\u0432\u0441\u0435\u0433\u0434\u0430": 3638, "\u2581\u0432\u044b\u043f\u043e\u043b\u043d\u0435\u043d": 3639, "\u2581\u0434\u0435": 3640, "\u2581\u0434\u0435\u043b\u0430": 3641, "\u2581\u0436\u0435": 3642, "\u2581\u0438\u043d\u0444\u043e\u0440\u043c\u0430\u0446\u0438\u043e\u043d\u043d\u043e": 3643, "\u2581\u043a\u0440\u0435\u0434\u0438\u0442": 3644, "\u2581\u043b\u0438\u0447\u043d\u043e\u0441\u0442\u044c": 3645, "\u2581\u043c\u0430\u0442\u0435\u0440\u0438\u0430\u043b\u043e\u0432": 3646, "\u2581\u043c\u0430\u044f": 3647, "\u2581\u043c\u043e\u0433\u0443": 3648, "\u2581\u043c\u043e\u043b\u043e\u0434": 3649, "\u2581\u043d\u0430\u0441\u0442\u043e\u044f\u0449\u0435\u0435": 3650, "\u2581\u043d\u0430\u0445\u043e\u0434\u0438\u0442\u0441\u044f": 3651, "\u2581\u043d\u0435\u0434\u0432\u0438\u0436\u0438\u043c\u043e\u0441\u0442\u0438": 3652, "\u2581\u043e\u0431\u043b\u0430\u0441\u0442\u044c": 3653, "\u2581\u043e\u0434\u043d\u0438\u043c": 3654, "\u2581\u043e\u0434\u043d\u0443": 3655, "\u2581\u043f\u0438\u0441\u0430\u0442\u044c": 3656, "\u2581\u043f\u043e\u0434\u0430\u0440\u043e\u043a": 3657, "\u2581\u043f\u043e\u0440\u0442": 3658, "\u2581\u043f\u043e\u0441\u0440\u0435\u0434\u0441\u0442\u0432\u043e\u043c": 3659, "\u2581\u043f\u0440\u0438\u043d\u044f\u0442\u044c": 3660, "\u2581\u0440\u0430\u0437\u0434\u0435\u043b": 3661, "\u2581\u0440\u0430\u0437\u044b": 3662, "\u2581\u0440\u0430\u043c\u043a\u0430\u0445": 3663, "\u2581\u0440\u0435\u043f\u0443\u0442\u0430\u0446\u0438": 3664, "\u2581\u0440\u0435\u0441\u0443\u0440\u0441": 3665, "\u2581\u0441\u043f\u043e\u0441\u043e\u0431\u043e\u043c": 3666, "\u2581\u0441\u0442\u0440\u0430\u043d\u0438\u0446\u0443": 3667, "\u2581\u0441\u0443\u043c\u043c\u0443": 3668, "\u2581\u0442\u0430\u0431\u043b\u0438": 3669, "\u2581\u0442\u0440\u0435": 3670, "\u2581\u0446\u0435\u043d\u044b": 3671, "\u2581\u044d\u0442\u043e\u0433\u043e": 3672, "\u2581\u044f\u0432\u043b\u044f\u044e\u0442\u0441\u044f": 3673, "\u5bc6\u7801": 3674, "%": 3675, "-23": 3676, "-27": 3677, "1111": 3678, "3-": 3679, "300": 3680, "50": 3681, "648": 3682, "Actual": 3683, "Cookie": 3684, "Cre": 3685, "DS": 3686, "INDI": 3687, "NG": 3688, "Service": 3689, "dec": 3690, "dt": 3691, "gers": 3692, "gg": 3693, "global": 3694, "jur": 3695, "kind": 3696, "polit": 3697, "rea": 3698, "save": 3699, "set": 3700, "solut": 3701, "sse": 3702, "ther": 3703, "ton": 3704, "ut": 3705, "vali": 3706, "var": 3707, "weight": 3708, "\u0410\u0422\u0410": 3709, "\u041a\u0410": 3710, "\u041a\u041e": 3711, "\u0420\u0430": 3712, "\u0422\u0410": 3713, "\u0432\u0430\u0442\u0430": 3714, "\u0435\u043d\u0438\u044f": 3715, "\u0435\u0448\u0435": 3716, "\u0437\u0430\u0445": 3717, "\u043a\u0430\u0437": 3718, "\u043a\u0440\u0435": 3719, "\u043b\u0438\u0441\u044c": 3720, "\u043c\u0435\u0442\u0430": 3721, "\u043d\u0438\u043a\u0438": 3722, "\u043e\u0437\u0430": 3723, "\u043f\u0438\u0442\u044c": 3724, "\u043f\u0438\u0448\u0438": 3725, "\u0442\u0430\u043c": 3726, "\u0446\u043e": 3727, "\u0449\u0438\u0445": 3728, "\u2581&": 3729, "\u258106": 3730, "\u2581152": 3731, "\u2581Agency": 3732, "\u2581K": 3733, "\u2581Kodu": 3734, "\u2581Location": 3735, "\u2581MX": 3736, "\u2581Online": 3737, "\u2581Petro": 3738, "\u2581Us": 3739, "\u2581VAT": 3740, "\u2581alias": 3741, "\u2581bor": 3742, "\u2581buy": 3743, "\u2581cid": 3744, "\u2581consent": 3745, "\u2581consultant": 3746, "\u2581default": 3747, "\u2581english": 3748, "\u2581fake": 3749, "\u2581found": 3750, "\u2581given": 3751, "\u2581has": 3752, "\u2581messenger": 3753, "\u2581mob": 3754, "\u2581server": 3755, "\u2581session": 3756, "\u2581sp": 3757, "\u2581til": 3758, "\u2581\u041a\u0430\u043f": 3759, "\u2581\u041e\u0440": 3760, "\u2581\u0420\u043e\u0434": 3761, "\u2581\u0420\u0443": 3762, "\u2581\u0421\u043e\u0432\u0435\u0442": 3763, "\u2581\u0423\u0447\u0435\u0431": 3764, "\u2581\u0426": 3765, "\u2581\u0431\u0430\u0437": 3766, "\u2581\u0432\u043e\u043a\u0437\u0430\u043b": 3767, "\u2581\u0433\u0440\u0443\u043f\u043f\u0430": 3768, "\u2581\u0434\u0435\u0439": 3769, "\u2581\u0434\u043e\u043b\u0436\u043d\u043e": 3770, "\u2581\u0434\u0440\u0443\u0433\u0438\u043c": 3771, "\u2581\u0437\u0432\u0435\u0437\u0434": 3772, "\u2581\u0437\u043e\u0432\u0443\u0442": 3773, "\u2581\u0438\u0433\u0440\u043e\u043a\u0430": 3774, "\u2581\u0438\u0441\u043f\u043e\u043b\u044c\u0437\u0443\u0435\u043c": 3775, "\u2581\u043a\u043b\u0443\u0431": 3776, "\u2581\u043a\u043e\u043c\u0431\u0438": 3777, "\u2581\u043a\u043e\u043d\u0441\u0443\u043b\u044c\u0442\u0430\u0446\u0438\u0438": 3778, "\u2581\u043c\u043e\u0433\u0443\u0442": 3779, "\u2581\u043d\u0430\u0439": 3780, "\u2581\u043e\u0431\u0440\u0430\u0437\u043e\u0432\u0430\u043d\u0438\u044f": 3781, "\u2581\u043e\u0444\u043e\u0440\u043c\u043b\u0435\u043d\u0438\u044f": 3782, "\u2581\u043f\u0430\u0440\u0430\u043c\u0435\u0442\u0440": 3783, "\u2581\u043f\u0440\u0430": 3784, "\u2581\u043f\u0440\u0435\u0434\u0441\u0442\u0430\u0432\u0438\u0442\u0435\u043b": 3785, "\u2581\u043f\u0440\u043e\u0432\u0435\u0440\u043a\u0438": 3786, "\u2581\u043f\u0440\u043e\u0438\u0437\u0432\u043e\u0434\u0438\u0442\u0435\u043b\u044f": 3787, "\u2581\u043f\u0440\u043e\u043f\u0438\u0441": 3788, "\u2581\u0440\u0430\u0431\u043e\u0442\u043e\u0434\u0430\u0442\u0435\u043b\u044f": 3789, "\u2581\u0441\u0434\u0435\u043b\u0430\u0442\u044c": 3790, "\u2581\u0441\u043e\u0431\u0441\u0442\u0432\u0435\u043d\u043d\u043e\u0441\u0442\u0438": 3791, "\u2581\u0441\u0441\u044b\u043b\u043a\u0443": 3792, "\u2581\u0441\u0442\u0430\u0442\u044c\u0438": 3793, "\u2581\u0441\u0442\u0440": 3794, "\u2581\u0442\u0440\u0435\u0431\u0443\u0435\u0442\u0441\u044f": 3795, "\u2581\u0442\u0440\u0435\u043d\u0435\u0440": 3796, "\u2581\u0443\u0447\u0430\u0441\u0442\u043d\u0438\u043a\u043e\u0432": 3797, "\u2716": 3798, "456": 3799, "800": 3800, "88": 3801, "Accept": 3802, "From": 3803, "LE": 3804, "Ma": 3805, "NOST": 3806, "Per": 3807, "RD": 3808, "SY": 3809, "Step": 3810, "TC": 3811, "VO": 3812, "With": 3813, "Work": 3814, "condition": 3815, "copy": 3816, "db": 3817, "dent": 3818, "dig": 3819, "ell": 3820, "essa": 3821, "fraction": 3822, "multi": 3823, "order": 3824, "original": 3825, "ow": 3826, "res": 3827, "rk": 3828, "sep": 3829, "special": 3830, "sted": 3831, "ved": 3832, "yat": 3833, "yy": 3834, "zki": 3835, "\u042b\u0419": 3836, "\u0430\u043a\u0442": 3837, "\u0430\u043b\u044c\u043d\u044b\u0445": 3838, "\u0432\u0438\u0442": 3839, "\u0433\u0435\u043b\u044c": 3840, "\u0434\u0435\u043b\u044c": 3841, "\u0434\u0438": 3842, "\u0435\u0432\u0430": 3843, "\u0435\u043a\u0441": 3844, "\u0437\u0432\u043e\u043d": 3845, "\u043a\u0430\u043b\u0430": 3846, "\u043b\u0435\u0442": 3847, "\u043b\u0435\u0442\u0435": 3848, "\u043e\u0432\u043e\u0434\u0438\u0442\u0435\u043b": 3849, "\u043e\u0434\u043d\u043e": 3850, "\u0440\u0435\u0437": 3851, "\u0441\u043a\u0435": 3852, "\u0441\u0442\u0432\u0435\u043d": 3853, "\u0441\u0447\u0435\u0442": 3854, "\u0442\u043e\u0447\u043d\u043e": 3855, "\u0442\u0440": 3856, "\u0444\u0438\u043a\u0430\u0446\u0438\u0438": 3857, "\u0446\u044b": 3858, "\u044b\u043c": 3859, "\u044c\u043d\u044b\u0435": 3860, "\u2581(4)": 3861, "\u2581255": 3862, "\u258145": 3863, "\u2581<": 3864, "\u2581De": 3865, "\u2581Description": 3866, "\u2581Education": 3867, "\u2581Rep": 3868, "\u2581States": 3869, "\u2581Such": 3870, "\u2581affiliate": 3871, "\u2581borde": 3872, "\u2581can": 3873, "\u2581class": 3874, "\u2581dan": 3875, "\u2581income": 3876, "\u2581motor": 3877, "\u2581need": 3878, "\u2581open": 3879, "\u2581our": 3880, "\u2581race": 3881, "\u2581salon": 3882, "\u2581sr": 3883, "\u2581status": 3884, "\u2581switch": 3885, "\u2581una": 3886, "\u2581uni": 3887, "\u2581webmaster": 3888, "\u2581who": 3889, "\u2581\u0411\u043e": 3890, "\u2581\u0413\u043e\u0441": 3891, "\u2581\u041a\u0430\u0442\u0430\u043b\u043e\u0433": 3892, "\u2581\u041a\u0442\u043e": 3893, "\u2581\u041b\u044e\u0431\u043e": 3894, "\u2581\u041d\u0415": 3895, "\u2581\u041f\u0435\u0440\u0432\u043e": 3896, "\u2581\u0420\u043e\u0441": 3897, "\u2581\u0424\u0435\u0434\u0435\u0440": 3898, "\u2581\u0427\u0442\u043e\u0431\u044b": 3899, "\u2581\u0428": 3900, "\u2581\u0430\u0431\u043e": 3901, "\u2581\u0431\u0430\u043b\u043b": 3902, "\u2581\u0432\u0441\u0435\u0445": 3903, "\u2581\u0434\u0435\u0442\u0435\u0439": 3904, "\u2581\u0434\u043e\u0432\u0435\u0440\u044f": 3905, "\u2581\u0435\u0435": 3906, "\u2581\u0437\u0430\u043a\u043e\u043d": 3907, "\u2581\u0437\u0430\u0449\u0438\u0442\u043d": 3908, "\u2581\u0438\u0433\u0440\u0435": 3909, "\u2581\u0438\u0434\u0435\u044f": 3910, "\u2581\u0438\u043d\u0442\u0435\u0440\u0444\u0435\u0439\u0441": 3911, "\u2581\u0438\u0441\u0442\u043e\u0440\u0438\u0438": 3912, "\u2581\u043a\u043b\u0430\u0441\u0441\u0430": 3913, "\u2581\u043a\u043e\u043c\u0438\u0442\u0435\u0442": 3914, "\u2581\u043a\u043e\u043d\u0441\u0443\u043b\u044c\u0442\u0430\u0446\u0438\u044f": 3915, "\u2581\u043c\u0430\u0442\u0435\u0440\u0438\u0430\u043b\u044b": 3916, "\u2581\u043d\u0430\u043b\u0438": 3917, "\u2581\u043d\u0430\u0447\u0430\u043b\u0430": 3918, "\u2581\u043d\u0443\u0436\u043d\u0430": 3919, "\u2581\u043e\u0431\u0440\u0430\u0449\u0430\u0442\u044c\u0441\u044f": 3920, "\u2581\u043e\u0440\u0433\u0430\u043d\u0430": 3921, "\u2581\u043f\u0440\u043e\u0432\u0435\u0440\u043a\u0443": 3922, "\u2581\u043f\u0440\u043e\u0438\u0437\u0432\u043e\u0434\u0438\u0442\u0435\u043b": 3923, "\u2581\u0441\u0438\u0441\u0442\u0435\u043c\u0430": 3924, "\u2581\u0441\u043f\u0430\u043c": 3925, "\u2581\u0447\u0435\u043a\u0430": 3926, "\u2581\u044e\u0440\u0438\u0441\u0442": 3927, "\u25be": 3928, "(*": 3929, "-18": 3930, "-24": 3931, "2.": 3932, "206": 3933, "26)": 3934, "463": 3935, "560": 3936, "6-7": 3937, "666": 3938, "70": 3939, "778": 3940, "789": 3941, "836": 3942, "98": 3943, "An": 3944, "Cat": 3945, "Cor": 3946, "ED": 3947, "LS": 3948, "Market": 3949, "Max": 3950, "ND": 3951, "OG": 3952, "Office": 3953, "PA": 3954, "Sa": 3955, "System": 3956, "ach": 3957, "case": 3958, "dat": 3959, "dia": 3960, "dow": 3961, "ear": 3962, "enter": 3963, "fc": 3964, "fin": 3965, "gal": 3966, "learning": 3967, "partner": 3968, "pol": 3969, "radi": 3970, "ram": 3971, "ray": 3972, "room": 3973, "sc": 3974, "server": 3975, "shop": 3976, "uni": 3977, "voz": 3978, "\u041d\u041e": 3979, "\u0432\u043e\u0434\u0438": 3980, "\u0434\u0430\u0435\u0442\u0441\u044f": 3981, "\u0434\u0430\u0439\u0442\u0435": 3982, "\u0434\u043b\u0438\u043d": 3983, "\u0438\u0440\u043e\u0432\u0430\u043d": 3984, "\u0438\u0441\u043f\u043e\u043b": 3985, "\u043b\u0435\u0433": 3986, "\u043b\u043e\u0433": 3987, "\u043b\u043e\u0436\u0435\u043d\u0438\u0435": 3988, "\u043c\u0435\u0441\u044f\u0447\u043d": 3989, "\u043c\u043e\u0431\u0438\u043b\u044c": 3990, "\u043d\u0443\u0441": 3991, "\u043f\u0435\u0440": 3992, "\u043f\u043b\u0430\u0442\u0444\u043e\u0440\u043c": 3993, "\u043f\u0440\u0435": 3994, "\u043f\u0441": 3995, "\u0441\u0435\u043d": 3996, "\u0441\u0442\u0430\u043d\u0434\u0430\u0440\u0442": 3997, "\u0441\u0442\u0432\u043e\u0432\u0430\u043b": 3998, "\u0441\u0445\u043e\u0434": 3999, "\u0442\u0435\u0441\u044c": 4000, "\u0443\u043a\u0430\u0437\u0430\u043d\u043d\u044b\u0435": 4001, "\u0446\u0435\u0432": 4002, "\u044d\u043b\u0435\u043a\u0442\u0440\u043e\u043d": 4003, "\u044f\u0442\u044c": 4004, "\u0456\u043d": 4005, "\u2581(10": 4006, "\u2581(5)": 4007, "\u258101": 4008, "\u258196": 4009, "\u2581Bitcoin": 4010, "\u2581By": 4011, "\u2581Dis": 4012, "\u2581Line": 4013, "\u2581PayPal": 4014, "\u2581Reg": 4015, "\u2581Tel": 4016, "\u2581United": 4017, "\u2581WEB": 4018, "\u2581Zip": 4019, "\u2581already": 4020, "\u2581ef": 4021, "\u2581exist": 4022, "\u2581facta": 4023, "\u2581pay": 4024, "\u2581private": 4025, "\u2581sc": 4026, "\u2581voucher": 4027, "\u2581xxx": 4028, "\u2581ya": 4029, "\u2581\u0410\u0434": 4030, "\u2581\u0411\u0415\u0417": 4031, "\u2581\u0414\u0435\u0439": 4032, "\u2581\u0414\u0438": 4033, "\u2581\u041a\u0430\u0434\u0430": 4034, "\u2581\u041a\u0443\u0440\u0441": 4035, "\u2581\u041f\u0440\u0435\u0434\u0441\u0442\u0430\u0432\u0438\u0442\u0435\u043b": 4036, "\u2581\u0422\u0435\u043b": 4037, "\u2581\u0424\u0438": 4038, "\u2581\u0427\u0438\u0442\u0430": 4039, "\u2581\u0431\u0443\u0445\u0433\u0430\u043b\u0442\u0435\u0440": 4040, "\u2581\u0432\u0440\u0435\u043c\u0435\u043d\u0438": 4041, "\u2581\u0434\u043e\u0431\u0430": 4042, "\u2581\u0438\u043d\u0441\u0442\u0440\u0443\u043c\u0435\u043d\u0442": 4043, "\u2581\u043a\u0443\u043f": 4044, "\u2581\u043b\u0438\u0446\u0435\u043d\u0437": 4045, "\u2581\u043c\u043e\u0434\u0435\u043b\u044c": 4046, "\u2581\u043e\u0442\u043f\u0440\u0430\u0432\u043b\u044f": 4047, "\u2581\u043f\u043e\u0441\u0435": 4048, "\u2581\u043f\u0440\u043e\u0434\u0443\u043a\u0442\u043e\u0432": 4049, "\u2581\u0440\u0430\u0431\u043e\u0442\u0430": 4050, "\u2581\u0441\u043e\u0441\u0442\u0430\u0432": 4051, "\u2581\u0441\u0440\u0430\u0437\u0443": 4052, "\u2581\u0441\u0442\u0430\u0434\u0438\u0438": 4053, "\u2581\u0441\u0442\u0440\u0430\u043d\u0438\u0446\u0435": 4054, "\u2581\u0441\u0442\u0440\u043e": 4055, "\u2581\u0441\u0443\u0434": 4056, "\u2581\u0442\u0430": 4057, "\u2581\u0442\u043e\u0432\u0430\u0440": 4058, "\u2581\u0443\u0434\u043e\u0441\u0442\u043e\u0432\u0435\u0440\u044f": 4059, "\u2581\u0446\u0435\u043b\u0435\u0439": 4060, "\u2581\u0448\u0430\u0431\u043b\u043e\u043d": 4061, "\u2581\u049a\u04b1\u043f\u0438\u044f": 4062, "\u2581\u05d0\u05ea": 4063, "-12": 4064, "-13": 4065, "103": 4066, "559": 4067, "590": 4068, "659": 4069, "675": 4070, "678": 4071, "78)": 4072, "960": 4073, "BI": 4074, "Be": 4075, "CAP": 4076, "Can": 4077, "EGA": 4078, "Group": 4079, "KS": 4080, "ME": 4081, "Master": 4082, "NN": 4083, "PS": 4084, "Prov": 4085, "STEM": 4086, "View": 4087, "WI": 4088, "We": 4089, "[8]": 4090, "ata": 4091, "ator": 4092, "bos": 4093, "bus": 4094, "car": 4095, "cookie": 4096, "cr": 4097, "dde": 4098, "ds": 4099, "ep": 4100, "ero": 4101, "get": 4102, "hi": 4103, "kw": 4104, "light": 4105, "nca": 4106, "organisation": 4107, "pad": 4108, "rece": 4109, "rial": 4110, "rt": 4111, "sia": 4112, "tag": 4113, "tic": 4114, "tive": 4115, "try": 4116, "ulla": 4117, "va": 4118, "xt": 4119, "\u00b0": 4120, "\u0415\u0424": 4121, "\u0418\u0421": 4122, "\u0418\u0422\u0415": 4123, "\u041a\u043e": 4124, "\u041f\u043e\u043b\u0438\u0442": 4125, "\u0421\u0422\u0420\u0410": 4126, "\u0422\u0415\u041b": 4127, "\u0426\u0418\u042f": 4128, "\u0432\u0430\u043d\u0438\u044f": 4129, "\u0432\u043e\u0441\u0442\u043e\u0447\u043d": 4130, "\u0435\u0437": 4131, "\u0435\u0440\u043e\u0432": 4132, "\u0438\u043a": 4133, "\u0438\u0440\u0443\u044f": 4134, "\u0438\u0446\u0435": 4135, "\u043a\u0435\u0440": 4136, "\u043a\u0441\u0430": 4137, "\u043c\u0441": 4138, "\u043d\u0441\u0438": 4139, "\u043e\u0441\u0442\u044c": 4140, "\u043f\u0440\u043e\u0434\u0430\u0436": 4141, "\u0440\u0430\u0432": 4142, "\u0440\u0435\u043d": 4143, "\u0440\u044b": 4144, "\u0441\u0435\u0442\u0438": 4145, "\u0442\u0440\u0443\u0434\u043d\u0438": 4146, "\u0444\u043b\u043e\u0440": 4147, "\u0449\u0438\u0435": 4148, "\u0449\u0438\u043a": 4149, "\u05d5\u05e0\u05d9": 4150, "\u05d9\u05d6\u05d4": 4151, "\u05d9\u05e0\u05ea": 4152, "\u2581(14)": 4153, "\u2581(6)": 4154, "\u25811-": 4155, "\u258114": 4156, "\u2581142": 4157, "\u258123": 4158, "\u2581256": 4159, "\u258127": 4160, "\u258135": 4161, "\u2581>": 4162, "\u2581AC": 4163, "\u2581AD": 4164, "\u2581Business": 4165, "\u2581H": 4166, "\u2581Par": 4167, "\u2581Patron": 4168, "\u2581Qi": 4169, "\u2581RES": 4170, "\u2581Rain": 4171, "\u2581W": 4172, "\u2581Website": 4173, "\u2581accepte": 4174, "\u2581additional": 4175, "\u2581application": 4176, "\u2581arbitra": 4177, "\u2581ask": 4178, "\u2581born": 4179, "\u2581call": 4180, "\u2581di": 4181, "\u2581director": 4182, "\u2581fos": 4183, "\u2581grant": 4184, "\u2581mai": 4185, "\u2581max": 4186, "\u2581nav": 4187, "\u2581pm": 4188, "\u2581rac": 4189, "\u2581recu": 4190, "\u2581ref": 4191, "\u2581res": 4192, "\u2581so": 4193, "\u2581step": 4194, "\u2581student": 4195, "\u2581track": 4196, "\u2581tw": 4197, "\u2581vat": 4198, "\u2581zone": 4199, "\u2581\u0411\u0438\u043b": 4200, "\u2581\u0412\u0440\u0435\u043c\u0435": 4201, "\u2581\u0414\u0430\u043b\u0435\u0435": 4202, "\u2581\u041a\u043e": 4203, "\u2581\u041a\u043e\u043c\u0430\u043d\u0434": 4204, "\u2581\u041f\u0435": 4205, "\u2581\u041f\u043b\u0430\u0442": 4206, "\u2581\u041f\u043e\u0434\u0440\u043e\u0431\u043d\u0435\u0435": 4207, "\u2581\u041f\u0440\u0435": 4208, "\u2581\u041f\u0440\u043e\u0433\u0440\u0430\u043c": 4209, "\u2581\u041f\u0440\u043e\u0438\u0437\u0432\u043e\u0434\u0438\u0442\u0435\u043b": 4210, "\u2581\u041f\u0456\u0434": 4211, "\u2581\u0420\u0430\u0431\u043e\u0442": 4212, "\u2581\u0421\u0442\u0440\u0430\u043d\u0438\u0446\u0430": 4213, "\u2581\u0422\u0430\u043a": 4214, "\u2581\u0423\u0436": 4215, "\u2581\u0426\u0435\u043b\u044c": 4216, "\u2581\u0430\u043b": 4217, "\u2581\u0430\u043d\u0433\u043b\u0438\u0439\u0441\u043a\u043e": 4218, "\u2581\u0432\u043a\u043b\u044e\u0447\u0430\u044f": 4219, "\u2581\u0432\u0445\u043e\u0434\u0438\u0442\u044c": 4220, "\u2581\u0432\u044b\u0445\u043e\u0434\u0438\u0442": 4221, "\u2581\u0434\u043e\u043a\u0443\u043c\u0435\u043d\u0442\u043e\u0432": 4222, "\u2581\u0437\u0430\u0432\u0435\u0434\u0435\u043d\u0438\u0435": 4223, "\u2581\u0437\u0430\u0449\u0438\u0442\u0435": 4224, "\u2581\u043a\u0430\u0436\u0434\u043e\u043c": 4225, "\u2581\u043a\u0430\u043c\u0435\u0440": 4226, "\u2581\u043a\u043e\u0442\u043e\u0440\u0443\u044e": 4227, "\u2581\u043d\u0430\u0434\u0435\u0436": 4228, "\u2581\u043d\u0430\u0448\u0435\u0439": 4229, "\u2581\u043d\u043e": 4230, "\u2581\u043e\u0431\u0441\u043b\u0443\u0436\u0438\u0432\u0430\u043d\u0438\u044f": 4231, "\u2581\u043e\u0442\u0434\u0435\u043b\u0435\u043d\u0438\u044f": 4232, "\u2581\u043f\u0435\u0440\u0432\u044b\u043c": 4233, "\u2581\u043f\u043e\u0434\u0447\u0438\u043d\u0435\u043d": 4234, "\u2581\u043f\u0440\u043e\u043f\u0443\u0441\u043a\u0430": 4235, "\u2581\u043f\u0440\u043e\u0448\u043b\u0438": 4236, "\u2581\u0440\u0430\u0434\u0438\u043e": 4237, "\u2581\u0440\u0430\u043d\u0435\u0435": 4238, "\u2581\u0440\u0435\u0434": 4239, "\u2581\u0441\u043c\u043e\u0436\u0435\u0442\u0435": 4240, "\u2581\u0441\u043d\u043e\u0432\u0430": 4241, "\u2581\u0441\u0440\u0435\u0434\u0438": 4242, "\u2581\u0442\u0435\u0431\u044f": 4243, "\u2581\u0442\u0435\u043b\u0435\u0444\u043e\u043d\u0443": 4244, "\u2581\u0442\u043e\u0433\u043e": 4245, "\u2581\u0442\u0440\u0430\u043d\u0441\u0444\u0435\u0440": 4246, "\u2581\u05d1\u05d0": 4247, "\u2581\u05de\u05e2": 4248, "\u2581\u05e7\u05d5\u05e8\u05e1": 4249, "-11": 4250, "1.4": 4251, "1000": 4252, "102": 4253, "439": 4254, "55": 4255, "632": 4256, "633": 4257, "687": 4258, "888": 4259, ">": 4260, "Au": 4261, "But": 4262, "DA": 4263, "EER": 4264, "FORM": 4265, "IF": 4266, "Op": 4267, "Public": 4268, "RIP": 4269, "Ro": 4270, "STAT": 4271, "Shi": 4272, "TES": 4273, "XC": 4274, "[5]": 4275, "[6]": 4276, "berri": 4277, "body": 4278, "ci": 4279, "communica": 4280, "cto": 4281, "ffa": 4282, "her": 4283, "ju": 4284, "lever": 4285, "mm": 4286, "nymi": 4287, "os": 4288, "pm": 4289, "real": 4290, "respons": 4291, "rp": 4292, "son": 4293, "vel": 4294, "working": 4295, "yu": 4296, "zg": 4297, "\u00bb)": 4298, "\u0412\u043e": 4299, "\u0415\u0441\u043b\u0438": 4300, "\u0418\u041c": 4301, "\u041f\u0414": 4302, "\u0421\u0414": 4303, "\u0422\u0415": 4304, "\u0427\u0410": 4305, "\u0430\u043b\u044c\u043d\u043e": 4306, "\u0432\u044f\u0437\u0430\u0442\u044c": 4307, "\u0433\u0440\u0430": 4308, "\u0435\u043c\u044b\u0445": 4309, "\u0435\u0440": 4310, "\u0438\u043a\u043e\u0432": 4311, "\u0438\u0440\u043e\u0432\u043a\u0430": 4312, "\u0438\u0442\u0435\u0442": 4313, "\u0438\u0447\u0435\u0441\u043a\u043e\u0433\u043e": 4314, "\u043a\u0430\u0437\u044b": 4315, "\u043a\u043b\u0430\u0434": 4316, "\u043a\u043b\u0430\u0441\u0441": 4317, "\u043a\u043b\u0438": 4318, "\u043a\u043e\u043d\u0444\u0435\u0440\u0435\u043d\u0446": 4319, "\u043b\u0435\u0440": 4320, "\u043b\u0438\u0433\u0438": 4321, "\u043b\u044f\u0442\u044c\u0441\u044f": 4322, "\u043c\u0438\u043d\u0438\u0441\u0442\u0440": 4323, "\u043d\u043e\u043c\u0443": 4324, "\u043d\u043e\u0441": 4325, "\u043d\u044f": 4326, "\u043e\u0432\u0435": 4327, "\u043e\u043b\u0438": 4328, "\u043e\u0442\u043e": 4329, "\u043e\u0447\u043d\u043e": 4330, "\u043f\u0438\u0441\u044b\u0432\u0430\u0442\u044c": 4331, "\u043f\u043e\u043d": 4332, "\u0440\u0438\u044f": 4333, "\u0440\u0443\u0447": 4334, "\u0440\u044b\u043d": 4335, "\u0442\u0430\u0440\u0430": 4336, "\u0447\u043a\u0438": 4337, "\u0448\u0442": 4338, "\u0449\u0435\u043d\u0438": 4339, "\u0449\u0438\u043c": 4340, "\u044f\u0445": 4341, "\u2019": 4342, "\u258109:00": 4343, "\u25811,2": 4344, "\u25811.": 4345, "\u25812022": 4346, "\u258150": 4347, "\u25818.": 4348, "\u258189": 4349, "\u2581Ber": 4350, "\u2581Ent": 4351, "\u2581LEG": 4352, "\u2581Pas": 4353, "\u2581Pen": 4354, "\u2581Send": 4355, "\u2581Stay": 4356, "\u2581Test": 4357, "\u2581Time": 4358, "\u2581Twitter": 4359, "\u2581WWW": 4360, "\u2581Wild": 4361, "\u2581_____": 4362, "\u2581ac": 4363, "\u2581any": 4364, "\u2581base": 4365, "\u2581boss": 4366, "\u2581district": 4367, "\u2581edu": 4368, "\u2581fac": 4369, "\u2581fam": 4370, "\u2581focus": 4371, "\u2581instagram": 4372, "\u2581invitation": 4373, "\u2581km": 4374, "\u2581land": 4375, "\u2581list": 4376, "\u2581mari": 4377, "\u2581ms": 4378, "\u2581ord": 4379, "\u2581par": 4380, "\u2581profil": 4381, "\u2581prop": 4382, "\u2581required": 4383, "\u2581selle": 4384, "\u2581tele": 4385, "\u2581test": 4386, "\u2581veya": 4387, "\u2581\u0411\u0435\u0440": 4388, "\u2581\u0411\u0438\u0437\u043d\u0435\u0441": 4389, "\u2581\u0412\u0435\u0441": 4390, "\u2581\u0412\u043d\u0438\u043c\u0430\u043d\u0438\u0435": 4391, "\u2581\u0413\u0434\u0435": 4392, "\u2581\u0415\u0421": 4393, "\u2581\u041a\u043b\u0438": 4394, "\u2581\u041a\u043b\u0438\u0435\u043d\u0442": 4395, "\u2581\u041c\u0435\u043d": 4396, "\u2581\u041d\u043e": 4397, "\u2581\u041e\u0420": 4398, "\u2581\u041e\u043f": 4399, "\u2581\u0420\u043e\u0437": 4400, "\u2581\u0421\u0428\u0410": 4401, "\u2581\u0421\u043e\u0446\u0438\u0430\u043b": 4402, "\u2581\u0428\u0430": 4403, "\u2581\u0431\u044b\u043b\u043e": 4404, "\u2581\u0432\u0435\u0449\u0435\u0441\u0442\u0432": 4405, "\u2581\u0432\u043d\u0435\u0434\u0440\u0435\u043d": 4406, "\u2581\u0432\u0441\u0435\u043c\u0443": 4407, "\u2581\u0432\u0445\u043e\u0434\u0438\u0442": 4408, "\u2581\u0434\u0435\u0440\u0435\u0432": 4409, "\u2581\u0434\u043d\u044f": 4410, "\u2581\u0434\u043e\u0431\u0430\u0432\u0438\u0442\u044c": 4411, "\u2581\u0434\u0440\u0443\u0433\u0438\u0435": 4412, "\u2581\u0437\u043e\u043d\u0430": 4413, "\u2581\u043c\u0430\u0441\u0442\u0435\u0440": 4414, "\u2581\u043c\u0438\u0440\u0443": 4415, "\u2581\u043c\u043e\u0435\u0439": 4416, "\u2581\u043d\u043e\u0432\u0438\u043d": 4417, "\u2581\u043e\u0442\u0432\u0435\u0442\u0441\u0442\u0432\u0435\u043d\u043d": 4418, "\u2581\u043e\u0442\u043a\u0440\u044b\u0442": 4419, "\u2581\u043f\u0430": 4420, "\u2581\u043f\u0430\u0440\u0438": 4421, "\u2581\u043f\u0435\u0440\u0441\u043e\u043d\u0430\u043b\u044c\u043d": 4422, "\u2581\u043f\u043e\u0442\u0435\u0440\u044f": 4423, "\u2581\u043f\u0440\u0438\u0432": 4424, "\u2581\u043f\u0440\u0438\u0435\u043c\u0430": 4425, "\u2581\u043f\u0440\u043e\u0431\u043b\u0435\u043c\u0435": 4426, "\u2581\u043f\u0440\u043e\u0432\u0435\u0434\u0435\u043d\u0438\u044f": 4427, "\u2581\u0440": 4428, "\u2581\u0440\u0435\u0431\u0435\u043d\u043a\u0430": 4429, "\u2581\u0440\u0435\u0435\u0441\u0442\u0440": 4430, "\u2581\u0441\u0432\u043e\u0435\u0433\u043e": 4431, "\u2581\u0441\u043e\u0441\u0442\u043e\u0438\u0442\u0441\u044f": 4432, "\u2581\u0441\u043f\u0435\u0446\u0438\u0430\u043b\u0438\u0441\u0442\u043e\u0432": 4433, "\u2581\u0441\u043f\u043e\u0440\u0442\u0438\u0432\u043d\u043e": 4434, "\u2581\u0441\u0442": 4435, "\u2581\u0441\u0442\u0430\u0440": 4436, "\u2581\u0442\u0435\u043c": 4437, "\u2581\u0443\u0447\u0430\u0441\u0442\u0432\u043e\u0432\u0430\u0442\u044c": 4438, "\u2581\u0443\u0447\u0430\u0441\u0442\u043e\u043a": 4439, "\u2581\u0447\u043b\u0435\u043d": 4440, "\u2581\u0448\u043a\u043e\u043b\u044c\u043d": 4441, "\u2581\u2192": 4442, "\u540d": 4443, "-14": 4444, "-26": 4445, "-29": 4446, "-40": 4447, "-42": 4448, "117": 4449, "164": 4450, "278": 4451, "379": 4452, "452": 4453, "609": 4454, "768": 4455, "794": 4456, ":14": 4457, "Ap": 4458, "BAN": 4459, "BU": 4460, "Class": 4461, "Fac": 4462, "ILDI": 4463, "ISS": 4464, "Li": 4465, "MP": 4466, "Na": 4467, "OOO": 4468, "Radio": 4469, "SH": 4470, "Source": 4471, "TIES": 4472, "WD": 4473, "WM": 4474, "[7]": 4475, "admin": 4476, "bik": 4477, "bil": 4478, "blog": 4479, "call": 4480, "craft": 4481, "credit": 4482, "ee": 4483, "ek": 4484, "enie": 4485, "ges": 4486, "head": 4487, "hild": 4488, "ical": 4489, "ince": 4490, "ine": 4491, "io": 4492, "iya": 4493, "kor": 4494, "kt": 4495, "lang": 4496, "ler": 4497, "mination": 4498, "nce": 4499, "ning": 4500, "nr": 4501, "off": 4502, "other": 4503, "ply": 4504, "pyr": 4505, "session": 4506, "sha": 4507, "source": 4508, "ticket": 4509, "tim": 4510, "town": 4511, "track": 4512, "twitter": 4513, "vc": 4514, "war": 4515, "\u0410\u041e": 4516, "\u0412\u041a": 4517, "\u0418\u043d\u0444\u043e\u0440\u043c": 4518, "\u041a\u041e\u0419": 4519, "\u041a\u043e\u043c": 4520, "\u041e\u0419": 4521, "\u041f\u0435\u0442\u0435\u0440\u0431\u0443\u0440\u0433": 4522, "\u0420\u0418": 4523, "\u0421\u0422\u0418": 4524, "\u0432\u0435\u0437": 4525, "\u0432\u0438": 4526, "\u0432\u0438\u0441": 4527, "\u0432\u043b\u044f": 4528, "\u0432\u043e\u0435": 4529, "\u0433\u043b\u043e": 4530, "\u0434\u0430\u0440": 4531, "\u0434\u0435\u043d\u0442": 4532, "\u0436\u0430\u043b": 4533, "\u0436\u043d\u043e": 4534, "\u0438\u043c\u0438": 4535, "\u043a\u0430\u0436\u0438": 4536, "\u043a\u0430\u0437\u044b\u0432\u0430\u0435\u0442": 4537, "\u043a\u043b\u044e\u0447\u0435\u043d\u0438\u0435": 4538, "\u043a\u0440\u0443": 4539, "\u043b\u044c\u0441\u043a\u0438\u0439": 4540, "\u043b\u044f\u0435\u0442\u0441\u044f": 4541, "\u043c\u0435\u0442\u043a\u0438": 4542, "\u043d\u0435\u0435": 4543, "\u043e\u0432\u0430": 4544, "\u043e\u043f": 4545, "\u043e\u0444\u0438": 4546, "\u0440\u0430\u0442": 4547, "\u0440\u0435\u0441\u0443\u0440\u0441": 4548, "\u0440\u0443\u0441": 4549, "\u0441\u0442\u0430\u0432\u043a\u0443": 4550, "\u0441\u0442\u0430\u0432\u043b\u044f\u0435\u0442": 4551, "\u0441\u0442\u0438": 4552, "\u0441\u04e9\u0437": 4553, "\u0446\u0430": 4554, "\u0447\u0451": 4555, "\u0455": 4556, "\u201a": 4557, "\u2581***": 4558, "\u258118+": 4559, "\u25812-": 4560, "\u258129": 4561, "\u25813.": 4562, "\u2581;": 4563, "\u2581Ce": 4564, "\u2581Class": 4565, "\u2581Connect": 4566, "\u2581EN": 4567, "\u2581Job": 4568, "\u2581Km": 4569, "\u2581Manager": 4570, "\u2581Olymp": 4571, "\u2581Outlook": 4572, "\u2581PIB": 4573, "\u2581Ross": 4574, "\u2581Wolf": 4575, "\u2581`": 4576, "\u2581acc": 4577, "\u2581as": 4578, "\u2581content": 4579, "\u2581degree": 4580, "\u2581direction": 4581, "\u2581ex": 4582, "\u2581head": 4583, "\u2581identity": 4584, "\u2581lead": 4585, "\u2581participation": 4586, "\u2581process": 4587, "\u2581rad": 4588, "\u2581ru": 4589, "\u2581ser": 4590, "\u2581series": 4591, "\u2581sum": 4592, "\u2581support": 4593, "\u2581vehicle": 4594, "\u2581weight": 4595, "\u2581\u041a\u0430": 4596, "\u2581\u041a\u043e\u043c\u043f\u0430\u043d\u0438": 4597, "\u2581\u041a\u0440\u0430\u0439": 4598, "\u2581\u041a\u0440\u0435": 4599, "\u2581\u041a\u0443\u0440": 4600, "\u2581\u041b\u0435\u043a\u0430\u0440": 4601, "\u2581\u041b\u0438\u0447\u043d\u043e": 4602, "\u2581\u041c\u0430\u0441": 4603, "\u2581\u041f\u043e\u0440\u0442\u0430\u043b": 4604, "\u2581\u0420\u0430\u0437\u043c\u0435\u0440": 4605, "\u2581\u0420\u043e\u0436": 4606, "\u2581\u0420\u043e\u0441\u0441\u0438\u0439\u0441\u043a\u043e\u0439": 4607, "\u2581\u0421\u0438\u0442\u0438": 4608, "\u2581\u0422\u0412": 4609, "\u2581\u0423\u043d\u0438\u0432\u0435\u0440\u0441\u0438\u0442\u0435\u0442": 4610, "\u2581\u0424\u0435\u0434\u0435\u0440\u0430\u043b\u044c\u043d\u044b\u0439": 4611, "\u2581\u0424\u043e\u0440\u0443\u043c": 4612, "\u2581\u0425": 4613, "\u2581\u042d\u043d": 4614, "\u2581\u0431\u0430\u0437\u044b": 4615, "\u2581\u0431\u0430\u043b\u0430\u043d\u0441": 4616, "\u2581\u0431\u0435\u0441": 4617, "\u2581\u0432\u043e\u0434\u0438\u0442\u0435\u043b": 4618, "\u2581\u0433\u0438": 4619, "\u2581\u0434\u0430\u043d\u043d\u044b\u0439": 4620, "\u2581\u0434\u0438\u043f\u043b\u043e\u043c": 4621, "\u2581\u0434\u0438\u0440\u0435\u043a\u0442\u043e\u0440": 4622, "\u2581\u0436\u0435\u043b\u0430\u043d": 4623, "\u2581\u0438\u0433\u0440\u0430": 4624, "\u2581\u0438\u043d\u0434\u0438\u0432\u0438\u0434\u0443\u0430\u043b\u044c\u043d\u043e": 4625, "\u2581\u0438\u043d\u0444\u043e\u0440\u043c": 4626, "\u2581\u043a\u0432": 4627, "\u2581\u043a\u0433": 4628, "\u2581\u043a\u043e\u043c\u043c\u0435\u043d\u0442\u0430\u0440\u0438\u0435\u0432": 4629, "\u2581\u043a\u043e\u043d\u0435\u0446": 4630, "\u2581\u043b": 4631, "\u2581\u043b\u044e\u0431\u043e\u0439": 4632, "\u2581\u043c\u0430\u0448\u0438\u043d\u044b": 4633, "\u2581\u043d\u0430\u0438\u0431\u043e\u043b\u0435\u0435": 4634, "\u2581\u043d\u0430\u043f\u0440\u0430\u0432\u043b\u0435\u043d\u0438\u044f": 4635, "\u2581\u043d\u0430\u0448\u0435\u0433\u043e": 4636, "\u2581\u043d\u0438": 4637, "\u2581\u043e\u0431\u044a\u0435\u043c": 4638, "\u2581\u043e\u0433\u0440\u0430\u043d\u0438\u0447\u0435\u043d": 4639, "\u2581\u043e\u043f": 4640, "\u2581\u043e\u0442\u0441\u0443\u0442\u0441\u0442\u0432\u0438\u0438": 4641, "\u2581\u043f\u043e\u043b\u043e\u0436\u0435\u043d\u0438\u044f": 4642, "\u2581\u043f\u043e\u043b\u044c": 4643, "\u2581\u043f\u043e\u043d\u0438\u043c\u0430\u044e": 4644, "\u2581\u043f\u043e\u0441\u043b\u0435\u0434\u043d\u0438\u0435": 4645, "\u2581\u043f\u0440\u0435\u0434\u043b\u043e\u0436\u0435\u043d\u0438\u0439": 4646, "\u2581\u043f\u0440\u043e\u0444\u0435\u0441\u0441\u0438\u043e\u043d\u0430\u043b": 4647, "\u2581\u0440\u0430\u0437\u043c\u0435\u0440\u0435": 4648, "\u2581\u0440\u0435\u0433\u0443\u043b\u044f\u0440\u043d\u043e": 4649, "\u2581\u0441\u0432\u0438\u0434\u0435\u0442\u0435\u043b\u044c\u0441\u0442\u0432": 4650, "\u2581\u0441\u0435\u0440\u0432\u0435\u0440": 4651, "\u2581\u0441\u0438\u0433\u0430\u0440\u0435\u0442": 4652, "\u2581\u0441\u043e\u0442": 4653, "\u2581\u0441\u043f\u043e\u043d\u0441\u043e\u0440": 4654, "\u2581\u0441\u0440\u0435\u0434\u0441\u0442\u0432": 4655, "\u2581\u0441\u0442\u0430\u0440\u043e": 4656, "\u2581\u0441\u0442\u0430\u0442\u044c": 4657, "\u2581\u0441\u0442\u043e\u043b": 4658, "\u2581\u0441\u0443\u0431\u044a\u0435\u043a\u0442": 4659, "\u2581\u0442\u0430\u043a": 4660, "\u2581\u0442\u043e\u0447\u043a\u0443": 4661, "\u2581\u0444\u0430": 4662, "\u2581\u0447\u0430\u0441\u043e\u0432": 4663, "\u2581\u0447\u0435\u043c": 4664, "\u2581\u0448\u0435\u0441\u0442\u044c": 4665, "\u2581\u044d\u0442\u0443": 4666, "\u53f7": 4667, "\u8f93\u5165": 4668, "****": 4669, "-10-": 4670, "0.00": 4671, "101": 4672, "1:": 4673, "2-": 4674, "222": 4675, "233": 4676, "434": 4677, "467": 4678, "497": 4679, "589": 4680, "639": 4681, "835": 4682, "973": 4683, ":16": 4684, "CL": 4685, "CN": 4686, "HAT": 4687, "HD": 4688, "IM": 4689, "IZ": 4690, "NI": 4691, "PART": 4692, "Pan": 4693, "RB": 4694, "RON": 4695, "RT": 4696, "Serie": 4697, "YL": 4698, "[9]": 4699, "ages": 4700, "ale": 4701, "as": 4702, "ban": 4703, "base": 4704, "bera": 4705, "bility": 4706, "bt": 4707, "buff": 4708, "crypt": 4709, "dom": 4710, "eb": 4711, "element": 4712, "eria": 4713, "gp": 4714, "hb": 4715, "hor": 4716, "http": 4717, "hy": 4718, "ipe": 4719, "ki": 4720, "law": 4721, "lot": 4722, "ma": 4723, "ni": 4724, "one": 4725, "plan": 4726, "pop": 4727, "protec": 4728, "pus": 4729, "rab": 4730, "tage": 4731, "tog": 4732, "tter": 4733, "ual": 4734, "vate": 4735, "vite": 4736, "wch": 4737, "with": 4738, "zd": 4739, "\u0410\u041c": 4740, "\u0410\u0428": 4741, "\u0411\u0430\u043d\u043a": 4742, "\u0411\u043e": 4743, "\u0415\u041d\u0418\u0415": 4744, "\u0418\u0422": 4745, "\u041d\u042b": 4746, "\u041e\u0420": 4747, "\u0426\u0438\u0444\u0440": 4748, "\u0431\u043b\u043e\u043a": 4749, "\u0432\u0430\u0436": 4750, "\u0433\u043e\u0440": 4751, "\u0435\u0437\u0434": 4752, "\u0438\u043d\u0444\u043e\u0440\u043c": 4753, "\u0438\u0440\u043e\u0432": 4754, "\u0438\u0447\u0435\u0441\u043a\u043e\u0439": 4755, "\u043a\u043e\u043c\u0435\u043d\u0434\u0443": 4756, "\u043a\u0440\u043e": 4757, "\u043a\u0443\u043b\u044c\u0442": 4758, "\u043a\u0443\u0440\u0441": 4759, "\u043b\u0435\u0442\u0430": 4760, "\u043b\u0435\u0446": 4761, "\u043b\u043e\u0432": 4762, "\u043c\u0435\u0441\u0442": 4763, "\u043c\u0435\u0448\u0430": 4764, "\u043c\u0438\u0442": 4765, "\u043c\u044f\u043d": 4766, "\u043d\u043d\u044b\u0445": 4767, "\u043d\u0441\u043a\u0430\u044f": 4768, "\u043f\u0430\u0441": 4769, "\u043f\u0438\u0441\u0430\u0442\u0438": 4770, "\u043f\u0440\u0430\u0432\u043b\u0435\u043d\u0438\u044f": 4771, "\u0440\u0438\u043b": 4772, "\u0440\u043a\u0438": 4773, "\u0440\u043e\u043c": 4774, "\u0440\u0443\u0436": 4775, "\u0441\u043b\u0430": 4776, "\u0441\u043b\u0435": 4777, "\u0441\u0442\u0432\u043e\u0432\u0430\u0442\u044c": 4778, "\u0442\u0435\u043b\u0435\u0439": 4779, "\u0442\u0438\u043a\u0430": 4780, "\u0442\u0438\u0442\u0435": 4781, "\u0442\u0440\u0430": 4782, "\u0442\u0440\u043e": 4783, "\u0443\u0439": 4784, "\u0447\u0435\u0441\u043a\u0438": 4785, "\u0447\u0438\u0442\u0435": 4786, "\u0448\u0438\u0439": 4787, "\u044a": 4788, "\u044f\u0442": 4789, "\u0451\u043c": 4790, "\u0456\u04a3\u0456\u0437": 4791, "\u2581(2)": 4792, "\u2581(8": 4793, "\u2581+1": 4794, "\u258121:00": 4795, "\u2581300": 4796, "\u258134": 4797, "\u258143": 4798, "\u2581Activ": 4799, "\u2581Bit": 4800, "\u2581COMP": 4801, "\u2581Choose": 4802, "\u2581Exp": 4803, "\u2581FL": 4804, "\u2581IT": 4805, "\u2581Instagram": 4806, "\u2581Mail": 4807, "\u2581Member": 4808, "\u2581PSG": 4809, "\u2581Passwort": 4810, "\u2581Person": 4811, "\u2581THE": 4812, "\u2581We": 4813, "\u2581XX": 4814, "\u2581]": 4815, "\u2581adresi": 4816, "\u2581back": 4817, "\u2581basic": 4818, "\u2581characters": 4819, "\u2581chat": 4820, "\u2581credit": 4821, "\u2581cro": 4822, "\u2581dis": 4823, "\u2581dol": 4824, "\u2581ein": 4825, "\u2581enti": 4826, "\u2581face": 4827, "\u2581firm": 4828, "\u2581floor": 4829, "\u2581gen": 4830, "\u2581hidden": 4831, "\u2581information": 4832, "\u2581ir": 4833, "\u2581keep": 4834, "\u2581logge": 4835, "\u2581may": 4836, "\u2581must": 4837, "\u2581na": 4838, "\u2581neb": 4839, "\u2581note": 4840, "\u2581notification": 4841, "\u2581ol": 4842, "\u2581place": 4843, "\u2581refer": 4844, "\u2581review": 4845, "\u2581room": 4846, "\u2581sender": 4847, "\u2581setting": 4848, "\u2581theme": 4849, "\u2581third": 4850, "\u2581ticket": 4851, "\u2581twitter": 4852, "\u2581variable": 4853, "\u2581\u0411\u0435\u043b": 4854, "\u2581\u0413\u043e\u0441\u0443\u0434\u0430\u0440\u0441\u0442\u0432\u0435\u043d\u043d": 4855, "\u2581\u0418\u0433\u0440": 4856, "\u2581\u041a\u043e\u043c\u043f\u044c\u044e\u0442\u0435\u0440": 4857, "\u2581\u041c\u0435": 4858, "\u2581\u041d": 4859, "\u2581\u041d\u0430\u0446\u0438\u043e\u043d\u0430\u043b\u044c\u043d\u043e": 4860, "\u2581\u041e\u043d": 4861, "\u2581\u041f\u043b\u0430\u043d": 4862, "\u2581\u041f\u0443\u0431\u043b": 4863, "\u2581\u0420\u0415": 4864, "\u2581\u0420\u0435\u043a\u043b\u0430\u043c\u0430": 4865, "\u2581\u0420\u0438": 4866, "\u2581\u0420\u043e": 4867, "\u2581\u0421\u0430\u043d\u043a\u0442": 4868, "\u2581\u0421\u0438\u0441\u0442\u0435\u043c": 4869, "\u2581\u0428\u0442\u0430": 4870, "\u2581\u0431": 4871, "\u2581\u0431\u0438\u0437\u043d\u0435\u0441": 4872, "\u2581\u0432\u0438\u0434\u0435\u043e": 4873, "\u2581\u0432\u043c\u0435\u0441\u0442\u0435": 4874, "\u2581\u0432\u044b\u0433\u043e\u0434": 4875, "\u2581\u0434\u043e\u043a\u043b\u0430\u0434": 4876, "\u2581\u0434\u043e\u043b\u0436\u043d\u043e\u0441\u0442\u0438": 4877, "\u2581\u0434\u0440\u0443\u0433\u0430\u044f": 4878, "\u2581\u0437\u0430\u043a\u043e\u043d\u0430": 4879, "\u2581\u0437\u0430\u043a\u043e\u043d\u0447\u0438\u043b": 4880, "\u2581\u0437\u0430\u043d\u044f\u0442\u0438\u0439": 4881, "\u2581\u0437\u043d\u0430\u044e": 4882, "\u2581\u0438\u0437\u043e\u0431\u0440\u0430\u0436\u0435\u043d\u0438\u0435": 4883, "\u2581\u0438\u043d\u043e\u0441\u0442\u0440\u0430\u043d": 4884, "\u2581\u043a\u0430\u0434\u0430\u0441\u0442\u0440": 4885, "\u2581\u043a\u0430\u043f": 4886, "\u2581\u043a\u0438\u0440": 4887, "\u2581\u043a\u043e\u0433\u0434\u0430": 4888, "\u2581\u043a\u043e\u043b\u0438\u0447\u0435\u0441\u0442\u0432\u043e": 4889, "\u2581\u043a\u043e\u043c\u0430\u043d\u0434\u0430": 4890, "\u2581\u043a\u043e\u043c\u0438\u0441\u0441\u0438\u0438": 4891, "\u2581\u043a\u043e\u0442\u043e\u0440\u043e\u0433\u043e": 4892, "\u2581\u043a\u043e\u0442\u043e\u0440\u043e\u0439": 4893, "\u2581\u043a\u0440\u0430\u0441": 4894, "\u2581\u043b\u0438\u0431\u043e": 4895, "\u2581\u043c\u0435\u0441\u0442\u0443": 4896, "\u2581\u043c\u0435\u0442\u0440\u043e": 4897, "\u2581\u043c\u0438\u043d\u0443\u0442\u0443": 4898, "\u2581\u043c\u043d\u043e\u044e": 4899, "\u2581\u043d\u0430\u0432\u044b\u043a": 4900, "\u2581\u043d\u0435\u043c\u043d\u043e\u0433\u043e": 4901, "\u2581\u043d\u0435\u043e\u0431\u0445\u043e\u0434\u0438\u043c\u043e\u0441\u0442\u0438": 4902, "\u2581\u043e\u0431\u0435\u0441\u043f\u0435\u0447\u0435\u043d\u0438\u044f": 4903, "\u2581\u043e\u0431\u0437\u043e\u0440": 4904, "\u2581\u043e\u0431\u044a\u0435\u043a\u0442\u0430": 4905, "\u2581\u043e\u0434\u0438\u043d": 4906, "\u2581\u043e\u0434\u043e\u0431\u0440\u0435\u043d": 4907, "\u2581\u043e\u0442\u043a\u0440\u044b\u0442\u044b": 4908, "\u2581\u043f\u043e\u0438\u0441\u043a\u043e\u0432": 4909, "\u2581\u043f\u043e\u043b\u043e\u0436\u0435\u043d\u0438\u0435": 4910, "\u2581\u043f\u043e\u043c\u043e\u0447\u044c": 4911, "\u2581\u043f\u0440\u0435\u0434\u0441\u0442\u0430\u0432\u0438\u0442\u0435\u043b\u044f": 4912, "\u2581\u043f\u0440\u0435\u043f\u043e\u0434\u0430\u0432\u0430": 4913, "\u2581\u0440\u0435\u0437\u0443\u043b\u044c\u0442\u0430\u0442": 4914, "\u2581\u0440\u0435\u0437\u044e\u043c\u0435": 4915, "\u2581\u0440\u0435\u0439\u0442\u0438\u043d\u0433": 4916, "\u2581\u0440\u0435\u0444": 4917, "\u2581\u0441\u043b\u0435\u0434\u0443\u0435\u0442": 4918, "\u2581\u0441\u043b\u0443\u0447\u0430\u0435": 4919, "\u2581\u0441\u043e\u0441\u0442\u043e\u044f": 4920, "\u2581\u0441\u043e\u0446\u0438\u0430\u043b\u044c\u043d\u044b\u0445": 4921, "\u2581\u0441\u043f\u0435\u0446\u0438\u0430\u043b\u044c\u043d\u044b\u0445": 4922, "\u2581\u0441\u0440": 4923, "\u2581\u0441\u0442\u0440\u0430\u0445\u043e\u0432": 4924, "\u2581\u0441\u0442\u0443\u0434\u0435\u043d\u0442": 4925, "\u2581\u0441\u0443\u0434\u0430": 4926, "\u2581\u0442\u044b": 4927, "\u2581\u0444\u0430\u0439\u043b": 4928, "\u2581\u0447\u0430\u0441\u0442\u044c": 4929, "\u2581\u0449\u0435": 4930, "\u2581\u044d\u0442\u0438": 4931, "\u2581\u044d\u0442\u043e\u0439": 4932, "-17": 4933, "030": 4934, "050": 4935, "06.": 4936, "1-6": 4937, "2.5": 4938, "338": 4939, "342": 4940, "389": 4941, "47": 4942, "477": 4943, "488": 4944, "550": 4945, "578": 4946, "656": 4947, "67)": 4948, "854": 4949, "95)": 4950, "99)": 4951, "BA": 4952, "EC": 4953, "Eng": 4954, "GF": 4955, "GRE": 4956, "Ho": 4957, "IK": 4958, "LET": 4959, "Link": 4960, "MO": 4961, "Man": 4962, "Net": 4963, "Not": 4964, "OR": 4965, "ORG": 4966, "RN": 4967, "TEX": 4968, "ager": 4969, "arri": 4970, "bber": 4971, "bound": 4972, "cena": 4973, "col": 4974, "deg": 4975, "diplom": 4976, "ence": 4977, "ez": 4978, "facebook": 4979, "fak": 4980, "ffe": 4981, "flo": 4982, "grid": 4983, "indu": 4984, "jpeg": 4985, "km": 4986, "kn": 4987, "lapse": 4988, "md": 4989, "nel": 4990, "nk": 4991, "nosti": 4992, "nu": 4993, "ny": 4994, "phen": 4995, "provi": 4996, "rif": 4997, "sal": 4998, "sci": 4999, "setting": 5000, "sian": 5001, "sion": 5002, "station": 5003, "ste": 5004, "store": 5005, "stry": 5006, "sys": 5007, "tory": 5008, "tra": 5009, "uf": 5010, "ven": 5011, "vit": 5012, "yan": 5013, "zen": 5014, "zon": 5015, "\u03bc": 5016, "\u0402": 5017, "\u0410\u0419": 5018, "\u0413\u041b\u0410\u0421": 5019, "\u041c\u0430": 5020, "\u041c\u0435": 5021, "\u041d\u0418\u0415": 5022, "\u041d\u0421": 5023, "\u0422\u041e\u0420": 5024, "\u0422\u0420": 5025, "\u0422\u0435\u0445": 5026, "\u0427\u0415": 5027, "\u0430\u043a": 5028, "\u0430\u0442\u0430": 5029, "\u0430\u0442\u0435\u043b\u0435\u043c": 5030, "\u0430\u0442\u044c\u0441\u044f": 5031, "\u0432\u0435\u0440\u0435\u043d": 5032, "\u0434\u0435\u043b\u0435\u043d": 5033, "\u0434\u044c": 5034, "\u0434\u0456": 5035, "\u0435\u0436": 5036, "\u0435\u043c\u044b\u0435": 5037, "\u0436\u0435\u043b\u0430": 5038, "\u0436\u0438\u0432\u0430": 5039, "\u0438\u043d\u0443": 5040, "\u0438\u0440\u043e\u0432\u0430\u043d\u043d\u044b\u0445": 5041, "\u0438\u0440\u043e\u0432\u0430\u043d\u044b": 5042, "\u0438\u0440\u0443\u044e": 5043, "\u0438\u0442": 5044, "\u0438\u0444\u0438\u043a\u0430\u0446\u0438\u044f": 5045, "\u0438\u0447\u0435\u0441\u043a\u0438\u0445": 5046, "\u043a\u0430\u0441\u0441": 5047, "\u043a\u043e\u043d\u0442\u0430\u043a\u0442": 5048, "\u043a\u043e\u0440": 5049, "\u043a\u043e\u0440\u043e": 5050, "\u043a\u0440\u044b": 5051, "\u043a\u0443\u0440": 5052, "\u043a\u0443\u0441": 5053, "\u043c\u0438\u0440": 5054, "\u043d\u0435\u0446": 5055, "\u043d\u043d\u043e\u0435": 5056, "\u043d\u043e\u0432\u0430": 5057, "\u043d\u043e\u043a": 5058, "\u043e\u0432\u0430\u0442\u044c\u0441\u044f": 5059, "\u043e\u0432\u043e\u0433\u043e": 5060, "\u043e\u0433\u0440\u0430\u0434": 5061, "\u043e\u0437\u043d\u0430": 5062, "\u043e\u043b\u044f": 5063, "\u043e\u0440\u0433\u0430\u043d": 5064, "\u043e\u0444": 5065, "\u043e\u0447\u043a\u0430": 5066, "\u043f\u0430\u0434\u0430\u044e\u0442": 5067, "\u043f\u0435\u0442\u0438": 5068, "\u043f\u0440\u043e\u0444": 5069, "\u043f\u0443\u0441\u0442\u0438": 5070, "\u043f\u0443\u0442": 5071, "\u0440\u0430\u0442\u0443\u0440\u0430": 5072, "\u0440\u0430\u0449\u0435\u043d\u0438\u0435": 5073, "\u0440\u0435\u0448\u0438": 5074, "\u0441\u043a\u043e\u0440\u0435": 5075, "\u0441\u0442\u0430\u0432\u043b\u044f\u0442\u044c": 5076, "\u0441\u0442\u043e\u044f\u043d": 5077, "\u0441\u0442\u0443\u0434\u0435\u043d": 5078, "\u0441\u0443\u0442": 5079, "\u0442\u0432\u043e\u0440": 5080, "\u0442\u0435\u0441\u0442": 5081, "\u0442\u043a\u0430": 5082, "\u0445\u0430": 5083, "\u0447\u0435\u043d\u0438\u0435": 5084, "\u0447\u043a\u043e\u043c": 5085, "\u0449\u0435\u043c": 5086, "\u044b\u0432\u0430\u0442\u044c": 5087, "\u044e\u0449\u0435\u0435": 5088, "\u0561\u0562": 5089, "\u0561\u057c": 5090, "\u0572": 5091, "\u057f\u0576": 5092, "\u2581'": 5093, "\u2581(1": 5094, "\u2581(4": 5095, "\u2581**": 5096, "\u25812.": 5097, "\u2581Accept": 5098, "\u2581Bank": 5099, "\u2581Beni": 5100, "\u2581Change": 5101, "\u2581Das": 5102, "\u2581Do": 5103, "\u2581Fab": 5104, "\u2581Lite": 5105, "\u2581Mon": 5106, "\u2581Mood": 5107, "\u2581Neo": 5108, "\u2581News": 5109, "\u2581Ol": 5110, "\u2581PS": 5111, "\u2581Position": 5112, "\u2581Soy": 5113, "\u2581VER": 5114, "\u2581Vi": 5115, "\u2581Work": 5116, "\u2581Yan": 5117, "\u2581activ": 5118, "\u2581ad\u0131": 5119, "\u2581anti": 5120, "\u2581apartment": 5121, "\u2581are": 5122, "\u2581box": 5123, "\u2581change": 5124, "\u2581choose": 5125, "\u2581crypto": 5126, "\u2581die": 5127, "\u2581drink": 5128, "\u2581far": 5129, "\u2581force": 5130, "\u2581google": 5131, "\u2581if": 5132, "\u2581kol": 5133, "\u2581members": 5134, "\u2581min": 5135, "\u2581minimum": 5136, "\u2581mood": 5137, "\u2581only": 5138, "\u2581parola": 5139, "\u2581pe": 5140, "\u2581period": 5141, "\u2581pre": 5142, "\u2581profession": 5143, "\u2581section": 5144, "\u2581secure": 5145, "\u2581should": 5146, "\u2581stay": 5147, "\u2581team": 5148, "\u2581tri": 5149, "\u2581ul": 5150, "\u2581unde": 5151, "\u2581\u0410\u043b\u044c": 5152, "\u2581\u0412\u0442\u043e\u0440\u043e\u0439": 5153, "\u2581\u0415\u043a\u0430\u0442\u0435\u0440\u0438\u043d\u0431\u0443\u0440\u0433": 5154, "\u2581\u0417\u0435\u043b\u0435\u043d": 5155, "\u2581\u0418\u043d\u0442\u0435\u0440": 5156, "\u2581\u041a\u043e\u043d\u043a\u0443\u0440\u0441": 5157, "\u2581\u041a\u043e\u043f": 5158, "\u2581\u041d\u0430\u0447\u0430\u043b\u043e": 5159, "\u2581\u041e\u0431\u044b\u0447\u043d\u043e": 5160, "\u2581\u041e\u0444\u0438\u0446\u0438\u0430\u043b": 5161, "\u2581\u041f\u0420\u041e": 5162, "\u2581\u041f\u0430\u0440\u0430": 5163, "\u2581\u041f\u0435\u0440\u0432\u044b\u0439": 5164, "\u2581\u041f\u043b\u0430": 5165, "\u2581\u041f\u0440\u043e\u0433\u0440\u0430\u043c\u043c\u0430": 5166, "\u2581\u041f\u0440\u043e\u0435\u043a\u0442": 5167, "\u2581\u0420\u0435\u0437": 5168, "\u2581\u0420\u0435\u0437\u0435\u0440\u0432": 5169, "\u2581\u0421\u0435\u043c\u0435\u0439": 5170, "\u2581\u0421\u043e\u043b": 5171, "\u2581\u0422\u0435\u043b\u0435": 5172, "\u2581\u0424\u0435\u0434\u0435\u0440\u0430\u043b\u044c\u043d\u043e\u0433\u043e": 5173, "\u2581\u0427\u0435\u0440\u0435\u0437": 5174, "\u2581\u0428\u0438": 5175, "\u2581\u0428\u043a\u043e\u043b\u0430": 5176, "\u2581\u0430\u0442": 5177, "\u2581\u0431\u0430\u043d\u043a": 5178, "\u2581\u0431\u0430\u043d\u043a\u0435": 5179, "\u2581\u0431\u0438\u0440\u0436": 5180, "\u2581\u0431\u043b\u0438\u0436\u0430\u0439\u0448\u0435": 5181, "\u2581\u0431\u0443\u043a\u0432\u0430": 5182, "\u2581\u0431\u044b\u0441\u0442\u0440\u0435\u0435": 5183, "\u2581\u0432\u0430\u0436\u043d\u043e": 5184, "\u2581\u0432\u0430\u0448\u0438\u0445": 5185, "\u2581\u0432\u0435\u0440\u0438": 5186, "\u2581\u0432\u0438\u0434\u043d\u043e": 5187, "\u2581\u0432\u0438\u0434\u044b": 5188, "\u2581\u0432\u043e\u0441": 5189, "\u2581\u0432\u0442\u043e\u0440\u043e\u0433\u043e": 5190, "\u2581\u0432\u044b\u043f\u043b\u0430\u0442": 5191, "\u2581\u0432\u044b\u043f\u043e\u043b\u043d\u0435\u043d\u0438\u044f": 5192, "\u2581\u0433\u0440\u0430\u0436\u0434\u0430\u043d": 5193, "\u2581\u0434\u0430\u043d\u043d\u044b\u043c": 5194, "\u2581\u0434\u043e\u0433\u043e\u0432\u043e\u0440\u043e\u043c": 5195, "\u2581\u0434\u043e\u043a\u0443\u043c\u0435\u043d\u0442\u0430\u043c\u0438": 5196, "\u2581\u0434\u043e\u043b\u0436\u043d\u0430": 5197, "\u2581\u0436\u0435\u043d\u0449\u0438\u043d\u0430": 5198, "\u2581\u0437\u0430\u043f\u0438\u0441\u0430": 5199, "\u2581\u0438\u043c": 5200, "\u2581\u0438\u0441\u043f\u043e\u043b\u044c\u0437\u0443\u044f": 5201, "\u2581\u043a\u0430\u0436\u0434\u043e\u0439": 5202, "\u2581\u043a\u043b\u0443\u0431\u0430": 5203, "\u2581\u043a\u043d\u0438\u0436\u043a\u0438": 5204, "\u2581\u043a\u043e\u043b\u0435\u0441": 5205, "\u2581\u043a\u043e\u043d\u0433\u0440\u0435\u0441": 5206, "\u2581\u043a\u043e\u043f": 5207, "\u2581\u043c\u0435\u0436\u0434\u0443": 5208, "\u2581\u043c\u0435\u0440\u043e\u043f\u0440\u0438\u044f\u0442\u0438\u0439": 5209, "\u2581\u043d\u0430\u0448\u0438": 5210, "\u2581\u043d\u0435\u0432\u043e\u0437\u043c\u043e\u0436\u043d\u043e": 5211, "\u2581\u043e\u0431\u043b\u0430\u0441\u0442\u0438": 5212, "\u2581\u043e\u0431\u0440\u0430\u0437\u043e\u0432\u0430\u043d\u0438\u0438": 5213, "\u2581\u043e\u043f\u0442\u0438\u043c": 5214, "\u2581\u043f": 5215, "\u2581\u043f\u0430\u0440\u0442\u043d\u0451\u0440": 5216, "\u2581\u043f\u043e\u0432\u0442\u043e\u0440": 5217, "\u2581\u043f\u043e\u0434\u0430": 5218, "\u2581\u043f\u043e\u043a\u0443\u043f\u043a\u0438": 5219, "\u2581\u043f\u0440\u0435": 5220, "\u2581\u043f\u0440\u0435\u0434\u0441\u0442\u0430\u0432\u043b\u0435\u043d": 5221, "\u2581\u043f\u0443\u0431\u043b\u0438\u043a\u0430\u0446\u0438\u044f": 5222, "\u2581\u0440\u0435\u0433\u0438\u043e\u043d\u0430": 5223, "\u2581\u0440\u0443\u0441": 5224, "\u2581\u0441\u0432\u0435": 5225, "\u2581\u0441\u043c\u0435\u043d\u0438": 5226, "\u2581\u0441\u043e\u0432\u0435\u0440\u0448\u0435\u043d": 5227, "\u2581\u0441\u043e\u0442\u0440\u0443\u0434\u043d\u0438\u043a\u0430": 5228, "\u2581\u0441\u0441\u044b\u043b\u043a\u043e\u0439": 5229, "\u2581\u0441\u0442\u0440\u0430\u0445\u043e\u0432\u0430\u043d\u0438\u044f": 5230, "\u2581\u0442\u044b\u0441\u044f\u0447": 5231, "\u2581\u0443\u0447\u0438\u0442\u0435\u043b\u044f": 5232, "\u2581\u0448\u0430\u0433": 5233, "\u2581\u0448\u043a\u043e\u043b\u0435": 5234, "\u624b\u673a": 5235, "\u90ae\u7bb1": 5236, "(0)": 5237, "**": 5238, "-25": 5239, "-47": 5240, "-50": 5241, ".1.1": 5242, ".3.": 5243, ".4.": 5244, "0.8": 5245, "1,00": 5246, "15%": 5247, "153": 5248, "178": 5249, "200": 5250, "256": 5251, "332": 5252, "374": 5253, "378": 5254, "442": 5255, "636": 5256, "657": 5257, "669": 5258, "745": 5259, "795": 5260, "=2": 5261, "AG": 5262, "AGE": 5263, "ATION": 5264, "Activ": 5265, "Ar": 5266, "Build": 5267, "EED": 5268, "FS": 5269, "For": 5270, "HO": 5271, "Hi": 5272, "Image": 5273, "KN": 5274, "LD": 5275, "MIC": 5276, "MM": 5277, "ODY": 5278, "OOL": 5279, "Pop": 5280, "QI": 5281, "REE": 5282, "REN": 5283, "Rus": 5284, "SHOP": 5285, "SU": 5286, "Show": 5287, "The": 5288, "This": 5289, "UR": 5290, "USE": 5291, "UX": 5292, "Ur": 5293, "WAR": 5294, "Yes": 5295, "You": 5296, "alt": 5297, "biz": 5298, "brand": 5299, "char": 5300, "cip": 5301, "club": 5302, "cura": 5303, "desk": 5304, "ete": 5305, "frame": 5306, "geben": 5307, "gged": 5308, "hd": 5309, "het": 5310, "identification": 5311, "ient": 5312, "indica": 5313, "ines": 5314, "iq": 5315, "ire": 5316, "iris": 5317, "iru": 5318, "jit": 5319, "jpg": 5320, "kad": 5321, "kg": 5322, "kie": 5323, "kin": 5324, "lama": 5325, "lash": 5326, "lenie": 5327, "live": 5328, "mb": 5329, "mbra": 5330, "mode": 5331, "modul": 5332, "obre": 5333, "ola": 5334, "open": 5335, "over": 5336, "pam": 5337, "panel": 5338, "parol": 5339, "peri": 5340, "pil": 5341, "png": 5342, "ponent": 5343, "punkt": 5344, "rlo": 5345, "rni": 5346, "rota": 5347, "sel": 5348, "system": 5349, "tat": 5350, "tem": 5351, "tova": 5352, "tragen": 5353, "two": 5354, "ult": 5355, "uri": 5356, "view": 5357, "vu": 5358, "where": 5359, "wy": 5360, "yi": 5361, "\u00ae": 5362, "\u040f": 5363, "\u0411\u041a": 5364, "\u0411\u041e": 5365, "\u0416": 5366, "\u0417": 5367, "\u0418\u0415": 5368, "\u0418\u041b\u0418": 5369, "\u041b\u0415\u041a": 5370, "\u041b\u0418": 5371, "\u041b\u042c": 5372, "\u041d\u0414": 5373, "\u041d\u041a": 5374, "\u041d\u0426": 5375, "\u041f\u0430": 5376, "\u0420\u043e\u0441\u0441\u0438\u044f": 5377, "\u0421\u0432\u043e\u0431\u043e\u0434": 5378, "\u0422\u0418": 5379, "\u0422\u041e\u0412": 5380, "\u0422\u042c": 5381, "\u042d\u041a": 5382, "\u0430\u0432": 5383, "\u0430\u043d\u0433\u043b": 5384, "\u0430\u043d\u0441": 5385, "\u0431\u0430\u0432\u0438": 5386, "\u0431\u0435\u043b\u044c": 5387, "\u0432\u0430\u043b": 5388, "\u0434\u0435\u0440": 5389, "\u0435\u043d\u043d\u043e\u0435": 5390, "\u0435\u043d\u043d\u043e\u0441\u0442\u044c": 5391, "\u0435\u043d\u043d\u044b\u0435": 5392, "\u0435\u043d\u0442": 5393, "\u0436\u0435\u0432": 5394, "\u0436\u043d\u0435": 5395, "\u0437\u0438\u044f": 5396, "\u0438\u0441": 5397, "\u0439\u0434\u044f": 5398, "\u043a\u0432\u0430": 5399, "\u043a\u043b\u0443\u0431": 5400, "\u043a\u0440\u043e\u0432": 5401, "\u043b\u0438\u0446\u0435\u0439": 5402, "\u043b\u043e\u043a": 5403, "\u043b\u0441\u044f": 5404, "\u043c\u0435\u0442\u0440": 5405, "\u043c\u043d\u043e\u0436": 5406, "\u043c\u043e\u043d\u0442\u0430\u0436": 5407, "\u043d\u0435\u043d\u0438\u044f": 5408, "\u043d\u0438\u0446\u0443": 5409, "\u043d\u043d\u044b\u043c": 5410, "\u043d\u043e\u0432\u043e": 5411, "\u043d\u0442\u043e\u0432": 5412, "\u043d\u0443\u0442": 5413, "\u043e\u0440\u0438\u044f": 5414, "\u043f\u043e\u0434\u0440\u044f\u0434\u0447\u0438\u043a": 5415, "\u043f\u0440\u0438\u044f\u0442\u0438": 5416, "\u0440\u043e": 5417, "\u0440\u043e\u0436\u0434\u0435\u043d": 5418, "\u0441\u0432\u0430": 5419, "\u0441\u0438\u043e\u043d": 5420, "\u0441\u043c": 5421, "\u0441\u043e\u0435\u0434\u0438\u043d\u0438": 5422, "\u0441\u0442\u0438\u043d": 5423, "\u0442\u0435\u0439": 5424, "\u0442\u0435\u043b\u0438": 5425, "\u0442\u043d\u043e": 5426, "\u0442\u0441\u044f": 5427, "\u0443\u043b\u044c": 5428, "\u0445\u0438\u043c": 5429, "\u0445\u043e\u0436\u0434\u0435\u043d\u0438\u0435": 5430, "\u0447\u0438\u0441\u043b\u0435": 5431, "\u0448\u0435\u0439": 5432, "\u0448\u0438": 5433, "\u0448\u043d\u044f\u044f": 5434, "\u0448\u044c": 5435, "\u0449\u0438\u0442\u0435": 5436, "\u044d\u043a\u0441\u043a\u0443\u0440\u0441": 5437, "\u044d\u043d\u0434": 5438, "\u044f\u0441\u044c": 5439, "\u0568": 5440, "\u2581(12": 5441, "\u2581(8)": 5442, "\u25810.2": 5443, "\u25813.1": 5444, "\u2581CAP": 5445, "\u2581CRM": 5446, "\u2581Cy": 5447, "\u2581From": 5448, "\u2581Gir": 5449, "\u2581IM": 5450, "\u2581Juri": 5451, "\u2581Keep": 5452, "\u2581Messenger": 5453, "\u2581My": 5454, "\u2581Official": 5455, "\u2581Pad": 5456, "\u2581Per": 5457, "\u2581Recovery": 5458, "\u2581Ripp": 5459, "\u2581Sie": 5460, "\u2581Size": 5461, "\u2581Yahoo": 5462, "\u2581agreed": 5463, "\u2581ai": 5464, "\u2581ca": 5465, "\u2581cell": 5466, "\u2581club": 5467, "\u2581des": 5468, "\u2581fad": 5469, "\u2581fb": 5470, "\u2581generic": 5471, "\u2581gir": 5472, "\u2581handle": 5473, "\u2581ja": 5474, "\u2581kids": 5475, "\u2581kor": 5476, "\u2581link": 5477, "\u2581local": 5478, "\u2581locale": 5479, "\u2581lock": 5480, "\u2581meta": 5481, "\u2581mui": 5482, "\u2581options": 5483, "\u2581plain": 5484, "\u2581pop": 5485, "\u2581prev": 5486, "\u2581pur": 5487, "\u2581sel": 5488, "\u2581sg": 5489, "\u2581signed": 5490, "\u2581smo": 5491, "\u2581speak": 5492, "\u2581sy": 5493, "\u2581tax": 5494, "\u2581tr": 5495, "\u2581transform": 5496, "\u2581word": 5497, "\u2581\u0410\u043b": 5498, "\u2581\u0411\u0430\u043d\u043a\u0430": 5499, "\u2581\u0411\u0443\u0434\u044c": 5500, "\u2581\u0414\u043e\u043c\u0430": 5501, "\u2581\u041a\u0430\u0434": 5502, "\u2581\u041a\u043e\u0433\u0434\u0430": 5503, "\u2581\u041e\u041f": 5504, "\u2581\u041e\u0431\u0449\u0438": 5505, "\u2581\u041f\u041e\u041b": 5506, "\u2581\u041f\u043e\u043c\u043e\u0449": 5507, "\u2581\u041f\u0440\u0435\u0434\u043f\u043e\u043b\u0430\u0433\u0430": 5508, "\u2581\u0422\u041e\u041f": 5509, "\u2581\u0422\u0430": 5510, "\u2581\u0422\u0438": 5511, "\u2581\u0423\u043a\u0440\u0430\u0438\u043d\u044b": 5512, "\u2581\u0430\u0434\u0440\u0435\u0441\u0443": 5513, "\u2581\u0431\u043b\u0438\u0436\u0430\u0439\u0448\u0438": 5514, "\u2581\u0431\u043b\u043e\u0433": 5515, "\u2581\u0431\u044b\u043b": 5516, "\u2581\u0432\u0430\u0448\u0435\u043c": 5517, "\u2581\u0432\u0438\u0434\u0435\u0442\u044c": 5518, "\u2581\u0432\u043e\u0437\u0432\u0440\u0430\u0442": 5519, "\u2581\u0432\u043e\u043b\u043e\u0441": 5520, "\u2581\u0432\u043e\u0441\u0441\u0442\u0430\u043d\u043e\u0432\u0438\u0442\u044c": 5521, "\u2581\u0432\u0441\u0435\u043c\u0438": 5522, "\u2581\u0433\u0440\u0430\u0444": 5523, "\u2581\u0434\u0432\u0435\u0440\u0435\u0439": 5524, "\u2581\u0434\u0432\u0438\u0433\u0430\u0442\u0435\u043b": 5525, "\u2581\u0434\u043e\u0433\u043e\u0432\u043e\u0440\u0443": 5526, "\u2581\u0435\u043d\u0433\u0456\u0437": 5527, "\u2581\u0436\u0438\u0437\u043d\u0438": 5528, "\u2581\u0436\u0443\u0440\u043d\u0430\u043b": 5529, "\u2581\u0437\u0430\u0431\u044b\u043b": 5530, "\u2581\u0437\u0430\u0433": 5531, "\u2581\u0437\u0430\u043a\u043b\u044e\u0447\u0435\u043d\u0438\u044f": 5532, "\u2581\u0437\u043d\u0430\u0435\u0442\u0435": 5533, "\u2581\u0437\u043d\u0430\u043a\u043e\u043c": 5534, "\u2581\u0438\u0433\u0440\u0443": 5535, "\u2581\u0438\u043d\u0442\u0435": 5536, "\u2581\u0438\u043d\u0444\u043e\u0440\u043c\u0430\u0446\u0438\u043e\u043d\u043d\u044b\u0445": 5537, "\u2581\u043a\u043e\u0433\u043e": 5538, "\u2581\u043a\u043e\u0442\u043e\u0440\u043e\u0435": 5539, "\u2581\u043a\u0443\u0440\u0441\u0430": 5540, "\u2581\u043c\u0430\u0440\u043a\u0435\u0442\u0438\u043d\u0433\u043e\u0432": 5541, "\u2581\u043d\u0430\u043f\u0440\u0430\u0432\u043b\u0435\u043d\u0438\u0435": 5542, "\u2581\u043d\u0430\u0448\u0438\u0445": 5543, "\u2581\u043d\u043e\u0432\u043e\u0439": 5544, "\u2581\u043e\u0431\u043b\u0430\u0441\u0442": 5545, "\u2581\u043e\u043f\u0440\u0435\u0434\u0435\u043b\u0435\u043d\u043d\u044b\u0445": 5546, "\u2581\u043e\u0441\u043d\u043e\u0432\u0430\u043d\u0438\u0438": 5547, "\u2581\u043e\u0442\u043a\u0440\u044b\u0442\u0438\u044f": 5548, "\u2581\u043e\u0444\u0438\u0441\u0430": 5549, "\u2581\u043e\u0444\u043e\u0440\u043c\u043b\u0435\u043d": 5550, "\u2581\u043f\u0435\u0440\u0432\u043e\u0433\u043e": 5551, "\u2581\u043f\u0435\u0440\u0435\u0434\u0430\u043d": 5552, "\u2581\u043f\u0438\u0442\u0430\u043d\u0438\u044f": 5553, "\u2581\u043f\u043e\u0437\u0432\u043e\u043b\u0438\u0442": 5554, "\u2581\u043f\u043e\u043c\u043e\u0449\u0438": 5555, "\u2581\u043f\u043e\u0441\u0442\u0443\u043f": 5556, "\u2581\u043f\u0440\u0430\u0432\u0438\u043b": 5557, "\u2581\u043f\u0440\u0430\u0432\u043e": 5558, "\u2581\u043f\u0440\u0435\u0434": 5559, "\u2581\u043f\u0440\u0435\u0434\u043f\u0440\u0438\u044f\u0442\u0438\u0435": 5560, "\u2581\u043f\u0440\u043e\u0432\u0435\u0440\u043a\u0430": 5561, "\u2581\u043f\u0440\u043e\u0439\u0442\u0438": 5562, "\u2581\u043f\u0440\u043e\u0441\u0442\u043e": 5563, "\u2581\u0440\u0430\u0431": 5564, "\u2581\u0440\u0430\u0437\u043c\u0435\u0449\u0435\u043d": 5565, "\u2581\u0440\u0430\u0441\u043f\u043e\u043b\u043e\u0436\u0435\u043d": 5566, "\u2581\u0440\u0435\u043a\u043b\u0430\u043c\u0430": 5567, "\u2581\u0441\u0432\u0435\u0434\u0435\u043d\u0438\u044f": 5568, "\u2581\u0441\u0438\u043c\u043f\u0442\u043e\u043c": 5569, "\u2581\u0441\u043e\u0431\u043b\u044e\u0434\u0430\u0442\u044c": 5570, "\u2581\u0441\u043e\u043e\u0442\u0432\u0435\u0442\u0441\u0442\u0432\u0438\u0435": 5571, "\u2581\u0441\u0440\u0435\u0434\u043d\u0435\u043c": 5572, "\u2581\u0441\u0442\u0440\u0430\u043d\u0430\u0445": 5573, "\u2581\u0442\u0435\u043b\u0430": 5574, "\u2581\u0443\u0434\u0430\u043b\u0435\u043d": 5575, "\u2581\u0443\u043a\u0430\u0437\u0430\u043d\u043d\u044b\u0445": 5576, "\u2581\u0443\u043b\u0438\u0446\u044b": 5577, "\u2581\u0444": 5578, "\u2581\u0445\u0430\u0440\u0430\u043a\u0442\u0435\u0440\u0430": 5579, "\u2581\u0445\u0438\u0440\u0443\u0440\u0433": 5580, "\u2581\u0447\u0430\u0442": 5581, "\u2581\u0447\u0435\u043b\u043e\u0432\u0435\u043a": 5582, "\u2581\u0448\u0438\u0444\u0440": 5583, "\u2581\u044d\u0442\u0438\u0445": 5584, "\u2581\u044e\u0440\u0438\u0434\u0438\u0447\u0435\u0441\u043a\u0438\u0445": 5585, "\u2581\u044f\u043d\u0432\u0430\u0440\u044f": 5586, "\u2581\u0544\u0578\u0582\u057f\u0584": 5587, "\u2731": 5588, "\u767b\u5f55": 5589, "-15": 5590, "-22": 5591, "0.6": 5592, "1-2": 5593, "106": 5594, "118": 5595, "124": 5596, "130": 5597, "135": 5598, "138": 5599, "158": 5600, "172": 5601, "190": 5602, "1967": 5603, "2020": 5604, "347": 5605, "388": 5606, "392": 5607, "426": 5608, "435": 5609, "486": 5610, "50%": 5611, "554": 5612, "573": 5613, "696": 5614, "701": 5615, "738": 5616, "749": 5617, "787": 5618, "799": 5619, "900": 5620, "901": 5621, "995": 5622, "ACE": 5623, "As": 5624, "CHI": 5625, "CID": 5626, "Ca": 5627, "Car": 5628, "DY": 5629, "Di": 5630, "FF": 5631, "FT": 5632, "File": 5633, "GAL": 5634, "LAT": 5635, "Los": 5636, "MR": 5637, "Map": 5638, "NS": 5639, "Ok": 5640, "Ord": 5641, "PL": 5642, "SION": 5643, "SS": 5644, "St": 5645, "TER": 5646, "Tele": 5647, "Time": 5648, "Trans": 5649, "UTC": 5650, "Was": 5651, "Word": 5652, "ap": 5653, "bg": 5654, "cht": 5655, "ctor": 5656, "dh": 5657, "dor": 5658, "drop": 5659, "educa": 5660, "ential": 5661, "extra": 5662, "fast": 5663, "finans": 5664, "fl": 5665, "free": 5666, "gress": 5667, "ik": 5668, "ind": 5669, "iti": 5670, "ja": 5671, "ked": 5672, "kol": 5673, "lar": 5674, "leng": 5675, "llow": 5676, "meter": 5677, "mun": 5678, "nas": 5679, "nic": 5680, "om": 5681, "pet": 5682, "php": 5683, "phra": 5684, "pire": 5685, "qa": 5686, "rd": 5687, "ros": 5688, "rv": 5689, "security": 5690, "spon": 5691, "sso": 5692, "stav": 5693, "stu": 5694, "tab": 5695, "tice": 5696, "tid": 5697, "ties": 5698, "tifica": 5699, "travel": 5700, "trie": 5701, "turing": 5702, "ues": 5703, "uk": 5704, "viz": 5705, "vy": 5706, "wa": 5707, "wan": 5708, "you": 5709, "za": 5710, "zli": 5711, "~": 5712, "\u0405": 5713, "\u0410\u0423": 5714, "\u0411\u043b\u0430\u0433\u043e\u0434\u0430\u0440": 5715, "\u0415\u041a\u0421": 5716, "\u0418\u0422\u0418": 5717, "\u041a\u0420": 5718, "\u041a\u0423": 5719, "\u041b\u041e\u0413": 5720, "\u041c\u0410": 5721, "\u041c\u0415\u0420": 5722, "\u041c\u0438": 5723, "\u041e\u0412": 5724, "\u041f\u0423": 5725, "\u0420\u0430\u0434": 5726, "\u0420\u043e\u0441\u0441\u0438\u0439\u0441\u043a\u0430\u044f": 5727, "\u0421\u041b\u041e\u0412": 5728, "\u0421\u0435\u0440": 5729, "\u0422\u042b": 5730, "\u042b": 5731, "\u042d\u0442\u043e": 5732, "\u0430\u0441\u044c": 5733, "\u0431\u0435\u0442": 5734, "\u0431\u0440\u0430\u043d": 5735, "\u0432\u0430\u043b\u0438": 5736, "\u0432\u043e\u0434\u0430": 5737, "\u0432\u043e\u0434\u0438\u0442\u0435": 5738, "\u0432\u0443": 5739, "\u0432\u0448\u0438\u0441\u044c": 5740, "\u0433\u0430\u043b": 5741, "\u0433\u043e\u0434": 5742, "\u0433\u043e\u043d": 5743, "\u0434\u0435\u0439": 5744, "\u0434\u043e\u0436": 5745, "\u0434\u0451": 5746, "\u0435\u0431": 5747, "\u0435\u0433\u0435": 5748, "\u0435\u0434\u0438\u043d": 5749, "\u0435\u043a\u0446\u0438\u044f": 5750, "\u0436\u0438": 5751, "\u0438\u0432\u0430\u0435\u0442": 5752, "\u0438\u0437\u043c": 5753, "\u043a\u0435\u0442": 5754, "\u043b\u0430\u0439\u043d": 5755, "\u043b\u0430\u0441\u044c": 5756, "\u043b\u0435\u0434\u0443\u044e\u0449\u0430\u044f": 5757, "\u043b\u0438\u0431\u043e": 5758, "\u043b\u0443\u0447\u0448\u0435": 5759, "\u043b\u044c\u043d\u044b\u0445": 5760, "\u043c\u0431": 5761, "\u043c\u0435\u043d\u0442": 5762, "\u043c\u043d\u043e\u0433\u043e": 5763, "\u043d\u0430\u043b": 5764, "\u043d\u043d\u043e\u0433\u043e": 5765, "\u043e\u0431\u0449\u0438": 5766, "\u043e\u0432\u0430\u043d": 5767, "\u043e\u043b\u043e\u0433": 5768, "\u043e\u0440\u0442": 5769, "\u0440\u0435\u0432": 5770, "\u0441\u0435\u043b\u0435\u043d\u0438\u0435": 5771, "\u0441\u043a\u043e": 5772, "\u0441\u0442\u0430\u0432\u043a\u0430": 5773, "\u0441\u0442\u0435": 5774, "\u0441\u0442\u0440\u0430\u0445": 5775, "\u0442\u0435\u043b": 5776, "\u0442\u0435\u043b\u044c\u043d\u044b\u0435": 5777, "\u0442\u0435\u0440\u0430": 5778, "\u0442\u0438\u0432": 5779, "\u0442\u0438\u0447\u0435\u0441\u043a\u0438\u0435": 5780, "\u0443\u0441\u0442": 5781, "\u0444\u0435\u0439\u0441": 5782, "\u0446\u0438\u043e\u043d\u043d\u044b\u0435": 5783, "\u0447\u0430\u044f": 5784, "\u0447\u0435\u0440\u043a": 5785, "\u0447\u0438\u0435": 5786, "\u0448\u0443": 5787, "\u044c\u043d\u043e\u0435": 5788, "\u044f\u0441": 5789, "\u2581#2": 5790, "\u2581(0": 5791, "\u2581(3": 5792, "\u2581(6": 5793, "\u2581(7": 5794, "\u25812020": 5795, "\u25813-": 5796, "\u25813:": 5797, "\u258148": 5798, "\u25814:": 5799, "\u258159": 5800, "\u258161": 5801, "\u258167": 5802, "\u25818-": 5803, "\u2581Admin": 5804, "\u2581Australia": 5805, "\u2581Austria": 5806, "\u2581Bahrain": 5807, "\u2581Ben": 5808, "\u2581Bio": 5809, "\u2581DIRECT": 5810, "\u2581Gas": 5811, "\u2581G\u00fcvenlik": 5812, "\u2581Ha": 5813, "\u2581Jab": 5814, "\u2581Law": 5815, "\u2581Nature": 5816, "\u2581Old": 5817, "\u2581Pin": 5818, "\u2581Poll": 5819, "\u2581Refer": 5820, "\u2581SUR": 5821, "\u2581Solar": 5822, "\u2581Staff": 5823, "\u2581Sum": 5824, "\u2581Support": 5825, "\u2581TR": 5826, "\u2581Title": 5827, "\u2581To": 5828, "\u2581Top": 5829, "\u2581WhatsApp": 5830, "\u2581You": 5831, "\u2581activity": 5832, "\u2581admin": 5833, "\u2581agent": 5834, "\u2581alt": 5835, "\u2581appro": 5836, "\u2581automatically": 5837, "\u2581bad": 5838, "\u2581calcula": 5839, "\u2581casca": 5840, "\u2581charge": 5841, "\u2581child": 5842, "\u2581com": 5843, "\u2581conditions": 5844, "\u2581confidential": 5845, "\u2581course": 5846, "\u2581detail": 5847, "\u2581etc": 5848, "\u2581father": 5849, "\u2581feedback": 5850, "\u2581fil": 5851, "\u2581fill": 5852, "\u2581find": 5853, "\u2581flat": 5854, "\u2581friends": 5855, "\u2581go": 5856, "\u2581hotel": 5857, "\u2581institution": 5858, "\u2581jur": 5859, "\u2581le": 5860, "\u2581like": 5861, "\u2581market": 5862, "\u2581mid": 5863, "\u2581national": 5864, "\u2581one": 5865, "\u2581platform": 5866, "\u2581products": 5867, "\u2581protected": 5868, "\u2581pt": 5869, "\u2581qi": 5870, "\u2581quest": 5871, "\u2581react": 5872, "\u2581recipient": 5873, "\u2581rem": 5874, "\u2581scale": 5875, "\u2581set": 5876, "\u2581stock": 5877, "\u2581teaser": 5878, "\u2581truck": 5879, "\u2581unique": 5880, "\u2581using": 5881, "\u2581xx": 5882, "\u2581\u00bb": 5883, "\u2581\u0410\u043d\u0434\u0440\u0435\u0439": 5884, "\u2581\u0410\u0440": 5885, "\u2581\u0411\u0443": 5886, "\u2581\u0412\u0430\u0440": 5887, "\u2581\u0414\u043e\u043a\u0443\u043c\u0435\u043d\u0442": 5888, "\u2581\u0414\u0440\u0443\u0433\u0430": 5889, "\u2581\u0415\u0432\u0440\u043e\u0441\u043e\u044e\u0437": 5890, "\u2581\u0416\u041a": 5891, "\u2581\u041a\u043e\u043c\u0443": 5892, "\u2581\u041b\u0435\u043d\u0438\u043d": 5893, "\u2581\u041c\u0430\u043b\u044c": 5894, "\u2581\u041c\u0435\u043d\u044f": 5895, "\u2581\u041c\u0435\u0440": 5896, "\u2581\u041f\u0420\u0418": 5897, "\u2581\u041f\u043e\u0447\u0435\u043c\u0443": 5898, "\u2581\u041f\u0440\u0430\u0432": 5899, "\u2581\u0420\u0430\u0434\u0438": 5900, "\u2581\u0420\u0435\u0441\u043f\u0443\u0431\u043b\u0438\u043a\u0430": 5901, "\u2581\u0421\u0430\u043c\u0430\u0440": 5902, "\u2581\u0421\u043b\u0443\u0436\u0431\u0430": 5903, "\u2581\u0421\u0442\u0440\u0430\u0445": 5904, "\u2581\u0423\u0441\u0442\u0430\u0432": 5905, "\u2581\u0423\u0447\u0438\u0442\u0435\u043b": 5906, "\u2581\u042d\u043a\u0441": 5907, "\u2581\u0430\u0432\u0442\u043e\u0440\u0430": 5908, "\u2581\u0430\u043a": 5909, "\u2581\u0431\u0435\u043b": 5910, "\u2581\u0431\u043e": 5911, "\u2581\u0432\u0435\u0440\u043e\u044f\u0442\u043d\u043e\u0441\u0442": 5912, "\u2581\u0432\u043d\u0438\u043c\u0430\u043d\u0438\u0435": 5913, "\u2581\u0432\u0440\u0430\u0447": 5914, "\u2581\u0432\u0441\u0435\u0433\u043e": 5915, "\u2581\u0433\u043b\u0430\u0432": 5916, "\u2581\u0433\u043e\u0441\u0442\u0438": 5917, "\u2581\u0433\u043e\u0442\u043e\u0432\u044b": 5918, "\u2581\u0434\u0435\u044f\u0442\u0435\u043b\u044c\u043d\u043e\u0441\u0442\u044c": 5919, "\u2581\u0434\u043e\u043a\u0443\u043c\u0435\u043d\u0442\u044b": 5920, "\u2581\u0434\u043e\u043c\u0435": 5921, "\u2581\u0437\u0430\u0432\u0435\u0434\u0435\u043d\u0438\u0439": 5922, "\u2581\u0437\u0430\u0440": 5923, "\u2581\u0438\u0433\u0440": 5924, "\u2581\u0438\u0433\u0440\u043e\u043a\u043e\u0432": 5925, "\u2581\u0438\u0433\u0440\u044b": 5926, "\u2581\u0438\u0437\u043c\u0435\u043d\u0435\u043d\u0438\u044f": 5927, "\u2581\u0438\u043d\u0442\u0435\u0440\u0435\u0441\u044b": 5928, "\u2581\u0438\u043d\u044b\u0445": 5929, "\u2581\u0438\u0441\u043a\u0430\u0442\u044c": 5930, "\u2581\u0438\u0441\u043f\u043e\u043b\u044c\u0437\u0443\u0435\u0442\u0441\u044f": 5931, "\u2581\u043a\u0430\u043a\u0438\u0445": 5932, "\u2581\u043a\u0430\u043a\u043e\u0433\u043e": 5933, "\u2581\u043a\u0430\u0442\u0435\u0433\u043e\u0440": 5934, "\u2581\u043a\u043b\u0430\u0441\u0441": 5935, "\u2581\u043a\u043e\u043c\u043c\u0435\u043d\u0442\u0430\u0440\u0438\u0438": 5936, "\u2581\u043a\u043e\u043c\u043d\u0430\u0442": 5937, "\u2581\u043a\u043e\u044d\u0444\u0444\u0438\u0446\u0438\u0435\u043d\u0442": 5938, "\u2581\u043a\u0443\u0440\u0441\u0435": 5939, "\u2581\u043b\u043e\u044f\u043b\u044c\u043d": 5940, "\u2581\u043b\u044e\u0431\u0438\u043c": 5941, "\u2581\u043c\u0430\u0440\u043a\u0430": 5942, "\u2581\u043c\u0435\u0441\u044f\u0446\u0430": 5943, "\u2581\u043c\u0438\u043d\u0443\u0442": 5944, "\u2581\u043c\u0438\u0440\u0435": 5945, "\u2581\u043c\u043e\u043c\u0435\u043d\u0442\u0430": 5946, "\u2581\u043c\u0443\u043d\u0438\u0446\u0438\u043f\u0430\u043b": 5947, "\u2581\u043d\u0435\u0434\u0435\u043b\u0438": 5948, "\u2581\u043d\u0438\u043c\u0438": 5949, "\u2581\u043e\u0431\u043e": 5950, "\u2581\u043e\u0431\u0440\u0430\u0442\u043d\u043e": 5951, "\u2581\u043e\u043a": 5952, "\u2581\u043e\u043f\u0435\u0440\u0430\u0442\u0438\u0432\u043d\u043e": 5953, "\u2581\u043e\u043f\u043b\u0430\u0442\u0438": 5954, "\u2581\u043e\u043f\u044b\u0442": 5955, "\u2581\u043e\u0440\u0433\u0430\u043d\u0438\u0437\u0430\u0446\u0438\u0439": 5956, "\u2581\u043e\u0440\u0433\u0430\u043d\u0438\u0437\u0430\u0446\u0438\u044e": 5957, "\u2581\u043e\u0441\u0443\u0449\u0435\u0441\u0442\u0432\u043b\u0435\u043d\u0438\u0435": 5958, "\u2581\u043e\u0442\u0432\u0435\u0442\u0430": 5959, "\u2581\u043f\u0435\u0434\u0430\u0433\u043e\u0433": 5960, "\u2581\u043f\u043e\u0436\u0435\u043b\u0430": 5961, "\u2581\u043f\u043e\u043b\u043d\u043e\u043c": 5962, "\u2581\u043f\u043e\u043c\u043e\u0433\u0443\u0442": 5963, "\u2581\u043f\u043e\u0441\u0442\u043e\u044f\u043d\u043d\u043e": 5964, "\u2581\u043f\u043e\u0441\u0442\u0443\u043f\u043b\u0435\u043d\u0438\u044f": 5965, "\u2581\u043f\u043e\u0442\u0440\u0435\u0431\u0443\u0435\u0442\u0441\u044f": 5966, "\u2581\u043f\u0440\u0430\u0432\u0438\u043b\u044c\u043d\u043e": 5967, "\u2581\u043f\u0440\u0435\u0431\u044b\u0432\u0430": 5968, "\u2581\u043f\u0440\u0435\u0434\u043e\u0441\u0442\u0430\u0432\u0438\u0442\u044c": 5969, "\u2581\u0440\u0430\u0431\u043e\u0447\u0438\u0439": 5970, "\u2581\u0440\u0430\u0434\u0438": 5971, "\u2581\u0440\u0430\u0437\u0430": 5972, "\u2581\u0440\u0435\u0441\u043f\u0443\u0431\u043b\u0438\u043a\u0430": 5973, "\u2581\u0440\u0435\u0441\u0443\u0440\u0441\u044b": 5974, "\u2581\u0440\u0435\u0448\u0435\u043d\u0438\u044f": 5975, "\u2581\u0440\u0438\u0441": 5976, "\u2581\u0440\u043e\u043b\u044c": 5977, "\u2581\u0441\u0432\u0435\u0434\u0435\u043d\u0438\u0439": 5978, "\u2581\u0441\u0432\u0435\u0440\u0445": 5979, "\u2581\u0441\u0432\u043e\u0435\u0439": 5980, "\u2581\u0441\u0432\u044f\u0437\u044c": 5981, "\u2581\u0441\u0435\u0431\u044f": 5982, "\u2581\u0441\u0435\u043a": 5983, "\u2581\u0441\u043a\u0430\u043d": 5984, "\u2581\u0441\u043e\u0431\u0441\u0442\u0432\u0435\u043d\u043d\u0438\u043a": 5985, "\u2581\u0441\u043e\u0437\u0434\u0430\u043d\u0438\u044f": 5986, "\u2581\u0441\u043e\u043e\u0431\u0449\u0435\u0441\u0442\u0432\u0430": 5987, "\u2581\u0441\u043e\u0442\u0440\u0443\u0434\u043d\u0438\u043a": 5988, "\u2581\u0441\u043e\u0445\u0440\u0430\u043d": 5989, "\u2581\u0441\u0442\u0430\u0432\u043a\u0430": 5990, "\u2581\u0441\u0442\u0430\u043b": 5991, "\u2581\u0441\u0442\u0435": 5992, "\u2581\u0441\u0443\u0431": 5993, "\u2581\u0442\u0435": 5994, "\u2581\u0442\u0435\u0445\u043d\u0438\u043a\u0430": 5995, "\u2581\u0442\u0435\u0447\u0435\u043d\u0438\u0435": 5996, "\u2581\u0442\u0438": 5997, "\u2581\u0442\u043e\u0447\u043d\u043e": 5998, "\u2581\u0442\u0440\u0430\u0444\u0438\u043a": 5999, "\u2581\u0442\u0440\u0438": 6000, "\u2581\u0442\u0443\u0440\u0430": 6001, "\u2581\u0443\u043a\u0430\u0437\u0430\u043d\u0438\u0435\u043c": 6002, "\u2581\u0443\u0441\u043f\u0435\u0448\u043d\u043e": 6003, "\u2581\u0443\u0447\u0435\u0431\u043d\u043e": 6004, "\u2581\u0444\u0430\u0439\u043b\u044b": 6005, "\u2581\u0444\u0430\u043a\u0442\u0438\u0447\u0435\u0441\u043a\u0438": 6006, "\u2581\u0444\u0438\u0437\u0438\u0447\u0435\u0441\u043a\u043e": 6007, "\u2581\u0444\u043e\u0440\u043c\u0430\u043b\u044c\u043d\u043e": 6008, "\u2581\u0444\u0443\u043d\u043a\u0446\u0438\u043e\u043d\u0430\u043b": 6009, "\u2581\u0446\u0435\u043b\u044c\u044e": 6010, "\u2581\u0446\u0435\u043d": 6011, "\u2581\u0446\u0438\u0444\u0440\u043e\u0432": 6012, "\u2581\u0447\u0435\u0440\u043d\u043e": 6013, "\u2581\u044f\u0437\u044b\u043a\u0430": 6014, "\u2581\u201c": 6015, "\u2581\u25bc": 6016, "\u7801": 6017, "\u8bf7": 6018, "(1)": 6019, "(2)": 6020, "+1": 6021, "-100": 6022, "-55": 6023, "-60": 6024, "-70": 6025, "/3": 6026, "0.7": 6027, "112": 6028, "113": 6029, "122": 6030, "132": 6031, "134": 6032, "140": 6033, "149": 6034, "179": 6035, "1959": 6036, "2019": 6037, "260": 6038, "370": 6039, "395": 6040, "397": 6041, "431": 6042, "469": 6043, "479": 6044, "481": 6045, "645": 6046, "650": 6047, "653": 6048, "658": 6049, "660": 6050, "676": 6051, "688": 6052, "7-": 6053, "700": 6054, "737": 6055, "842": 6056, "987": 6057, "990": 6058, ":28": 6059, "=\"": 6060, "AB": 6061, "AME": 6062, "AU": 6063, "Adresse": 6064, "Ag": 6065, "BOT": 6066, "BS": 6067, "Block": 6068, "Bon": 6069, "Click": 6070, "DES": 6071, "DIR": 6072, "Da": 6073, "EIN": 6074, "ENT": 6075, "FC": 6076, "Gi": 6077, "Google": 6078, "HI": 6079, "IT": 6080, "ITE": 6081, "Ko": 6082, "LAB": 6083, "LEN": 6084, "LG": 6085, "LT": 6086, "MF": 6087, "Men": 6088, "NM": 6089, "News": 6090, "OC": 6091, "ORT": 6092, "OST": 6093, "Off": 6094, "Part": 6095, "Poli": 6096, "STO": 6097, "Sch": 6098, "Sex": 6099, "Start": 6100, "TEL": 6101, "TIT": 6102, "US": 6103, "Uz": 6104, "Var": 6105, "When": 6106, "YS": 6107, "^": 6108, "act": 6109, "alia": 6110, "and": 6111, "ard": 6112, "bic": 6113, "bit": 6114, "bric": 6115, "cale": 6116, "change": 6117, "chu": 6118, "cs": 6119, "dge": 6120, "dog": 6121, "dre": 6122, "dv": 6123, "elem": 6124, "eri": 6125, "etti": 6126, "fact": 6127, "feder": 6128, "ferenc": 6129, "fi": 6130, "fore": 6131, "foto": 6132, "hev": 6133, "hl": 6134, "hu": 6135, "ick": 6136, "ill": 6137, "ive": 6138, "ix": 6139, "izing": 6140, "kh": 6141, "kontakt": 6142, "ku": 6143, "lag": 6144, "land": 6145, "lica": 6146, "llet": 6147, "load": 6148, "mut": 6149, "ndar": 6150, "nome": 6151, "nov": 6152, "nummer": 6153, "object": 6154, "ongo": 6155, "ovy": 6156, "period": 6157, "ple": 6158, "plus": 6159, "prove": 6160, "ral": 6161, "rast": 6162, "rer": 6163, "retur": 6164, "rib": 6165, "rka": 6166, "rov": 6167, "roz": 6168, "san": 6169, "sche": 6170, "sert": 6171, "sis": 6172, "sites": 6173, "ski": 6174, "solid": 6175, "sta": 6176, "stag": 6177, "sure": 6178, "sz": 6179, "tain": 6180, "tha": 6181, "tif": 6182, "tk": 6183, "tting": 6184, "unk": 6185, "vanie": 6186, "via": 6187, "vid": 6188, "visi": 6189, "visible": 6190, "vv": 6191, "win": 6192, "wm": 6193, "wo": 6194, "youtube": 6195, "zap": 6196, "\u00a9": 6197, "\u0410\u0412": 6198, "\u0410\u0422": 6199, "\u0412\u0410": 6200, "\u0412\u0415\u0420": 6201, "\u0413\u0430\u0437\u043f\u0440\u043e\u043c": 6202, "\u0414\u0410\u041d": 6203, "\u0414\u0435": 6204, "\u0418\u0427": 6205, "\u0418\u042f": 6206, "\u041d\u041e\u0413\u041e": 6207, "\u041e\u0412\u0410": 6208, "\u041f\u0440\u0430\u0432": 6209, "\u0420\u041e\u0421": 6210, "\u0421\u043f": 6211, "\u0421\u0442\u0430\u0440": 6212, "\u0422\u041e": 6213, "\u0422\u0443\u0493\u0430\u043d": 6214, "\u0423\u0420": 6215, "\u0424\u043e\u0442\u043e": 6216, "\u0430\u0432\u0442\u043e\u0440": 6217, "\u0430\u043b\u0443": 6218, "\u0430\u0440": 6219, "\u0430\u0442\u0438\u0432\u043d\u0430": 6220, "\u0431\u043e\u043b\u044c\u0448": 6221, "\u0431\u044b\u043b": 6222, "\u0433\u0430": 6223, "\u0433\u043b\u0430\u0441": 6224, "\u0433\u0440\u0430\u043c": 6225, "\u0434\u0430\u0432\u0430": 6226, "\u0434\u0430\u043b\u0438": 6227, "\u0434\u0435\u043b\u0430\u0442\u044c": 6228, "\u0434\u043a\u0430": 6229, "\u0434\u043e\u043f\u0443\u0441\u0442\u0438\u043c": 6230, "\u0435\u0433\u043e": 6231, "\u0435\u043a\u0446\u0438\u0438": 6232, "\u0436\u0430\u0439": 6233, "\u0436\u0435\u043d\u0438\u044f": 6234, "\u0436\u0443": 6235, "\u0437\u0438\u0446\u0438": 6236, "\u0438\u0432": 6237, "\u0438\u0437\u0438\u0440\u043e\u0432\u0430\u043d": 6238, "\u0438\u0441\u043a\u0430": 6239, "\u0438\u0442\u0441\u044f": 6240, "\u0438\u0447\u0435\u0441\u043a\u0438\u0435": 6241, "\u043a\u0430\u0437\u0430": 6242, "\u043a\u043e\u0432\u0430": 6243, "\u043a\u043e\u0435": 6244, "\u043a\u043e\u043b\u0435": 6245, "\u043a\u0443\u043b": 6246, "\u043c\u0430\u0442\u0440\u0438": 6247, "\u043c\u043e\u0431\u0438\u043b": 6248, "\u043c\u043e\u0439": 6249, "\u043c\u043e\u043d": 6250, "\u043d\u0435\u0448": 6251, "\u043d\u0438\u0446\u0435": 6252, "\u043e\u0431\u0440\u0430\u0437": 6253, "\u043e\u0432\u0430\u043d\u0438": 6254, "\u043e\u0432\u0430\u043d\u0438\u044f": 6255, "\u043e\u0432\u043a\u0430": 6256, "\u043e\u0432\u0441\u043a\u0438": 6257, "\u043e\u0437": 6258, "\u043e\u0440": 6259, "\u043e\u0442\u0435\u0440\u0430\u043f\u0438\u044f": 6260, "\u043e\u0447": 6261, "\u043f\u0438": 6262, "\u043f\u0440\u0430\u0432\u043b\u044f\u044e": 6263, "\u0440\u0430\u0431\u043e\u0442\u043a\u0430": 6264, "\u0440\u0435\u043d\u0438\u0435": 6265, "\u0440\u0438\u0442": 6266, "\u0440\u043e\u0437": 6267, "\u0440\u0443\u0433": 6268, "\u0441\u0432\u044f": 6269, "\u0441\u043b\u0443\u0436\u0435\u0431\u043d": 6270, "\u0441\u043e\u0432": 6271, "\u0441\u0441\u0438": 6272, "\u0441\u0442\u0430\u0432\u043a\u0438": 6273, "\u0441\u0442\u0440\u0430\u043d": 6274, "\u0441\u0443\u043c": 6275, "\u0442\u0430\u0446\u0438\u044f": 6276, "\u0442\u0435\u043b\u044c\u043d\u043e\u0433\u043e": 6277, "\u0442\u0438\u043c": 6278, "\u0442\u0438\u043d\u0433": 6279, "\u0442\u043e\u0440\u0430": 6280, "\u0443\u043b": 6281, "\u0445\u0438": 6282, "\u0446\u0435\u043d": 6283, "\u0447\u0430\u0441\u0442\u044c": 6284, "\u0447\u0435\u0439": 6285, "\u0447\u0442\u043e": 6286, "\u0448\u0435\u0433\u043e": 6287, "\u0448\u0435\u043d": 6288, "\u044d\u0440": 6289, "\u0451\u0440": 6290, "\u2013": 6291, "\u2581#3": 6292, "\u2581(10)": 6293, "\u2581(12)": 6294, "\u2581(2": 6295, "\u2581(7)": 6296, "\u2581(9)": 6297, "\u25810.1": 6298, "\u2581130": 6299, "\u2581165": 6300, "\u25812,3": 6301, "\u25814.": 6302, "\u2581AUTO": 6303, "\u2581Age": 6304, "\u2581Agreement": 6305, "\u2581Al": 6306, "\u2581Amazon": 6307, "\u2581Apartment": 6308, "\u2581Arriva": 6309, "\u2581Auto": 6310, "\u2581Az": 6311, "\u2581BI": 6312, "\u2581BU": 6313, "\u2581Bill": 6314, "\u2581COM": 6315, "\u2581CU": 6316, "\u2581Designer": 6317, "\u2581Display": 6318, "\u2581EL": 6319, "\u2581English": 6320, "\u2581FC": 6321, "\u2581Fax": 6322, "\u2581Fra": 6323, "\u2581Guest": 6324, "\u2581If": 6325, "\u2581International": 6326, "\u2581Internet": 6327, "\u2581La": 6328, "\u2581License": 6329, "\u2581MT": 6330, "\u2581Master": 6331, "\u2581Matrix": 6332, "\u2581Meta": 6333, "\u2581Miro": 6334, "\u2581Moscow": 6335, "\u2581Personal": 6336, "\u2581Pre": 6337, "\u2581Reform": 6338, "\u2581Representa": 6339, "\u2581Res": 6340, "\u2581Save": 6341, "\u2581Session": 6342, "\u2581Set": 6343, "\u2581Si": 6344, "\u2581Suche": 6345, "\u2581This": 6346, "\u2581Wall": 6347, "\u2581Wein": 6348, "\u2581Wellness": 6349, "\u2581While": 6350, "\u2581activa": 6351, "\u2581air": 6352, "\u2581ale": 6353, "\u2581anket": 6354, "\u2581below": 6355, "\u2581bottom": 6356, "\u2581boys": 6357, "\u2581came": 6358, "\u2581cancel": 6359, "\u2581cena": 6360, "\u2581chief": 6361, "\u2581companies": 6362, "\u2581cont": 6363, "\u2581context": 6364, "\u2581continue": 6365, "\u2581curso": 6366, "\u2581cv": 6367, "\u2581da": 6368, "\u2581days": 6369, "\u2581dit": 6370, "\u2581doctor": 6371, "\u2581doklad": 6372, "\u2581dr": 6373, "\u2581entry": 6374, "\u2581et": 6375, "\u2581foot": 6376, "\u2581forum": 6377, "\u2581giri\u015f": 6378, "\u2581girls": 6379, "\u2581help": 6380, "\u2581here": 6381, "\u2581hin": 6382, "\u2581magistrat": 6383, "\u2581ml": 6384, "\u2581models": 6385, "\u2581moze": 6386, "\u2581office": 6387, "\u2581online": 6388, "\u2581pad": 6389, "\u2581page": 6390, "\u2581partner": 6391, "\u2581per": 6392, "\u2581pet": 6393, "\u2581phrase": 6394, "\u2581player": 6395, "\u2581please": 6396, "\u2581point": 6397, "\u2581require": 6398, "\u2581sa": 6399, "\u2581sale": 6400, "\u2581shop": 6401, "\u2581shopping": 6402, "\u2581shown": 6403, "\u2581some": 6404, "\u2581tattoo": 6405, "\u2581taxes": 6406, "\u2581th": 6407, "\u2581tyre": 6408, "\u2581unit": 6409, "\u2581updates": 6410, "\u2581used": 6411, "\u2581valid": 6412, "\u2581vi": 6413, "\u2581wa": 6414, "\u2581we": 6415, "\u2581whatsapp": 6416, "\u2581widget": 6417, "\u2581\u0410\u0437\u0435\u0440\u0431\u0430\u0439\u0434\u0436\u0430\u043d": 6418, "\u2581\u0412\u043b\u0430\u0434\u0435": 6419, "\u2581\u0412\u043b\u0430\u0434\u0438\u043c\u0438\u0440": 6420, "\u2581\u0413\u043e\u0440": 6421, "\u2581\u0413\u0443": 6422, "\u2581\u0414\u0435\u0442\u0441\u043a\u0438": 6423, "\u2581\u0418\u043d\u043e\u0433\u0434\u0430": 6424, "\u2581\u0418\u043d\u0441\u0442\u0430\u0433\u0440\u0430\u043c": 6425, "\u2581\u041a\u043e\u043d\u0444\u0435\u0440\u0435\u043d\u0446": 6426, "\u2581\u041b\u0430\u0432": 6427, "\u2581\u041c\u0430\u0441\u0442\u0435\u0440": 6428, "\u2581\u041c\u0438": 6429, "\u2581\u041d\u0430\u0440\u043e\u0434\u043d\u0430": 6430, "\u2581\u041e\u0431\u0449\u0430": 6431, "\u2581\u041f\u0430\u0441": 6432, "\u2581\u041f\u0435\u0442\u0440": 6433, "\u2581\u041f\u043b\u043e": 6434, "\u2581\u041f\u043e\u043b\u043e\u0436\u0435\u043d\u0438\u0435": 6435, "\u2581\u041f\u0440\u043e\u0434\u0430\u0436": 6436, "\u2581\u041f\u044f\u0442": 6437, "\u2581\u0420\u0435\u0439\u0442\u0438\u043d\u0433": 6438, "\u2581\u0420\u0435\u0448": 6439, "\u2581\u0421\u0435\u043a\u0441": 6440, "\u2581\u0422\u043e": 6441, "\u2581\u0422\u0440\u0435": 6442, "\u2581\u0422\u0443\u0440": 6443, "\u2581\u0424\u0435\u0441\u0442\u0438\u0432\u0430\u043b": 6444, "\u2581\u0424\u043e\u0442\u043e\u0433\u0440\u0430\u0444": 6445, "\u2581\u0424\u0443\u043d\u043a\u0446": 6446, "\u2581\u0427\u0435": 6447, "\u2581\u0430\u043a\u0430\u0434\u0435\u043c": 6448, "\u2581\u0430\u043f": 6449, "\u2581\u0430\u043f\u043f\u0430\u0440\u0430\u0442": 6450, "\u2581\u0430\u0443\u0434\u0438\u043e": 6451, "\u2581\u0431\u0430\u0437\u0443": 6452, "\u2581\u0431\u043b\u043e\u043a": 6453, "\u2581\u0431\u0440\u043e": 6454, "\u2581\u0432\u0430\u043a\u0430": 6455, "\u2581\u0432\u0430\u0440\u0438\u0430\u043d\u0442\u043e\u0432": 6456, "\u2581\u0432\u0435\u0440\u0441\u0438\u0438": 6457, "\u2581\u0432\u0435\u0440\u0445": 6458, "\u2581\u0432\u0438\u0434\u0435": 6459, "\u2581\u0432\u043e\u0437\u043c\u043e\u0436\u043d\u043e\u0441\u0442\u0438": 6460, "\u2581\u0432\u0441\u0442\u0440\u0435\u0447\u0438": 6461, "\u2581\u0432\u0443\u0437": 6462, "\u2581\u0432\u044b\u0445\u043e\u0434\u0430": 6463, "\u2581\u0433\u0433": 6464, "\u2581\u0433\u043e\u0441\u0443\u0434\u0430\u0440\u0441\u0442\u0432\u0435\u043d\u043d\u043e\u0439": 6465, "\u2581\u0434\u0435\u043d\u0435\u0436\u043d\u043e": 6466, "\u2581\u0434\u0438": 6467, "\u2581\u0434\u0438\u0430\u0433\u043d\u043e\u0441\u0442\u0438\u043a\u0430": 6468, "\u2581\u0434\u0438\u0440\u0435\u043a\u0442\u043e\u0440\u0430": 6469, "\u2581\u0434\u043e\u0441\u0442\u0443\u043f\u043d\u044b": 6470, "\u2581\u0434\u043e\u0445\u043e\u0434\u043e\u0432": 6471, "\u2581\u0434\u0440": 6472, "\u2581\u0434\u0440\u0443\u0433\u0443\u044e": 6473, "\u2581\u0434\u0440\u0443\u0437\u044c\u044f": 6474, "\u2581\u0435\u0434\u0438\u043d\u0438\u0446": 6475, "\u2581\u0437\u0430\u0439": 6476, "\u2581\u0437\u0430\u043c": 6477, "\u2581\u0437\u0430\u043d\u0438\u043c\u0430": 6478, "\u2581\u0437\u0430\u044f\u0432\u043b\u0435\u043d\u0438\u044f": 6479, "\u2581\u0437\u043d\u0430\u0442\u044c": 6480, "\u2581\u0438\u0437\u0431\u0440\u0430\u043d": 6481, "\u2581\u0438\u0441\u0442\u043e\u0447\u043d\u0438\u043a": 6482, "\u2581\u0438\u044e\u043b\u044f": 6483, "\u2581\u043a\u0430\u043a\u043e\u043c": 6484, "\u2581\u043a\u0430\u043d\u0430\u043b": 6485, "\u2581\u043a\u0435\u043c": 6486, "\u2581\u043a\u043e\u043d": 6487, "\u2581\u043a\u043e\u043d\u0442\u0440\u0430": 6488, "\u2581\u043a\u043e\u0442\u043e\u0440\u043e\u043c": 6489, "\u2581\u043a\u043e\u0442\u043e\u0440\u044b\u0445": 6490, "\u2581\u043a\u04af\u043d\u0456": 6491, "\u2581\u043b\u0430\u0431\u043e\u0440\u0430\u0442\u043e\u0440": 6492, "\u2581\u043b\u0435\u043a\u0430\u0440\u0441\u0442\u0432": 6493, "\u2581\u043b\u0443\u0447\u0448\u0435": 6494, "\u2581\u043b\u0443\u0447\u0448\u0438\u0445": 6495, "\u2581\u043b\u044e\u0434\u0435\u0439": 6496, "\u2581\u043c\u0435\u043d\u044c\u0448\u0435": 6497, "\u2581\u043d\u0430\u043a\u043e\u043f\u043b\u0435\u043d": 6498, "\u2581\u043d\u0430\u043f\u0440\u0430\u0432\u043b\u0435\u043d": 6499, "\u2581\u043e\u0431\u043e\u0440\u0443\u0434\u043e\u0432\u0430\u043d\u0438\u044f": 6500, "\u2581\u043e\u0431\u0440\u0430\u0442\u0438": 6501, "\u2581\u043e\u0431\u0443\u0447\u0435\u043d\u0438\u0435": 6502, "\u2581\u043e\u0431\u044f\u0437\u0430\u0442\u0435\u043b\u044c\u0441\u0442\u0432": 6503, "\u2581\u043e\u043f\u0440\u043e\u0441": 6504, "\u2581\u043e\u0442\u0432\u0435\u0442\u0441\u0442\u0432\u0435\u043d\u043d\u043e\u0441\u0442\u044c": 6505, "\u2581\u043f\u0435\u0440\u0432\u044b\u0435": 6506, "\u2581\u043f\u0435\u0440\u0432\u044b\u0439": 6507, "\u2581\u043f\u043e\u0437\u0438\u0446\u0438\u0438": 6508, "\u2581\u043f\u043e\u0437\u0438\u0446\u0438\u044e": 6509, "\u2581\u043f\u043e\u043a\u0430\u0437\u0430": 6510, "\u2581\u043f\u043e\u043b\u0438\u0442\u0438\u043a\u0443": 6511, "\u2581\u043f\u043e\u043c\u0435\u0449\u0435\u043d\u0438\u044f": 6512, "\u2581\u043f\u043e\u043c\u043d\u044e": 6513, "\u2581\u043f\u043e\u043c\u043e\u0436\u0435\u0442": 6514, "\u2581\u043f\u043e\u0440\u043e\u0434": 6515, "\u2581\u043f\u043e\u0440\u0442\u0444\u0435\u043b": 6516, "\u2581\u043f\u043e\u0441\u043b\u0435\u0434\u043d\u0435\u0439": 6517, "\u2581\u043f\u043e\u0441\u043b\u0435\u0434\u0443\u044e\u0449\u0435": 6518, "\u2581\u043f\u0440\u0435\u0431\u044b\u0432\u0430\u043d\u0438\u044f": 6519, "\u2581\u043f\u0440\u0435\u0438\u043c\u0443\u0449\u0435\u0441\u0442\u0432\u0430": 6520, "\u2581\u043f\u0440\u0435\u043f\u0430\u0440\u0430\u0442": 6521, "\u2581\u043f\u0440\u0438\u0432\u043b\u0435\u043a": 6522, "\u2581\u043f\u0440\u0438\u043b\u043e\u0436\u0435\u043d": 6523, "\u2581\u043f\u0440\u0438\u043d\u0430\u0434\u043b\u0435\u0436": 6524, "\u2581\u043f\u0440\u043e\u0431": 6525, "\u2581\u043f\u0440\u043e\u0431\u043b\u0435\u043c\u0443": 6526, "\u2581\u043f\u0440\u043e\u0434\u043e\u043b\u0436\u0438": 6527, "\u2581\u043f\u0443\u0431\u043b\u0438\u043a\u0430": 6528, "\u2581\u043f\u0443\u0441\u0442\u043e": 6529, "\u2581\u0440\u0430\u0437\u043c\u0435": 6530, "\u2581\u0440\u0430\u0437\u043c\u0435\u0440": 6531, "\u2581\u0440\u0430\u0439\u043e\u043d\u043d\u043e\u0433\u043e": 6532, "\u2581\u0440\u0435\u0430\u043b\u0438\u0437\u0430\u0446\u0438\u0438": 6533, "\u2581\u0440\u0435\u0431\u0451\u043d\u043a\u0430": 6534, "\u2581\u0441\u0432\u043e\u0431\u043e\u0434\u043d\u043e": 6535, "\u2581\u0441\u043a": 6536, "\u2581\u0441\u043e\u0431\u0430\u043a": 6537, "\u2581\u0441\u043e\u0434\u0435\u0440\u0436\u0438\u0442": 6538, "\u2581\u0441\u043e\u0446\u0438\u0430\u043b\u044c\u043d\u043e\u0439": 6539, "\u2581\u0441\u043f\u0435\u0446\u0438\u0430\u043b": 6540, "\u2581\u0441\u043f\u043e\u0440\u0442\u0430": 6541, "\u2581\u0441\u0440\u043e\u043a": 6542, "\u2581\u0441\u0441\u044b\u043b\u043a\u0438": 6543, "\u2581\u0441\u0442\u0430\u0442\u044c\u0435": 6544, "\u2581\u0441\u0442\u0430\u0442\u044c\u044e": 6545, "\u2581\u0441\u0442\u043e\u0438\u043c\u043e\u0441\u0442\u044c": 6546, "\u2581\u0441\u0442\u0440\u043e\u0438": 6547, "\u2581\u0441\u0443\u043c\u043c\u0430": 6548, "\u2581\u0441\u044e\u0434\u0430": 6549, "\u2581\u0442\u0435\u0441\u0442\u043e\u0432": 6550, "\u2581\u0442\u0435\u0445\u043d\u043e\u043b\u043e\u0433\u0438\u0438": 6551, "\u2581\u0442\u0440\u0430\u043d\u0441": 6552, "\u2581\u0442\u0440\u0430\u043d\u0441\u043f\u043e\u0440\u0442": 6553, "\u2581\u0442\u0443\u0440\u043d\u0438\u0440": 6554, "\u2581\u0443\u0441\u043b\u043e\u0432\u0438\u0435": 6555, "\u2581\u0443\u0441\u0442\u0440\u043e\u0439\u0441\u0442\u0432\u043e": 6556, "\u2581\u0444\u0430\u0441\u0430\u0434": 6557, "\u2581\u0444\u0435\u0432\u0440\u0430\u043b\u044f": 6558, "\u2581\u0444\u043e\u0440\u043c": 6559, "\u2581\u0444\u0443\u0442\u0431\u043e\u043b\u044c\u043d": 6560, "\u2581\u0445\u0440\u0430\u043d\u0438": 6561, "\u2581\u0446\u0438\u043a\u043b": 6562, "\u2581\u0447\u0435\u043b\u043e\u0432\u0435\u043a\u0430": 6563, "\u2581\u044d\u0442\u0430": 6564, "\u2581\u0537\u056c": 6565, "\u7528\u6237": 6566, "\u9a8c\u8bc1": 6567, "%)": 6568, "''": 6569, "+)": 6570, "-12-": 6571, ".12.2012": 6572, "/2013": 6573, "00.00": 6574, "1-": 6575, "1-4": 6576, "1.1": 6577, "108": 6578, "129": 6579, "139": 6580, "150": 6581, "159": 6582, "174": 6583, "185": 6584, "2016": 6585, "2021": 6586, "230": 6587, "280": 6588, "3.5": 6589, "330": 6590, "344": 6591, "349": 6592, "360": 6593, "365": 6594, "438": 6595, "444": 6596, "464": 6597, "474": 6598, "476": 6599, "478": 6600, "5-6": 6601, "5.5": 6602, "500": 6603, "558": 6604, "568": 6605, "579": 6606, "594": 6607, "600": 6608, "646": 6609, "679": 6610, "7-8": 6611, "720": 6612, "755": 6613, "756": 6614, "757": 6615, "766": 6616, "785": 6617, "786": 6618, "837": 6619, "838": 6620, "858": 6621, "965": 6622, "966": 6623, "==": 6624, "AA": 6625, "ANCE": 6626, "AUT": 6627, "Af": 6628, "Al": 6629, "Archiv": 6630, "BH": 6631, "CEP": 6632, "CI": 6633, "Categori": 6634, "DV": 6635, "EAR": 6636, "English": 6637, "GR": 6638, "He": 6639, "Job": 6640, "Ju": 6641, "KA": 6642, "LK": 6643, "LL": 6644, "LP": 6645, "MS": 6646, "My": 6647, "NC": 6648, "NL": 6649, "ON": 6650, "PON": 6651, "Player": 6652, "Qual": 6653, "RAM": 6654, "SP": 6655, "Sal": 6656, "Sh": 6657, "TS": 6658, "Uni": 6659, "VV": 6660, "Vis": 6661, "WN": 6662, "YA": 6663, "ZE": 6664, "[11]": 6665, "[27]": 6666, "are": 6667, "ario": 6668, "arrow": 6669, "avat": 6670, "bad": 6671, "balance": 6672, "bbi": 6673, "bio": 6674, "br": 6675, "ccup": 6676, "chan": 6677, "chi": 6678, "ciones": 6679, "config": 6680, "contract": 6681, "cookies": 6682, "cord": 6683, "corp": 6684, "corpora": 6685, "cred": 6686, "dal": 6687, "du": 6688, "edu": 6689, "eign": 6690, "eng": 6691, "eve": 6692, "fec": 6693, "foot": 6694, "fund": 6695, "gent": 6696, "gey": 6697, "ggle": 6698, "gi": 6699, "ging": 6700, "glasi": 6701, "gs": 6702, "gues": 6703, "guru": 6704, "ha": 6705, "has": 6706, "hed": 6707, "heq": 6708, "hou": 6709, "hub": 6710, "ident": 6711, "ids": 6712, "ifier": 6713, "iin": 6714, "imas": 6715, "ings": 6716, "instagram": 6717, "invest": 6718, "kood": 6719, "kra": 6720, "ld": 6721, "len": 6722, "lete": 6723, "lg": 6724, "lish": 6725, "lit": 6726, "long": 6727, "mall": 6728, "mba": 6729, "media": 6730, "mento": 6731, "mese": 6732, "mis": 6733, "national": 6734, "niki": 6735, "nizi": 6736, "n\u0131z": 6737, "okon": 6738, "olla": 6739, "ombre": 6740, "ome": 6741, "ose": 6742, "ough": 6743, "party": 6744, "pc": 6745, "pers": 6746, "photo": 6747, "plat": 6748, "plication": 6749, "publish": 6750, "py": 6751, "quote": 6752, "rad": 6753, "rite": 6754, "r\u0259": 6755, "she": 6756, "sig": 6757, "solution": 6758, "space": 6759, "spring": 6760, "style": 6761, "support": 6762, "tax": 6763, "terna": 6764, "tin": 6765, "tok": 6766, "trix": 6767, "tru": 6768, "tt": 6769, "tz": 6770, "t\u0131r": 6771, "ulit": 6772, "ust": 6773, "vert": 6774, "vet": 6775, "vision": 6776, "vr": 6777, "way": 6778, "what": 6779, "wiz": 6780, "wp": 6781, "yahoo": 6782, "zz": 6783, "\u0130L": 6784, "\u040a": 6785, "\u0410\u041d\u0418": 6786, "\u0410\u0440": 6787, "\u0411\u0418": 6788, "\u0412\u0415": 6789, "\u0413\u0435\u0440": 6790, "\u0415\u0413": 6791, "\u0415\u041a\u0422": 6792, "\u0417\u0410": 6793, "\u0418\u0410": 6794, "\u0418\u0426\u0410": 6795, "\u0418\u043d": 6796, "\u0418\u0441": 6797, "\u041a\u0438": 6798, "\u041a\u043e\u0440": 6799, "\u041b\u0438": 6800, "\u041c\u0411": 6801, "\u041c\u043e": 6802, "\u041e\u0441\u043e\u0431": 6803, "\u041f\u0418\u0421": 6804, "\u041f\u041a": 6805, "\u041f\u0435\u0440": 6806, "\u0420\u041e\u0412": 6807, "\u0420\u041e\u0414": 6808, "\u0420\u0430\u0437": 6809, "\u0421\u042c": 6810, "\u0421\u0431\u0435\u0440\u0431\u0430\u043d\u043a": 6811, "\u0423\u041b": 6812, "\u0424\u0438\u043d\u0430\u043d\u0441": 6813, "\u0425\u0410": 6814, "\u0425\u041e\u0414": 6815, "\u0426\u0418": 6816, "\u0427\u0435\u043b\u044f\u0431\u0438\u043d\u0441\u043a": 6817, "\u0428\u0418": 6818, "\u042d\u041b": 6819, "\u0430\u0435\u0442\u0441\u044f": 6820, "\u0430\u043d\u0438\u0435": 6821, "\u0430\u0441\u0438": 6822, "\u0431\u0430\u043d\u043a": 6823, "\u0432\u0430\u043d": 6824, "\u0432\u0435\u0434\u0435": 6825, "\u0432\u0438\u0449": 6826, "\u0432\u043e\u0437\u0432\u0440\u0430\u0449\u0435\u043d": 6827, "\u0432\u0441\u0435": 6828, "\u0433\u0440\u0430\u043d": 6829, "\u0433\u0440\u0430\u0444": 6830, "\u0434\u0435\u043d\u0430": 6831, "\u0434\u0438\u043a\u0442": 6832, "\u0434\u043d\u0438\u0439": 6833, "\u0434\u043e\u0432\u0430": 6834, "\u0434\u043e\u043c\u0430\u0448\u043d": 6835, "\u0434\u0440\u0430": 6836, "\u0434\u0440\u043e": 6837, "\u0434\u0443\u043a": 6838, "\u0435\u0432\u0438\u0447": 6839, "\u0435\u043c\u043e\u0433\u043e": 6840, "\u0435\u043d\u043d\u044b\u0445": 6841, "\u0435\u0441": 6842, "\u0436\u0435\u043c": 6843, "\u0436\u0438\u0432\u0430\u0435\u0442": 6844, "\u0436\u043d\u0438": 6845, "\u0437\u043e": 6846, "\u0438\u0439\u0441\u043a\u0438": 6847, "\u0438\u043d\u0442\u0435\u0440\u0435\u0441": 6848, "\u0439\u0434\u0451\u0442": 6849, "\u0439\u0441\u044f": 6850, "\u043a\u0430\u044f": 6851, "\u043a\u043b\u0430": 6852, "\u043a\u043e\u043b": 6853, "\u043a\u043e\u043c\u043f\u0430\u043d\u0438": 6854, "\u043a\u0440\u0430\u0439": 6855, "\u043a\u0440\u044b\u0442\u044b": 6856, "\u043b\u0430\u0436": 6857, "\u043b\u0430\u0441": 6858, "\u043b\u0430\u0442": 6859, "\u043b\u0438\u0432\u0430": 6860, "\u043b\u043e\u0433\u043e": 6861, "\u043b\u043e\u0436": 6862, "\u043b\u0443": 6863, "\u043b\u044c\u043d\u044b": 6864, "\u043b\u044e\u0431": 6865, "\u043c\u0435\u043d\u0438": 6866, "\u043c\u043d": 6867, "\u043d\u0430\u0441": 6868, "\u043d\u0435\u043d\u0438\u0435": 6869, "\u043d\u0435\u0441\u0435\u043d\u0438\u044f": 6870, "\u043d\u0435\u0442": 6871, "\u043d\u0444\u043e\u0440\u043c\u0430\u0446": 6872, "\u043d\u044d": 6873, "\u043e\u0432\u0441\u043a\u0438\u0439": 6874, "\u043e\u0432\u044b\u043c": 6875, "\u043e\u043f\u0442": 6876, "\u043e\u0441\u043d\u043e\u0432": 6877, "\u043e\u0441\u0442\u0430": 6878, "\u043e\u0441\u0442\u0438": 6879, "\u043e\u0447\u043d\u043e\u0439": 6880, "\u043f\u0438\u0441\u043a\u0438": 6881, "\u043f\u0440\u0438\u0432": 6882, "\u043f\u0443\u043d\u043a\u0442": 6883, "\u0440\u0433\u0430\u043d": 6884, "\u0440\u0438\u0441": 6885, "\u0440\u0438\u0446\u0430": 6886, "\u0440\u043e\u0432\u0430": 6887, "\u0440\u0443\u0431": 6888, "\u0440\u0443\u0436\u0430": 6889, "\u0441\u0430\u0436": 6890, "\u0441\u0430\u043a": 6891, "\u0441\u0438\u043b": 6892, "\u0441\u043a\u0438": 6893, "\u0441\u043a\u0443\u044e": 6894, "\u0441\u043b\u0438": 6895, "\u0441\u043f\u043e\u0441\u043e\u0431": 6896, "\u0441\u043f\u0443": 6897, "\u0441\u0442\u0430\u0432\u043b\u044f\u0435\u043c": 6898, "\u0441\u0442\u0432\u0435": 6899, "\u0441\u0442\u0438\u0442\u0443\u0442": 6900, "\u0441\u0442\u043e\u0440\u0438": 6901, "\u0441\u0442\u044b": 6902, "\u0442\u0435\u043b\u044c\u0441\u0442\u0432": 6903, "\u0442\u0435\u043b\u044f\u043c": 6904, "\u0442\u0435\u043d": 6905, "\u0442\u0438\u043a\u0443": 6906, "\u0442\u0443\u0440": 6907, "\u0443\u0442": 6908, "\u0443\u0447": 6909, "\u0443\u0448\u043a\u0430": 6910, "\u0444\u043e": 6911, "\u0444\u0442": 6912, "\u0447\u0435\u043a": 6913, "\u0447\u0438\u043a\u0438": 6914, "\u0447\u0438\u043a\u043e\u0432": 6915, "\u0447\u0438\u0442\u0430": 6916, "\u0447\u0438\u0442\u0430\u0442\u044c": 6917, "\u0447\u043d\u043e": 6918, "\u0448\u043a\u043e\u043b": 6919, "\u0449\u0435\u0433\u043e": 6920, "\u044b\u0447": 6921, "\u044c\u044f": 6922, "\u044d\u043d": 6923, "\u044e\u0449\u0430\u044f": 6924, "\u044e\u0449\u0438\u0445": 6925, "\u044f\u0432\u043b\u044f\u0442\u044c\u0441\u044f": 6926, "\u044f\u043c": 6927, "\u044f\u043d\u043a\u0430": 6928, "\u0456\u0437": 6929, "\u0565\u0584": 6930, "\u0576": 6931, "\u0583\u0578\u057d\u057f": 6932, "\u066d": 6933, "\u10dd\u10da\u10d8": 6934, "\u201d": 6935, "\u2581(11)": 6936, "\u2581(15)": 6937, "\u2581(24)": 6938, "\u2581(26)": 6939, "\u2581--": 6940, "\u258102": 6941, "\u258105": 6942, "\u258110000": 6943, "\u2581108": 6944, "\u2581111": 6945, "\u25811200": 6946, "\u25812-3": 6947, "\u25812018": 6948, "\u2581400": 6949, "\u25815.": 6950, "\u2581500": 6951, "\u25816.": 6952, "\u258179": 6953, "\u258180": 6954, "\u2581AS": 6955, "\u2581Ara": 6956, "\u2581BMW": 6957, "\u2581Belgium": 6958, "\u2581Cat": 6959, "\u2581Cha": 6960, "\u2581Co": 6961, "\u2581Com": 6962, "\u2581Cookies": 6963, "\u2581Corre": 6964, "\u2581Days": 6965, "\u2581Delivery": 6966, "\u2581Device": 6967, "\u2581EUR": 6968, "\u2581Family": 6969, "\u2581GRA": 6970, "\u2581Gra": 6971, "\u2581HTML": 6972, "\u2581How": 6973, "\u2581Inc": 6974, "\u2581Inter": 6975, "\u2581Log": 6976, "\u2581Logg": 6977, "\u2581Logo": 6978, "\u2581MSN": 6979, "\u2581More": 6980, "\u2581Note": 6981, "\u2581PAT": 6982, "\u2581POST": 6983, "\u2581Para": 6984, "\u2581Pro": 6985, "\u2581Question": 6986, "\u2581Radio": 6987, "\u2581Status": 6988, "\u2581Store": 6989, "\u2581Subject": 6990, "\u2581Tax": 6991, "\u2581Tele": 6992, "\u2581Transfer": 6993, "\u2581USD": 6994, "\u2581Usu": 6995, "\u2581Ware": 6996, "\u2581\\\\": 6997, "\u2581^": 6998, "\u2581ab": 6999, "\u2581again": 7000, "\u2581aid": 7001, "\u2581applicable": 7002, "\u2581bonus": 7003, "\u2581book": 7004, "\u2581bot": 7005, "\u2581catalog": 7006, "\u2581click": 7007, "\u2581component": 7008, "\u2581container": 7009, "\u2581corporate": 7010, "\u2581courses": 7011, "\u2581create": 7012, "\u2581cru": 7013, "\u2581daxil": 7014, "\u2581del": 7015, "\u2581distribution": 7016, "\u2581dom": 7017, "\u2581edin": 7018, "\u2581event": 7019, "\u2581experiences": 7020, "\u2581eye": 7021, "\u2581familia": 7022, "\u2581filial": 7023, "\u2581flight": 7024, "\u2581foreign": 7025, "\u2581format": 7026, "\u2581friend": 7027, "\u2581fully": 7028, "\u2581function": 7029, "\u2581game": 7030, "\u2581goal": 7031, "\u2581guarantee": 7032, "\u2581gw": 7033, "\u2581istiyorum": 7034, "\u2581kod": 7035, "\u2581least": 7036, "\u2581level": 7037, "\u2581live": 7038, "\u2581marketing": 7039, "\u2581mer": 7040, "\u2581messages": 7041, "\u2581mit": 7042, "\u2581more": 7043, "\u2581most": 7044, "\u2581music": 7045, "\u2581nam": 7046, "\u2581naviga": 7047, "\u2581notes": 7048, "\u2581notifica": 7049, "\u2581nu": 7050, "\u2581offers": 7051, "\u2581plan": 7052, "\u2581po": 7053, "\u2581prove": 7054, "\u2581public": 7055, "\u2581qa": 7056, "\u2581recover": 7057, "\u2581recovery": 7058, "\u2581relat": 7059, "\u2581reward": 7060, "\u2581rob": 7061, "\u2581robot": 7062, "\u2581screen": 7063, "\u2581shipping": 7064, "\u2581side": 7065, "\u2581sog": 7066, "\u2581speaker": 7067, "\u2581sponsor": 7068, "\u2581sports": 7069, "\u2581str": 7070, "\u2581suite": 7071, "\u2581tp": 7072, "\u2581trans": 7073, "\u2581two": 7074, "\u2581until": 7075, "\u2581va": 7076, "\u2581where": 7077, "\u2581xe": 7078, "\u2581years": 7079, "\u2581\u00d7": 7080, "\u2581\u0130": 7081, "\u2581\u0406\u043c": 7082, "\u2581\u0410\u043b\u0431\u0430\u043d": 7083, "\u2581\u0410\u043b\u0435\u043a\u0441\u0435\u0439": 7084, "\u2581\u0410\u0444\u0433\u0430\u043d\u0438\u0441\u0442\u0430\u043d": 7085, "\u2581\u0411\u0430\u043d": 7086, "\u2581\u0411\u0430\u0448": 7087, "\u2581\u0411\u0435\u043b\u0430\u0440\u0443\u0441\u044c": 7088, "\u2581\u0411\u043e\u043b\u044c\u0448\u0435": 7089, "\u2581\u0412\u041e": 7090, "\u2581\u0412\u0435\u0441\u0442\u0438": 7091, "\u2581\u0412\u0438\u0434\u0435\u043e": 7092, "\u2581\u0412\u0456\u0434": 7093, "\u2581\u0413\u0435\u043d": 7094, "\u2581\u0413\u043e\u0442\u043e\u0432": 7095, "\u2581\u0414\u041e": 7096, "\u2581\u0414\u0432\u0430": 7097, "\u2581\u0414\u0435\u043b": 7098, "\u2581\u0415\u0449\u0451": 7099, "\u2581\u0417\u0434\u0435\u0441\u044c": 7100, "\u2581\u0418\u041d": 7101, "\u2581\u041a\u0430\u0440\u0430": 7102, "\u2581\u041a\u043e\u043c\u0435\u043d\u0442\u0430\u0440\u0438": 7103, "\u2581\u041a\u0440\u0430\u0441": 7104, "\u2581\u041b\u0435": 7105, "\u2581\u041b\u0443": 7106, "\u2581\u041c\u0430\u0442\u0435\u0440\u0438\u0430\u043b": 7107, "\u2581\u041c\u0435\u0434\u0438\u0446\u0438\u043d\u0441\u043a": 7108, "\u2581\u041d\u0430\u0448\u0438": 7109, "\u2581\u041d\u043e\u0432\u0430": 7110, "\u2581\u041e\u043f\u0435\u0440\u0430": 7111, "\u2581\u041f\u0435\u0442\u0440\u043e\u0432": 7112, "\u2581\u041f\u043e\u043b\u043e\u0436\u0435\u043d\u0438\u044f": 7113, "\u2581\u041f\u043e\u043f\u0443\u043b\u044f\u0440": 7114, "\u2581\u041f\u0440": 7115, "\u2581\u041f\u0440\u0430\u0432\u043e": 7116, "\u2581\u0420\u0435\u0433\u043b\u0430\u043c\u0435\u043d\u0442": 7117, "\u2581\u0420\u0435\u0441\u043f\u0443\u0431\u043b\u0438\u043a\u0435": 7118, "\u2581\u0420\u0443\u0431": 7119, "\u2581\u0421\u0418\u0421\u0422\u0415\u041c": 7120, "\u2581\u0421\u0430\u0445\u0430": 7121, "\u2581\u0421\u0432": 7122, "\u2581\u0421\u0435\u0440\u0442\u0438\u0444\u0438\u043a\u0430\u0442": 7123, "\u2581\u0421\u0438\u0441\u0442\u0435\u043c\u0430": 7124, "\u2581\u0421\u043b\u0443": 7125, "\u2581\u0421\u043f\u043e\u0440\u0442": 7126, "\u2581\u0421\u0442\u043e": 7127, "\u2581\u0422\u0430\u0440": 7128, "\u2581\u0422\u0435\u043c": 7129, "\u2581\u0422\u0435\u0440": 7130, "\u2581\u0423\u043a\u0430\u0437": 7131, "\u2581\u0423\u0441\u043b\u0443\u0433": 7132, "\u2581\u0430\u0431\u043e\u043d\u0435\u043d\u0442": 7133, "\u2581\u0430\u043a\u0446\u0438\u0439": 7134, "\u2581\u0430\u043b\u044c\u0431\u043e\u043c": 7135, "\u2581\u0430\u043b\u044c\u0442\u0435\u0440\u043d\u0430\u0442\u0438\u0432": 7136, "\u2581\u0430\u043d\u0430\u043b\u0438\u0437\u0430": 7137, "\u2581\u0431\u043b\u0438\u0437\u043a\u0438": 7138, "\u2581\u0431\u043b\u044e\u0434": 7139,
[...]
